<pad>	0
<s>	0
</s>	0
<unk>	0
un	-0
▁un	-1
▁d	-2
an	-3
es	-4
en	-5
▁.	-6
▁s	-7
▁p	-8
▁de	-9
▁a	-10
ou	-11
▁une	-12
▁l	-13
▁c	-14
on	-15
os	-16
ap	-17
▁t	-18
ant	-19
mm	-20
ur	-21
▁f	-22
apos	-23
▁b	-24
ar	-25
▁en	-26
er	-27
et	-28
is	-29
mme	-30
le	-31
ho	-32
re	-33
▁m	-34
ent	-35
▁ho	-36
qu	-37
▁g	-38
te	-39
ans	-40
il	-41
in	-42
ve	-43
▁dans	-44
▁sur	-45
▁v	-46
▁j	-47
▁r	-48
▁homme	-49
▁des	-50
▁et	-51
▁ave	-52
▁avec	-53
or	-54
▁ch	-55
ux	-56
▁la	-57
it	-58
ch	-59
ir	-60
▁fe	-61
au	-62
▁à	-63
our	-64
▁tr	-65
ge	-66
▁,	-67
ss	-68
▁qu	-69
al	-70
ers	-71
▁n	-72
▁femme	-73
▁le	-74
▁deux	-75
▁es	-76
ont	-77
▁gr	-78
ue	-79
▁au	-80
onn	-81
ie	-82
at	-83
▁est	-84
and	-85
us	-86
lan	-87
ard	-88
▁je	-89
▁jou	-90
ot	-91
▁re	-92
out	-93
pe	-94
ain	-95
ille	-96
▁pr	-97
mmes	-98
▁pers	-99
▁personn	-100
as	-101
▁e	-102
▁ass	-103
▁mar	-104
ien	-105
▁par	-106
une	-107
▁assis	-108
oir	-109
▁é	-110
che	-111
▁gar	-112
▁se	-113
ol	-114
ri	-115
ée	-116
▁rou	-117
que	-118
ill	-119
▁fa	-120
▁por	-121
▁blan	-122
▁reg	-123
▁regard	-124
vant	-125
ment	-126
çon	-127
▁chien	-128
▁garçon	-129
mb	-130
tant	-131
▁enf	-132
bout	-133
▁debout	-134
▁enfant	-135
▁che	-136
▁personnes	-137
ois	-138
▁sont	-139
êt	-140
ti	-141
ère	-142
urs	-143
andis	-144
ne	-145
ab	-146
▁jeune	-147
▁pl	-148
▁devant	-149
▁h	-150
▁ar	-151
▁tandis	-152
▁ble	-153
▁hommes	-154
oupe	-155
▁aut	-156
▁fille	-157
se	-158
▁du	-159
▁les	-160
▁pet	-161
▁groupe	-162
▁noir	-163
age	-164
▁que	-165
▁ten	-166
té	-167
▁cour	-168
all	-169
end	-170
▁sa	-171
ire	-172
tes	-173
▁blanc	-174
ure	-175
▁rue	-176
▁son	-177
▁rouge	-178
ce	-179
av	-180
sh	-181
irt	-182
shirt	-183
ag	-184
am	-185
ient	-186
▁pour	-187
▁portant	-188
▁joue	-189
ass	-190
▁march	-191
▁vêt	-192
de	-193
ès	-194
▁gen	-195
ise	-196
ier	-197
tr	-198
▁cou	-199
▁br	-200
él	-201
ic	-202
be	-203
rière	-204
res	-205
▁bleu	-206
ig	-207
▁sau	-208
ine	-209
és	-210
ose	-211
▁gens	-212
▁trois	-213
▁o	-214
ate	-215
▁train	-216
▁ver	-217
able	-218
▁trav	-219
▁petit	-220
▁cô	-221
▁eau	-222
▁femmes	-223
▁fait	-224
ati	-225
ette	-226
to	-227
eau	-228
um	-229
▁enfants	-230
▁co	-231
lle	-232
mp	-233
▁qui	-234
hor	-235
▁chem	-236
▁côté	-237
▁dé	-238
ul	-239
uit	-240
▁or	-241
▁tient	-242
▁pho	-243
ong	-244
▁pro	-245
▁regarde	-246
▁autre	-247
▁ja	-248
▁ro	-249
▁in	-250
ite	-251
ête	-252
ons	-253
▁vêtu	-254
aux	-255
▁at	-256
▁bâ	-257
▁ma	-258
▁il	-259
isant	-260
▁près	-261
ettes	-262
▁photo	-263
ro	-264
▁personne	-265
unes	-266
▁grand	-267
ball	-268
▁ap	-269
▁no	-270
▁bal	-271
▁tenant	-272
▁cas	-273
▁air	-274
▁quel	-275
ors	-276
▁jouant	-277
▁ter	-278
ous	-279
▁vél	-280
iv	-281
ép	-282
ff	-283
are	-284
asse	-285
▁so	-286
▁pe	-287
ay	-288
▁jaune	-289
▁chemise	-290
ques	-291
timent	-292
▁jeunes	-293
ige	-294
▁bâtiment	-295
▁fr	-296
▁vélo	-297
▁main	-298
▁vo	-299
oule	-300
este	-301
▁bas	-302
anc	-303
▁petite	-304
▁trava	-305
▁jouent	-306
illes	-307
▁lors	-308
ange	-309
▁tout	-310
▁regardant	-311
▁arrière	-312
toir	-313
ut	-314
▁mont	-315
hors	-316
▁dehors	-317
▁fo	-318
▁éc	-319
▁â	-320
▁trot	-321
▁marche	-322
▁al	-323
si	-324
▁ne	-325
▁lun	-326
▁ball	-327
▁ex	-328
les	-329
▁blanche	-330
▁lunettes	-331
▁po	-332
▁plus	-333
▁vert	-334
▁veste	-335
des	-336
▁sour	-337
▁cl	-338
▁app	-339
▁vi	-340
▁ses	-341
▁long	-342
ouv	-343
▁assise	-344
▁trottoir	-345
sus	-346
▁sk	-347
bo	-348
▁saute	-349
ique	-350
▁faisant	-351
▁regardent	-352
veux	-353
▁table	-354
ct	-355
▁foot	-356
▁cheveux	-357
▁bl	-358
▁der	-359
rie	-360
mble	-361
iture	-362
▁sc	-363
me	-364
▁foule	-365
iste	-366
▁brun	-367
ond	-368
ées	-369
▁marchant	-370
▁porte	-371
▁derrière	-372
▁court	-373
use	-374
▁plage	-375
ang	-376
▁bleue	-377
▁col	-378
▁âg	-379
ais	-380
▁chap	-381
uis	-382
▁ad	-383
ord	-384
▁bois	-385
ieurs	-386
▁font	-387
ion	-388
ène	-389
eur	-390
▁her	-391
▁sac	-392
▁neige	-393
ac	-394
ert	-395
▁ballon	-396
ade	-397
endant	-398
one	-399
▁arb	-400
▁quelque	-401
ments	-402
▁plusieurs	-403
▁ob	-404
▁coup	-405
▁att	-406
▁bar	-407
▁rose	-408
plan	-409
ét	-410
iant	-411
▁herbe	-412
▁chose	-413
▁vers	-414
▁autres	-415
▁&	-416
▁filles	-417
térie	-418
ér	-419
ost	-420
▁st	-421
im	-422
ière	-423
▁asi	-424
▁asiati	-425
isc	-426
▁quat	-427
ourn	-428
quot	-429
▁am	-430
mbre	-431
▁tenue	-432
▁orange	-433
▁hau	-434
▁travers	-435
▁aux	-436
▁marchent	-437
▁quatre	-438
▁y	-439
tre	-440
▁chiens	-441
▁cost	-442
▁guit	-443
▁mur	-444
dessus	-445
▁sous	-446
▁chapeau	-447
▁costum	-448
▁football	-449
ub	-450
ad	-451
▁vie	-452
térieur	-453
amp	-454
▁bou	-455
▁chev	-456
ui	-457
illot	-458
▁maillot	-459
▁parc	-460
▁mot	-461
ort	-462
▁noire	-463
▁ville	-464
ace	-465
cti	-466
ron	-467
ches	-468
▁équ	-469
▁autour	-470
▁ouv	-471
▁ense	-472
iss	-473
leil	-474
▁leurs	-475
▁soleil	-476
int	-477
▁robe	-478
ation	-479
▁esc	-480
lant	-481
▁terr	-482
▁pou	-483
▁balle	-484
ente	-485
onc	-486
▁guitare	-487
ets	-488
▁to	-489
▁bord	-490
ures	-491
▁garçons	-492
ues	-493
▁tél	-494
▁chant	-495
▁gros	-496
board	-497
if	-498
ric	-499
▁plan	-500
nent	-501
▁pass	-502
▁course	-503
ing	-504
▁ac	-505
▁sal	-506
▁assises	-507
▁hab	-508
tru	-509
ule	-510
▁elle	-511
▁skate	-512
▁sol	-513
▁haut	-514
▁prend	-515
▁escal	-516
▁mat	-517
▁banc	-518
quette	-519
▁marron	-520
▁ensemble	-521
▁mag	-522
▁scène	-523
▁port	-524
▁travaill	-525
iè	-526
▁terre	-527
▁habill	-528
▁pant	-529
onne	-530
▁pantal	-531
oup	-532
cl	-533
▁all	-534
▁car	-535
air	-536
aire	-537
▁joueur	-538
▁gars	-539
▁terrain	-540
▁can	-541
▁cam	-542
▁cont	-543
▁journ	-544
▁vêtue	-545
cher	-546
hort	-547
hone	-548
▁ple	-549
éb	-550
▁gl	-551
▁pos	-552
▁asiatique	-553
ges	-554
▁équi	-555
▁short	-556
▁lui	-557
ieu	-558
▁cr	-559
▁ét	-560
▁mil	-561
être	-562
▁gris	-563
ricain	-564
▁ré	-565
onde	-566
▁jean	-567
▁mus	-568
▁res	-569
▁pantalon	-570
ourr	-571
▁obj	-572
▁dos	-573
▁tête	-574
▁viol	-575
▁voiture	-576
▁pol	-577
ateau	-578
mpl	-579
rap	-580
▁bo	-581
▁costume	-582
▁très	-583
iers	-584
▁casque	-585
▁béb	-586
▁mic	-587
▁télép	-588
ter	-589
▁ut	-590
▁util	-591
▁ins	-592
▁vête	-593
▁verte	-594
▁vis	-595
▁cheval	-596
▁montag	-597
▁casquette	-598
▁nourr	-599
▁chau	-600
▁couple	-601
▁i	-602
▁base	-603
leurs	-604
▁cor	-605
▁route	-606
▁acc	-607
▁bat	-608
▁ray	-609
▁bébé	-610
lent	-611
▁mo	-612
▁match	-613
▁k	-614
asin	-615
▁cuis	-616
▁magasin	-617
▁vêtements	-618
▁champ	-619
▁attr	-620
▁for	-621
▁extérieur	-622
ité	-623
▁bateau	-624
oc	-625
▁mant	-626
ign	-627
▁grande	-628
ta	-629
▁nombre	-630
▁souriant	-631
▁pendant	-632
▁sautant	-633
▁pouss	-634
▁téléphone	-635
▁prép	-636
▁surf	-637
▁rouges	-638
we	-639
ycl	-640
▁mé	-641
▁art	-642
▁pisc	-643
▁équipe	-644
▁piscine	-645
▁be	-646
pect	-647
▁man	-648
▁sable	-649
▁nourriture	-650
▁oc	-651
▁ouvri	-652
tent	-653
▁milieu	-654
▁courant	-655
up	-656
éricain	-657
eaux	-658
▁pel	-659
▁contre	-660
▁rep	-661
▁cycl	-662
ip	-663
aise	-664
▁leur	-665
ib	-666
▁ram	-667
id	-668
ouve	-669
enant	-670
▁adul	-671
▁spect	-672
▁arbre	-673
▁swe	-674
▁fl	-675
▁faire	-676
▁attrap	-677
orm	-678
▁prof	-679
▁sweat	-680
▁parle	-681
▁manteau	-682
tic	-683
ance	-684
▁pub	-685
▁prom	-686
▁skateboard	-687
urant	-688
oire	-689
▁gil	-690
▁noirs	-691
▁coll	-692
▁micro	-693
▁passe	-694
ied	-695
▁couv	-696
▁desc	-697
▁char	-698
▁comp	-699
▁publ	-700
▁journée	-701
▁bras	-702
▁blancs	-703
▁ess	-704
▁pan	-705
▁resta	-706
▁allong	-707
▁color	-708
▁feu	-709
▁visage	-710
▁an	-711
▁vieil	-712
nis	-713
▁lit	-714
▁entre	-715
▁travaille	-716
uie	-717
▁ép	-718
▁courent	-719
▁ce	-720
▁âgé	-721
▁danse	-722
op	-723
leur	-724
▁bask	-725
▁frap	-726
af	-727
ide	-728
▁fil	-729
▁face	-730
▁pied	-731
▁blonde	-732
▁chemin	-733
▁restaurant	-734
ole	-735
▁nu	-736
▁riv	-737
▁rasse	-738
▁tennis	-739
coup	-740
▁déb	-741
ction	-742
▁ent	-743
▁eux	-744
▁montagne	-745
aî	-746
▁ag	-747
igne	-748
▁ta	-749
▁salle	-750
▁sourit	-751
▁pat	-752
tique	-753
▁attend	-754
éan	-755
▁océan	-756
▁portable	-757
▁sp	-758
teau	-759
▁vend	-760
▁vol	-761
▁beau	-762
ke	-763
rès	-764
lles	-765
▁liv	-766
▁pier	-767
▁mains	-768
ow	-769
▁cin	-770
▁appr	-771
▁moto	-772
▁pose	-773
▁chauss	-774
▁public	-775
vers	-776
▁ser	-777
▁bain	-778
▁entr	-779
▁peint	-780
ix	-781
ale	-782
istes	-783
▁cinq	-784
iff	-785
iot	-786
▁piste	-787
▁arbres	-788
aine	-789
teur	-790
▁mang	-791
▁ord	-792
▁disc	-793
▁mais	-794
éc	-795
ché	-796
▁fleurs	-797
uits	-798
nes	-799
▁jeu	-800
▁plein	-801
▁rempl	-802
▁appare	-803
ég	-804
ouse	-805
▁âgée	-806
▁après	-807
▁cuisine	-808
▁tir	-809
ateur	-810
▁fonc	-811
▁tente	-812
ôt	-813
ents	-814
▁vag	-815
▁américain	-816
▁unif	-817
▁marché	-818
▁appareil	-819
▁baseball	-820
anç	-821
▁comb	-822
orme	-823
ateurs	-824
▁instru	-825
▁per	-826
▁blond	-827
ton	-828
▁te	-829
erte	-830
▁drap	-831
▁part	-832
▁beaucoup	-833
ile	-834
ros	-835
uses	-836
▁parlant	-837
ler	-838
▁él	-839
iennent	-840
▁rassemb	-841
ai	-842
esc	-843
▁écr	-844
▁tenues	-845
yant	-846
▁tab	-847
▁comm	-848
ages	-849
▁vêtus	-850
▁quelqu	-851
▁piè	-852
▁déc	-853
▁jouer	-854
▁débard	-855
isse	-856
▁av	-857
▁fig	-858
▁pap	-859
▁clôt	-860
▁nuit	-861
▁joueurs	-862
▁attraper	-863
tro	-864
▁met	-865
▁tor	-866
▁prépar	-867
▁travaillant	-868
▁aff	-869
▁bus	-870
▁jouet	-871
▁camion	-872
▁ou	-873
▁fen	-874
▁rayé	-875
issant	-876
▁chante	-877
▁ouvriers	-878
om	-879
▁mét	-880
▁mari	-881
▁basket	-882
▁descend	-883
▁pen	-884
▁planche	-885
▁tiennent	-886
ud	-887
▁pê	-888
▁gue	-889
▁anim	-890
▁habillé	-891
▁débardeur	-892
neig	-893
▁livre	-894
pl	-895
▁lac	-896
▁rampe	-897
▁z	-898
▁pont	-899
▁pièce	-900
▁dessus	-901
▁enneig	-902
▁gueule	-903
▁travaillent	-904
▁barbe	-905
▁entour	-906
▁rivière	-907
▁intérieur	-908
aie	-909
▁af	-910
▁con	-911
▁obs	-912
▁bleus	-913
▁mange	-914
▁blanches	-915
ak	-916
ins	-917
équ	-918
▁bonn	-919
▁conc	-920
▁ordin	-921
key	-922
▁mon	-923
▁écl	-924
ureau	-925
▁prod	-926
▁rocher	-927
▁violet	-928
▁adultes	-929
▁musique	-930
▁ils	-931
▁torse	-932
▁semble	-933
▁pi	-934
▁cycliste	-935
▁quelques	-936
mbr	-937
▁éch	-938
ition	-939
▁petits	-940
▁fenêtre	-941
▁bri	-942
▁ra	-943
▁déf	-944
▁nage	-945
illée	-946
▁frapp	-947
▁chaise	-948
▁maison	-949
▁pierre	-950
▁tour	-951
▁couvert	-952
▁spectateurs	-953
▁vé	-954
▁ind	-955
▁tap	-956
▁cons	-957
▁cours	-958
▁balanç	-959
▁mach	-960
▁utilise	-961
▁me	-962
ctif	-963
▁rec	-964
▁être	-965
▁parap	-966
▁clôture	-967
fl	-968
ants	-969
▁sor	-970
▁parapl	-971
▁pelouse	-972
ull	-973
▁sn	-974
ectif	-975
▁objectif	-976
▁carre	-977
▁corde	-978
▁stand	-979
▁chariot	-980
iel	-981
▁év	-982
anges	-983
▁gilet	-984
▁bonnet	-985
▁combin	-986
▁asiatiques	-987
▁arr	-988
▁rép	-989
▁vit	-990
▁objet	-991
▁point	-992
▁marches	-993
uche	-994
▁fris	-995
▁combinais	-996
oux	-997
éro	-998
▁tou	-999
chant	-1000
▁fête	-1001
▁costumes	-1002
ays	-1003
raph	-1004
▁net	-1005
iques	-1006
olesc	-1007
oy	-1008
▁rand	-1009
▁glace	-1010
▁netto	-1011
▁balançoire	-1012
▁do	-1013
éton	-1014
▁polo	-1015
▁snow	-1016
▁zone	-1017
▁manger	-1018
▁fam	-1019
▁pays	-1020
▁métro	-1021
▁vague	-1022
▁montre	-1023
▁posent	-1024
▁adolesc	-1025
▁snowboard	-1026
acle	-1027
▁fau	-1028
▁essay	-1029
▁figure	-1030
▁prenant	-1031
▁bi	-1032
▁jus	-1033
▁sou	-1034
▁sacs	-1035
▁pêche	-1036
▁allongé	-1037
erm	-1038
ffe	-1039
son	-1040
rant	-1041
▁cir	-1042
▁gra	-1043
▁polic	-1044
▁escalade	-1045
▁regarder	-1046
dé	-1047
gg	-1048
neau	-1049
▁partic	-1050
▁recouv	-1051
▁couleur	-1052
mi	-1053
ckey	-1054
nement	-1055
▁bâton	-1056
▁forêt	-1057
astique	-1058
▁hockey	-1059
▁parlent	-1060
▁lo	-1061
iens	-1062
▁band	-1063
▁cond	-1064
▁pull	-1065
▁voit	-1066
▁pieds	-1067
▁trouve	-1068
▁briques	-1069
▁machine	-1070
▁oranges	-1071
eux	-1072
▁fum	-1073
▁lég	-1074
▁panc	-1075
▁tomb	-1076
▁famille	-1077
▁chaussures	-1078
▁caf	-1079
▁embr	-1080
▁avant	-1081
▁beige	-1082
▁pancar	-1083
▁ordinateur	-1084
ach	-1085
ies	-1086
uil	-1087
ffit	-1088
▁cow	-1089
aires	-1090
graph	-1091
▁lanc	-1092
▁lance	-1093
▁colline	-1094
▁graffit	-1095
tos	-1096
▁bu	-1097
▁end	-1098
▁pois	-1099
▁quai	-1100
▁passent	-1101
déo	-1102
équent	-1103
▁music	-1104
▁escalier	-1105
▁fréquent	-1106
▁photograph	-1107
ym	-1108
yen	-1109
ieur	-1110
▁ens	-1111
▁exp	-1112
▁num	-1113
▁canap	-1114
▁longs	-1115
▁moyen	-1116
▁verre	-1117
▁jaunes	-1118
▁prendre	-1119
▁carreaux	-1120
erc	-1121
▁cap	-1122
▁pil	-1123
▁ret	-1124
▁café	-1125
▁dess	-1126
shirts	-1127
▁vieux	-1128
▁casques	-1129
▁fontaine	-1130
boy	-1131
▁dis	-1132
▁saut	-1133
▁canapé	-1134
▁métall	-1135
ls	-1136
gent	-1137
ours	-1138
▁circ	-1139
▁elles	-1140
▁photos	-1141
▁enneigée	-1142
▁combinaison	-1143
igt	-1144
▁doigt	-1145
▁ensole	-1146
erie	-1147
sons	-1148
▁gym	-1149
auche	-1150
▁bruns	-1151
▁faute	-1152
▁pente	-1153
▁noires	-1154
co	-1155
ouss	-1156
▁tous	-1157
itaire	-1158
▁parmi	-1159
▁prépare	-1160
▁fauteuil	-1161
▁parapluie	-1162
▁mas	-1163
icule	-1164
iment	-1165
▁park	-1166
▁somm	-1167
▁roche	-1168
▁entraî	-1169
▁constru	-1170
▁graffitis	-1171
▁ju	-1172
▁dés	-1173
▁mor	-1174
▁vif	-1175
▁dont	-1176
▁alors	-1177
▁défil	-1178
▁sorte	-1179
▁ensoleillée	-1180
▁cu	-1181
▁imp	-1182
▁diff	-1183
▁coure	-1184
▁bleues	-1185
▁travail	-1186
▁utilisant	-1187
bu	-1188
iti	-1189
▁ont	-1190
aises	-1191
▁pomp	-1192
▁frisbe	-1193
▁papier	-1194
ines	-1195
▁pav	-1196
▁stat	-1197
issent	-1198
▁cette	-1199
▁gilets	-1200
▁sommet	-1201
bes	-1202
dre	-1203
hon	-1204
ley	-1205
lier	-1206
entre	-1207
ffect	-1208
▁étud	-1209
▁bouche	-1210
▁effect	-1211
▁fruits	-1212
▁dansent	-1213
▁frisbee	-1214
▁ouvrier	-1215
uy	-1216
ini	-1217
ote	-1218
ceau	-1219
ouill	-1220
▁loin	-1221
▁attendent	-1222
aud	-1223
ice	-1224
ante	-1225
iver	-1226
roup	-1227
vent	-1228
▁esp	-1229
urité	-1230
▁hiver	-1231
▁adulte	-1232
▁numéro	-1233
▁nombreux	-1234
az	-1235
lè	-1236
▁lè	-1237
▁ach	-1238
▁toit	-1239
▁béton	-1240
▁clair	-1241
▁genoux	-1242
▁statue	-1243
▁vêtues	-1244
▁frapper	-1245
▁panneau	-1246
▁attendant	-1247
ém	-1248
xim	-1249
umes	-1250
▁nus	-1251
▁tas	-1252
ormes	-1253
▁sport	-1254
▁bureau	-1255
▁différ	-1256
▁cyclistes	-1257
▁plastique	-1258
onge	-1259
oute	-1260
▁véh	-1261
▁airs	-1262
▁sans	-1263
▁tire	-1264
ximité	-1265
▁pleine	-1266
▁pousse	-1267
▁rassembl	-1268
▁uniforme	-1269
▁proximité	-1270
oss	-1271
▁vue	-1272
▁gymn	-1273
▁boute	-1274
▁journal	-1275
▁w	-1276
▁cig	-1277
▁réc	-1278
cture	-1279
entes	-1280
▁passant	-1281
▁instruments	-1282
pt	-1283
▁dam	-1284
▁séc	-1285
chers	-1286
▁sort	-1287
▁stru	-1288
▁ligne	-1289
▁cuisin	-1290
▁lisant	-1291
▁posant	-1292
▁dansant	-1293
▁essayant	-1294
ales	-1295
▁jet	-1296
▁bond	-1297
▁volley	-1298
▁drapeau	-1299
▁rochers	-1300
▁feuilles	-1301
▁pancarte	-1302
▁spectacle	-1303
let	-1304
ibre	-1305
▁lum	-1306
▁six	-1307
▁âge	-1308
▁éle	-1309
▁évé	-1310
ivers	-1311
▁ciel	-1312
▁monte	-1313
▁portent	-1314
▁montagnes	-1315
▁uniformes	-1316
▁événement	-1317
oses	-1318
rique	-1319
▁mère	-1320
▁réun	-1321
▁argent	-1322
▁classe	-1323
▁randonn	-1324
▁sautent	-1325
▁maillots	-1326
▁particip	-1327
ils	-1328
▁va	-1329
rine	-1330
▁ois	-1331
ières	-1332
▁coin	-1333
▁père	-1334
▁sent	-1335
▁yeux	-1336
ennent	-1337
▁défilé	-1338
▁accroup	-1339
▁chaises	-1340
▁sécurité	-1341
▁traverse	-1342
▁fréquentée	-1343
▁métallique	-1344
ute	-1345
érie	-1346
▁ski	-1347
utent	-1348
▁jard	-1349
▁jupe	-1350
▁place	-1351
▁trans	-1352
▁chemis	-1353
▁foncés	-1354
▁grosse	-1355
▁sauter	-1356
▁concert	-1357
▁promène	-1358
▁mangeant	-1359
▁structure	-1360
▁nombreuses	-1361
pes	-1362
atou	-1363
▁pas	-1364
▁dort	-1365
▁temp	-1366
▁cigar	-1367
▁tapis	-1368
▁lancer	-1369
▁sourient	-1370
ié	-1371
▁pa	-1372
eurs	-1373
tier	-1374
▁dro	-1375
▁épau	-1376
▁bière	-1377
▁repas	-1378
▁rodéo	-1379
▁tatou	-1380
▁écrit	-1381
▁compét	-1382
▁jardin	-1383
▁rempli	-1384
▁écoute	-1385
▁chapeaux	-1386
▁prennent	-1387
▁as	-1388
aque	-1389
ence	-1390
▁rol	-1391
aisse	-1392
ésent	-1393
▁belle	-1394
▁obser	-1395
▁vélos	-1396
oul	-1397
euse	-1398
uant	-1399
▁dég	-1400
▁rem	-1401
antes	-1402
mbres	-1403
▁camp	-1404
▁jeux	-1405
▁comme	-1406
▁étant	-1407
▁roulant	-1408
▁sentier	-1409
▁habillée	-1410
▁voitures	-1411
▁étudiant	-1412
ait	-1413
art	-1414
ême	-1415
puis	-1416
▁pre	-1417
âteau	-1418
ignant	-1419
▁brune	-1420
▁équil	-1421
▁étend	-1422
▁depuis	-1423
▁panier	-1424
▁plonge	-1425
▁éclair	-1426
bogg	-1427
▁bot	-1428
▁sup	-1429
▁exam	-1430
▁gard	-1431
▁éche	-1432
boggan	-1433
▁accro	-1434
▁légumes	-1435
▁toboggan	-1436
▁compétition	-1437
oi	-1438
ré	-1439
ase	-1440
ive	-1441
urb	-1442
ver	-1443
▁jo	-1444
iche	-1445
▁mul	-1446
▁rap	-1447
▁sus	-1448
▁amis	-1449
▁donne	-1450
▁gauche	-1451
▁glisse	-1452
▁longue	-1453
▁tablier	-1454
▁équilibre	-1455
▁instrument	-1456
▁bik	-1457
▁fer	-1458
▁aide	-1459
▁jamb	-1460
▁prem	-1461
▁camér	-1462
▁tourn	-1463
▁violon	-1464
▁entouré	-1465
ling	-1466
▁bien	-1467
▁grim	-1468
▁barbu	-1469
▁décor	-1470
▁blonds	-1471
▁buvant	-1472
▁chantant	-1473
▁cigarette	-1474
olf	-1475
ande	-1476
esse	-1477
port	-1478
▁fal	-1479
itant	-1480
▁proj	-1481
▁arrêt	-1482
▁pluie	-1483
▁répar	-1484
▁advers	-1485
▁client	-1486
▁frappe	-1487
▁paysage	-1488
▁skateur	-1489
▁vieille	-1490
▁couleurs	-1491
ats	-1492
omb	-1493
ienne	-1494
mmeub	-1495
▁susp	-1496
▁boule	-1497
▁gants	-1498
▁ombre	-1499
▁verts	-1500
▁bottes	-1501
▁immeub	-1502
▁pilote	-1503
▁apprête	-1504
▁ballons	-1505
▁morceau	-1506
fs	-1507
ess	-1508
▁cert	-1509
▁côte	-1510
▁dame	-1511
▁scul	-1512
▁grise	-1513
▁âgées	-1514
itionne	-1515
▁artiste	-1516
▁battent	-1517
▁certain	-1518
▁colorés	-1519
▁drapeaux	-1520
▁habillés	-1521
▁rocheuse	-1522
▁véhicule	-1523
iqu	-1524
aste	-1525
essi	-1526
▁ore	-1527
▁afro	-1528
▁amus	-1529
▁sand	-1530
▁motard	-1531
▁poteau	-1532
▁falaise	-1533
▁suspend	-1534
américain	-1535
▁produits	-1536
▁traversent	-1537
▁ég	-1538
▁bow	-1539
▁env	-1540
▁grav	-1541
▁tent	-1542
▁trad	-1543
▁marti	-1544
▁circul	-1545
▁africain	-1546
▁construction	-1547
uc	-1548
év	-1549
▁pau	-1550
▁peu	-1551
▁bout	-1552
▁dépl	-1553
▁rang	-1554
▁motoc	-1555
▁nouve	-1556
▁micros	-1557
▁embrass	-1558
▁petites	-1559
▁bouteille	-1560
▁bâtiments	-1561
▁préparant	-1562
▁rassemblent	-1563
▁snowboardeur	-1564
▁ru	-1565
aval	-1566
cade	-1567
▁but	-1568
▁cher	-1569
▁seau	-1570
▁foncé	-1571
▁centre	-1572
▁escalad	-1573
▁surfeur	-1574
▁martiaux	-1575
▁peinture	-1576
▁traditionne	-1577
▁he	-1578
▁cad	-1579
▁pal	-1580
▁arts	-1581
▁donn	-1582
▁sauv	-1583
▁serv	-1584
▁robes	-1585
▁temps	-1586
▁caméra	-1587
▁grands	-1588
▁parler	-1589
▁bowling	-1590
▁courses	-1591
▁vendeur	-1592
▁policier	-1593
▁musiciens	-1594
▁ba	-1595
ross	-1596
tons	-1597
▁aid	-1598
▁ath	-1599
▁hor	-1600
ticol	-1601
▁fils	-1602
▁sold	-1603
llement	-1604
▁masque	-1605
▁chevaux	-1606
▁vitrine	-1607
▁multicol	-1608
own	-1609
▁dor	-1610
▁lire	-1611
▁inter	-1612
▁vertes	-1613
▁capuche	-1614
▁convers	-1615
▁mangent	-1616
▁chantier	-1617
▁couverture	-1618
ège	-1619
▁on	-1620
ible	-1621
quet	-1622
▁bag	-1623
estes	-1624
▁agen	-1625
▁empl	-1626
▁flot	-1627
▁même	-1628
▁ayant	-1629
▁pavée	-1630
▁écout	-1631
▁élect	-1632
▁penche	-1633
▁longues	-1634
▁préparent	-1635
▁traversant	-1636
do	-1637
uv	-1638
ères	-1639
▁lieu	-1640
abouss	-1641
▁filet	-1642
▁roses	-1643
▁espace	-1644
▁skieur	-1645
▁utilis	-1646
▁collier	-1647
▁ouverte	-1648
▁échelle	-1649
▁étendue	-1650
▁éclabouss	-1651
ume	-1652
▁ty	-1653
ayak	-1654
çant	-1655
▁bul	-1656
▁élo	-1657
indre	-1658
ériel	-1659
▁glac	-1660
▁trou	-1661
▁âgés	-1662
atique	-1663
▁avoir	-1664
▁canne	-1665
▁coiff	-1666
▁coupe	-1667
▁discu	-1668
▁expos	-1669
▁kayak	-1670
chestre	-1671
▁bulles	-1672
▁dessin	-1673
▁manches	-1674
▁premier	-1675
▁immeuble	-1676
▁matériel	-1677
▁motocross	-1678
▁go	-1679
▁ban	-1680
▁cer	-1681
terie	-1682
▁chin	-1683
▁tend	-1684
▁avion	-1685
▁rayée	-1686
▁échar	-1687
▁écran	-1688
▁bikini	-1689
▁rivage	-1690
essionne	-1691
▁peluche	-1692
▁orchestre	-1693
▁poussette	-1694
▁descendant	-1695
▁différentes	-1696
▁photographe	-1697
▁câ	-1698
inte	-1699
osse	-1700
rent	-1701
▁cre	-1702
▁mer	-1703
▁foul	-1704
▁semb	-1705
▁tiss	-1706
▁autom	-1707
▁forme	-1708
▁roule	-1709
▁droite	-1710
▁employ	-1711
▁gâteau	-1712
▁sombre	-1713
▁tirant	-1714
▁vagues	-1715
▁parking	-1716
▁poisson	-1717
▁remplie	-1718
▁allongée	-1719
▁batterie	-1720
▁pompiers	-1721
▁discutent	-1722
▁adolescent	-1723
by	-1724
sse	-1725
agne	-1726
itre	-1727
▁nat	-1728
▁urb	-1729
▁étr	-1730
adeau	-1731
athon	-1732
▁quar	-1733
▁heure	-1734
▁resse	-1735
▁promen	-1736
▁vendant	-1737
▁équipes	-1738
▁marathon	-1739
▁professionne	-1740
ore	-1741
ustr	-1742
▁bon	-1743
▁pot	-1744
iette	-1745
▁prêt	-1746
▁clown	-1747
▁mouve	-1748
▁patin	-1749
▁essaie	-1750
▁passer	-1751
▁cascade	-1752
▁foulard	-1753
▁marcher	-1754
▁boissons	-1755
▁comptoir	-1756
▁violette	-1757
▁conversation	-1758
ck	-1759
né	-1760
ces	-1761
esti	-1762
▁lab	-1763
▁été	-1764
▁boue	-1765
▁crav	-1766
▁inst	-1767
▁repr	-1768
▁brill	-1769
▁footb	-1770
▁repos	-1771
▁laisse	-1772
▁partie	-1773
▁chinois	-1774
▁coucher	-1775
▁taureau	-1776
▁terrasse	-1777
▁traverser	-1778
▁recouverte	-1779
ner	-1780
ope	-1781
▁ca	-1782
▁gon	-1783
▁inf	-1784
▁ren	-1785
▁rit	-1786
agent	-1787
plomb	-1788
▁dire	-1789
▁hors	-1790
▁manif	-1791
▁animée	-1792
▁clients	-1793
▁footbal	-1794
▁station	-1795
▁tableau	-1796
▁surplomb	-1797
▁pâ	-1798
▁si	-1799
elle	-1800
roit	-1801
▁boî	-1802
▁mir	-1803
▁occ	-1804
▁out	-1805
▁pom	-1806
▁atte	-1807
▁conf	-1808
▁golf	-1809
▁mons	-1810
illage	-1811
▁achet	-1812
▁allée	-1813
▁pause	-1814
▁prote	-1815
▁oiseau	-1816
▁affiche	-1817
▁boisson	-1818
▁endroit	-1819
▁mariage	-1820
▁policiers	-1821
▁recouvert	-1822
cope	-1823
▁bol	-1824
▁dét	-1825
▁eng	-1826
▁siè	-1827
nique	-1828
▁arri	-1829
▁fond	-1830
▁vole	-1831
▁athlè	-1832
▁vient	-1833
▁chauve	-1834
▁ciment	-1835
▁coloré	-1836
▁cordes	-1837
▁guitar	-1838
▁mariée	-1839
▁miroir	-1840
▁projet	-1841
▁attrape	-1842
▁manifes	-1843
▁écharpe	-1844
▁montrant	-1845
▁étudiants	-1846
ger	-1847
oot	-1848
▁ab	-1849
▁im	-1850
▁th	-1851
aiss	-1852
▁har	-1853
▁nav	-1854
▁dorm	-1855
▁piét	-1856
▁voie	-1857
▁dents	-1858
▁fleur	-1859
▁pelle	-1860
▁tasse	-1861
▁objets	-1862
▁roller	-1863
▁transp	-1864
▁cravate	-1865
▁joueuse	-1866
▁promenant	-1867
▁randonnée	-1868
▁rassemblées	-1869
ium	-1870
omp	-1871
▁op	-1872
▁pé	-1873
▁cér	-1874
▁dir	-1875
▁fro	-1876
▁tun	-1877
airie	-1878
chent	-1879
ercle	-1880
▁cuir	-1881
ations	-1882
▁surfe	-1883
▁animal	-1884
▁barbec	-1885
▁divers	-1886
▁endorm	-1887
▁rousse	-1888
▁sculpt	-1889
▁conduit	-1890
▁coureur	-1891
▁coureurs	-1892
▁monsieur	-1893
▁électrique	-1894
aqu	-1895
pom	-1896
pos	-1897
tin	-1898
▁gé	-1899
▁cab	-1900
▁tal	-1901
▁tuy	-1902
▁chat	-1903
▁maqu	-1904
▁obst	-1905
▁métal	-1906
▁souff	-1907
▁tronc	-1908
▁jouets	-1909
▁barbecue	-1910
▁représent	-1911
▁adolescents	-1912
je	-1913
ama	-1914
ici	-1915
acti	-1916
chée	-1917
▁gir	-1918
▁méd	-1919
iller	-1920
uisse	-1921
▁lève	-1922
▁prot	-1923
▁seul	-1924
▁soir	-1925
▁vive	-1926
uisant	-1927
▁juste	-1928
▁paroi	-1929
▁scoot	-1930
▁accord	-1931
▁appréc	-1932
▁déguis	-1933
▁orient	-1934
▁sauvet	-1935
▁taille	-1936
▁vestes	-1937
▁balance	-1938
▁membres	-1939
▁chemisier	-1940
lé	-1941
éon	-1942
ront	-1943
▁ras	-1944
▁ferm	-1945
ignent	-1946
▁artis	-1947
▁caval	-1948
▁gonfl	-1949
▁jette	-1950
▁paras	-1951
▁salon	-1952
▁stade	-1953
▁attent	-1954
▁combat	-1955
▁tables	-1956
▁affront	-1957
▁arbitre	-1958
▁passage	-1959
▁pierres	-1960
▁suspendu	-1961
▁discutant	-1962
▁promenade	-1963
▁écouteurs	-1964
ble	-1965
nel	-1966
vée	-1967
▁én	-1968
ense	-1969
▁hum	-1970
▁sav	-1971
▁vir	-1972
▁bran	-1973
▁chef	-1974
▁jong	-1975
atoire	-1976
▁appuy	-1977
▁jusqu	-1978
▁manège	-1979
▁parasol	-1980
▁prairie	-1981
▁profonde	-1982
▁sandales	-1983
aki	-1984
ens	-1985
ial	-1986
mes	-1987
rée	-1988
lise	-1989
▁asp	-1990
▁ber	-1991
▁cal	-1992
▁gaz	-1993
▁jol	-1994
▁kar	-1995
▁pne	-1996
ènent	-1997
▁boit	-1998
▁cami	-1999
▁batte	-2000
▁motif	-2001
quettes	-2002
▁courts	-2003
▁désert	-2004
▁ruelle	-2005
▁viande	-2006
▁église	-2007
▁épaules	-2008
▁poussant	-2009
▁accordéon	-2010
▁habillées	-2011
▁microscope	-2012
ks	-2013
yc	-2014
èv	-2015
▁id	-2016
▁su	-2017
cour	-2018
▁int	-2019
ables	-2020
forme	-2021
orque	-2022
▁bloc	-2023
▁fume	-2024
▁peut	-2025
lettes	-2026
ortant	-2027
▁barre	-2028
▁labor	-2029
onnette	-2030
▁tunnel	-2031
▁aliment	-2032
▁install	-2033
▁plantes	-2034
▁entraîne	-2035
▁quartier	-2036
▁souriante	-2037
▁effectuant	-2038
▁protection	-2039
la	-2040
até	-2041
cte	-2042
pet	-2043
rer	-2044
rou	-2045
inge	-2046
ivid	-2047
ième	-2048
nant	-2049
onie	-2050
▁fin	-2051
▁off	-2052
▁pag	-2053
▁rub	-2054
ivent	-2055
petit	-2056
ulant	-2057
▁appl	-2058
▁cano	-2059
▁corp	-2060
▁four	-2061
▁kaki	-2062
▁rues	-2063
▁tric	-2064
▁vide	-2065
ouette	-2066
ouillé	-2067
▁plate	-2068
▁seule	-2069
▁tuyau	-2070
▁toutes	-2071
▁individ	-2072
▁barrière	-2073
▁raquette	-2074
▁mouvement	-2075
▁surplombant	-2076
▁représentant	-2077
con	-2078
tif	-2079
éch	-2080
▁py	-2081
arde	-2082
▁gri	-2083
▁reb	-2084
▁éto	-2085
▁atta	-2086
assant	-2087
ophone	-2088
▁appro	-2089
▁blous	-2090
▁cérém	-2091
▁poube	-2092
▁signe	-2093
▁bâtons	-2094
▁courir	-2095
▁grimpe	-2096
▁ruisse	-2097
▁réunis	-2098
▁télesc	-2099
▁virage	-2100
▁balustr	-2101
▁donnant	-2102
▁accroupi	-2103
▁randonne	-2104
▁remorque	-2105
▁sauvetage	-2106
▁sculpture	-2107
▁laboratoire	-2108
▁multicolore	-2109
vé	-2110
ane	-2111
vel	-2112
▁aj	-2113
▁dr	-2114
▁hô	-2115
▁sm	-2116
oufl	-2117
êtes	-2118
▁cet	-2119
▁dou	-2120
▁dém	-2121
▁dép	-2122
▁emp	-2123
▁faç	-2124
▁joy	-2125
ampol	-2126
▁bill	-2127
▁boîte	-2128
itaires	-2129
▁bordée	-2130
▁caisse	-2131
▁karaté	-2132
▁police	-2133
▁rangée	-2134
▁repose	-2135
▁sieste	-2136
▁superm	-2137
▁vendre	-2138
▁énorme	-2139
ampoline	-2140
▁colorée	-2141
▁nageant	-2142
▁scooter	-2143
▁baskette	-2144
▁cérémonie	-2145
▁profitant	-2146
▁rassemble	-2147
▁télescope	-2148
▁trampoline	-2149
▁travailler	-2150
amb	-2151
sant	-2152
▁bad	-2153
▁cit	-2154
▁inc	-2155
▁pin	-2156
▁sax	-2157
afaud	-2158
▁déch	-2159
▁traî	-2160
▁voir	-2161
▁écri	-2162
ifique	-2163
▁crois	-2164
▁festi	-2165
▁grimp	-2166
▁jambe	-2167
▁pique	-2168
▁trouv	-2169
▁attach	-2170
▁fumant	-2171
▁ouvert	-2172
▁épaule	-2173
▁batteur	-2174
▁piétons	-2175
▁produit	-2176
▁effectue	-2177
▁ruisseau	-2178
▁semblent	-2179
▁échafaud	-2180
▁escaliers	-2181
▁nettoyant	-2182
▁promènent	-2183
▁balustrade	-2184
▁volleyball	-2185
▁participant	-2186
itu	-2187
oté	-2188
▁dî	-2189
onné	-2190
ores	-2191
▁alp	-2192
gging	-2193
▁fres	-2194
▁plat	-2195
▁soit	-2196
▁align	-2197
▁girls	-2198
▁hauts	-2199
▁rient	-2200
▁tissu	-2201
▁têtes	-2202
▁entrée	-2203
▁motifs	-2204
▁parach	-2205
▁soirée	-2206
▁touche	-2207
▁endormi	-2208
▁gymnase	-2209
▁nettoie	-2210
▁attracti	-2211
▁campagne	-2212
▁entourée	-2213
▁roulettes	-2214
▁solitaire	-2215
io	-2216
od	-2217
val	-2218
yer	-2219
hous	-2220
sion	-2221
ules	-2222
▁ann	-2223
▁mou	-2224
▁nez	-2225
▁uns	-2226
▁vin	-2227
housi	-2228
itent	-2229
teaux	-2230
▁achè	-2231
▁aire	-2232
▁eaux	-2233
▁gobe	-2234
▁mous	-2235
▁roue	-2236
▁roux	-2237
▁sale	-2238
▁sept	-2239
▁trac	-2240
tation	-2241
▁cadre	-2242
▁ident	-2243
▁magaz	-2244
▁nuage	-2245
▁riant	-2246
▁récup	-2247
▁voici	-2248
▁bondée	-2249
▁brosse	-2250
▁cercle	-2251
▁couper	-2252
▁dirige	-2253
▁doigts	-2254
▁découp	-2255
▁examin	-2256
▁paille	-2257
▁patine	-2258
▁enneigé	-2259
▁examine	-2260
▁gardien	-2261
▁lumière	-2262
▁chemises	-2263
▁colorées	-2264
▁enthousi	-2265
▁lumières	-2266
▁poubelle	-2267
▁descendent	-2268
▁escaladant	-2269
ash	-2270
lin	-2271
ocu	-2272
ork	-2273
▁ol	-2274
▁us	-2275
iles	-2276
ités	-2277
lers	-2278
quer	-2279
vête	-2280
▁ces	-2281
▁cha	-2282
▁cho	-2283
▁gam	-2284
mment	-2285
neaux	-2286
▁coul	-2287
▁gare	-2288
▁pain	-2289
▁artic	-2290
▁façon	-2291
▁navig	-2292
▁surve	-2293
▁école	-2294
▁balaie	-2295
▁cowboy	-2296
▁façade	-2297
▁indien	-2298
▁moment	-2299
▁passag	-2300
▁penché	-2301
▁commerc	-2302
▁mettant	-2303
▁roulent	-2304
▁soldats	-2305
▁certains	-2306
▁glissant	-2307
▁gymnaste	-2308
▁gonflable	-2309
▁militaire	-2310
▁pantalons	-2311
▁utilisent	-2312
▁équipement	-2313
▁participent	-2314
rob	-2315
ème	-2316
apin	-2317
lève	-2318
mand	-2319
oise	-2320
▁adm	-2321
▁box	-2322
▁imm	-2323
▁loc	-2324
▁lut	-2325
▁new	-2326
▁sho	-2327
▁sty	-2328
▁tex	-2329
▁gril	-2330
▁lang	-2331
▁lanç	-2332
▁type	-2333
▁étre	-2334
▁acrob	-2335
▁alpin	-2336
▁bondé	-2337
▁brand	-2338
▁haute	-2339
▁jetée	-2340
▁occup	-2341
▁prati	-2342
▁balcon	-2343
▁chevau	-2344
▁hautes	-2345
▁jambes	-2346
▁shorts	-2347
▁urbain	-2348
▁adverse	-2349
▁coupant	-2350
▁figures	-2351
▁fresque	-2352
▁lanceur	-2353
▁lançant	-2354
▁marteau	-2355
▁montent	-2356
▁pompier	-2357
▁retourn	-2358
▁éloigne	-2359
▁manteaux	-2360
▁obstacle	-2361
▁peignant	-2362
▁écoutant	-2363
▁guitariste	-2364
▁marchandis	-2365
▁randonneur	-2366
▁randonneurs	-2367
zz	-2368
agn	-2369
ich	-2370
uer	-2371
uge	-2372
vol	-2373
way	-2374
▁rug	-2375
▁sec	-2376
arché	-2377
tball	-2378
êtant	-2379
▁ajus	-2380
▁inté	-2381
▁mout	-2382
▁perc	-2383
▁pout	-2384
▁quad	-2385
▁ramb	-2386
▁appar	-2387
▁chiot	-2388
▁contr	-2389
▁monde	-2390
▁plaqu	-2391
▁queue	-2392
▁ruban	-2393
▁vache	-2394
▁écoss	-2395
▁étang	-2396
▁appuie	-2397
▁couché	-2398
▁détend	-2399
▁livres	-2400
▁tabour	-2401
▁tourne	-2402
▁animaux	-2403
▁applaud	-2404
▁bagages	-2405
▁nouveau	-2406
▁oiseaux	-2407
▁profite	-2408
▁présent	-2409
▁réparer	-2410
▁sourire	-2411
▁surface	-2412
▁travaux	-2413
▁articles	-2414
▁festival	-2415
▁parcours	-2416
▁rassemblés	-2417
▁supermarché	-2418
▁traditionnels	-2419
ca	-2420
mé	-2421
ra	-2422
err	-2423
ist	-2424
urg	-2425
ôle	-2426
chet	-2427
uter	-2428
veur	-2429
ycle	-2430
èche	-2431
▁cro	-2432
▁lav	-2433
▁mod	-2434
▁rel	-2435
asser	-2436
ondes	-2437
▁buis	-2438
▁déje	-2439
▁mord	-2440
▁peau	-2441
▁offic	-2442
▁toute	-2443
▁blouse	-2444
▁langue	-2445
▁mousta	-2446
▁outils	-2447
▁étrang	-2448
eusement	-2449
▁athlète	-2450
▁brandit	-2451
▁comment	-2452
▁couloir	-2453
▁heureux	-2454
▁montant	-2455
▁ordures	-2456
▁plateau	-2457
▁ressemb	-2458
▁tentent	-2459
▁chantent	-2460
▁publique	-2461
▁tatouage	-2462
▁téléphon	-2463
▁saxophone	-2464
▁circulation	-2465
ail	-2466
min	-2467
apon	-2468
ator	-2469
ital	-2470
ives	-2471
oure	-2472
uies	-2473
èque	-2474
▁amb	-2475
▁ami	-2476
▁aér	-2477
▁bor	-2478
▁dit	-2479
▁voy	-2480
fléch	-2481
ieuse	-2482
illon	-2483
▁chez	-2484
▁coté	-2485
▁disp	-2486
▁film	-2487
▁grat	-2488
▁luge	-2489
▁magn	-2490
▁pian	-2491
▁spor	-2492
▁tamb	-2493
▁tape	-2494
▁image	-2495
▁japon	-2496
▁salop	-2497
▁salto	-2498
▁voile	-2499
èrement	-2500
▁bandan	-2501
▁compos	-2502
▁couvre	-2503
▁déjeun	-2504
▁piéton	-2505
térieure	-2506
▁cherche	-2507
▁jogging	-2508
▁observe	-2509
▁pratiqu	-2510
▁réfléch	-2511
▁trottin	-2512
▁cavalier	-2513
▁frappant	-2514
▁direction	-2515
▁monticule	-2516
▁troisième	-2517
▁affrontent	-2518
▁militaires	-2519
▁parapluies	-2520
▁passerelle	-2521
▁éclaboussures	-2522
ok	-2523
tt	-2524
▁sé	-2525
▁ve	-2526
ache	-2527
agon	-2528
ards	-2529
▁anc	-2530
▁cré	-2531
▁gal	-2532
▁pyj	-2533
▁sof	-2534
▁thé	-2535
▁vtt	-2536
geant	-2537
ignes	-2538
▁bass	-2539
▁chor	-2540
▁flan	-2541
▁jour	-2542
▁pavé	-2543
▁pris	-2544
uisent	-2545
▁agent	-2546
▁balai	-2547
▁dîner	-2548
▁front	-2549
▁impos	-2550
▁inspe	-2551
▁motos	-2552
▁mélan	-2553
▁tenir	-2554
▁tombe	-2555
▁vidéo	-2556
alement	-2557
ivement	-2558
ouflage	-2559
▁cadeau	-2560
▁carton	-2561
▁confér	-2562
▁pattes	-2563
▁rapide	-2564
▁soldat	-2565
▁amusent	-2566
▁rollers	-2567
▁chanteur	-2568
▁musicien	-2569
▁chevauche	-2570
▁salopette	-2571
▁touristes	-2572
▁camouflage	-2573
og	-2574
ze	-2575
tés	-2576
ymp	-2577
▁ph	-2578
chés	-2579
cule	-2580
erne	-2581
ieux	-2582
ress	-2583
rier	-2584
upes	-2585
èves	-2586
émin	-2587
érer	-2588
▁arm	-2589
▁bér	-2590
▁dél	-2591
▁emb	-2592
aient	-2593
aines	-2594
ident	-2595
ousse	-2596
▁aéro	-2597
▁chaî	-2598
▁clav	-2599
▁dist	-2600
▁docu	-2601
▁orig	-2602
▁prop	-2603
▁rece	-2604
▁trop	-2605
▁arros	-2606
▁arène	-2607
▁creus	-2608
▁ouvre	-2609
▁piano	-2610
▁siège	-2611
▁agenou	-2612
▁danser	-2613
▁flaque	-2614
▁foncée	-2615
▁humide	-2616
▁pyjama	-2617
▁verres	-2618
▁volant	-2619
▁élèves	-2620
▁amusant	-2621
▁chambre	-2622
▁rayures	-2623
▁tentant	-2624
▁couverte	-2625
▁rambarde	-2626
▁softball	-2627
▁atteindre	-2628
▁serviette	-2629
▁différents	-2630
▁alimentaire	-2631
▁joyeusement	-2632
▁ordinateurs	-2633
▁attentivement	-2634
cs	-2635
pée	-2636
ris	-2637
dium	-2638
enne	-2639
rime	-2640
▁aud	-2641
▁cel	-2642
▁men	-2643
▁min	-2644
ision	-2645
trait	-2646
▁alle	-2647
▁chac	-2648
▁cham	-2649
▁envo	-2650
▁expl	-2651
▁mini	-2652
▁murs	-2653
▁palm	-2654
▁rock	-2655
▁skis	-2656
▁york	-2657
ageant	-2658
ctions	-2659
▁boire	-2660
▁câlin	-2661
▁côtés	-2662
▁linge	-2663
▁marié	-2664
▁rugby	-2665
▁tromp	-2666
▁mettre	-2667
▁podium	-2668
▁pourch	-2669
▁radeau	-2670
▁talons	-2671
▁attaché	-2672
▁bandana	-2673
▁boivent	-2674
▁clavier	-2675
▁dormant	-2676
▁déserte	-2677
▁surfant	-2678
▁assiette	-2679
▁danseuse	-2680
▁embrasse	-2681
▁employés	-2682
▁flottant	-2683
▁tabouret	-2684
▁tracteur	-2685
▁éclairée	-2686
▁descendre	-2687
▁escalator	-2688
▁pancartes	-2689
▁parachute	-2690
▁commercial	-2691
▁conduisant	-2692
▁exposition	-2693
▁chaussettes	-2694
▁footballeurs	-2695
▁transportant	-2696
▁rassemblement	-2697
lo	-2698
bre	-2699
cor	-2700
gle	-2701
ipe	-2702
▁bm	-2703
aman	-2704
otte	-2705
tron	-2706
▁flu	-2707
▁fus	-2708
▁kit	-2709
▁lar	-2710
▁mal	-2711
▁pré	-2712
▁sil	-2713
ayant	-2714
celle	-2715
hèque	-2716
lette	-2717
tiste	-2718
▁bate	-2719
▁boug	-2720
▁club	-2721
▁hall	-2722
▁huit	-2723
▁incl	-2724
▁pige	-2725
▁sert	-2726
ection	-2727
icules	-2728
▁acous	-2729
▁ceint	-2730
▁envir	-2731
▁gamin	-2732
▁jupes	-2733
▁plong	-2734
▁balade	-2735
▁clôtur	-2736
▁coudre	-2737
▁fermés	-2738
▁herbes	-2739
▁tambour	-2740
▁allemand	-2741
▁chaussée	-2742
▁natation	-2743
▁oreilles	-2744
▁apprêtant	-2745
▁fréquenté	-2746
▁poussière	-2747
▁publicité	-2748
▁acoustique	-2749
▁conférence	-2750
▁camionnette	-2751
▁chevauchant	-2752
▁footballeur	-2753
▁trottinette	-2754
▁professionnelle	-2755
ack	-2756
rif	-2757
alis	-2758
ocks	-2759
âtre	-2760
▁ant	-2761
▁cél	-2762
▁lam	-2763
adins	-2764
ceaux	-2765
isent	-2766
oupes	-2767
teurs	-2768
équip	-2769
▁foin	-2770
▁harn	-2771
▁situ	-2772
▁tran	-2773
iments	-2774
▁blocs	-2775
▁béret	-2776
▁colle	-2777
▁jolie	-2778
▁poign	-2779
▁sapin	-2780
▁tirer	-2781
▁télév	-2782
▁vives	-2783
▁balles	-2784
▁cartes	-2785
▁corpul	-2786
▁garage	-2787
▁glaces	-2788
▁monter	-2789
▁perche	-2790
▁poutre	-2791
▁rebord	-2792
▁répare	-2793
▁termin	-2794
iblement	-2795
▁battant	-2796
▁blouson	-2797
▁coéquip	-2798
▁feuille	-2799
▁gradins	-2800
▁grandes	-2801
▁visages	-2802
▁ambulant	-2803
▁aéroport	-2804
▁brillant	-2805
▁buissons	-2806
▁discuter	-2807
▁poissons	-2808
▁trouvent	-2809
▁certaines	-2810
▁participe	-2811
▁profitent	-2812
▁ressemble	-2813
▁basketteur	-2814
▁embrassant	-2815
▁manifestant	-2816
▁échafaudage	-2817
▁;	-2818
adl	-2819
cin	-2820
ios	-2821
lée	-2822
▁sy	-2823
▁tu	-2824
enir	-2825
lage	-2826
ossé	-2827
otes	-2828
tres	-2829
uent	-2830
uvre	-2831
▁bij	-2832
▁blo	-2833
▁cat	-2834
▁fan	-2835
▁fri	-2836
▁joc	-2837
▁sar	-2838
afond	-2839
▁auto	-2840
▁fluo	-2841
▁kios	-2842
▁muse	-2843
▁pile	-2844
▁poil	-2845
▁prés	-2846
▁quit	-2847
▁rame	-2848
▁rire	-2849
▁sais	-2850
▁vété	-2851
▁étal	-2852
doyant	-2853
▁bancs	-2854
▁corne	-2855
▁droit	-2856
▁fémin	-2857
▁grill	-2858
▁olymp	-2859
▁soule	-2860
▁stati	-2861
adlocks	-2862
▁aidant	-2863
▁appuyé	-2864
▁berger	-2865
▁choses	-2866
▁jockey	-2867
▁plaque	-2868
▁pointe	-2869
▁tirent	-2870
▁automne	-2871
▁bateaux	-2872
▁brandis	-2873
▁employé	-2874
▁gobelet	-2875
▁mouillé	-2876
▁plafond	-2877
▁soulève	-2878
▁aliments	-2879
▁allongés	-2880
▁danseurs	-2881
▁nettoyer	-2882
▁position	-2883
▁africains	-2884
▁individus	-2885
▁verdoyant	-2886
▁bouteilles	-2887
▁casquettes	-2888
▁enthousias	-2889
▁identiques	-2890
▁attractions	-2891
▁brandissant	-2892
▁marchandises	-2893
▁multicolores	-2894
▁manifestation	-2895
aw	-2896
cul	-2897
ket	-2898
pti	-2899
ates	-2900
oles	-2901
rées	-2902
▁aqu	-2903
▁bib	-2904
▁bmx	-2905
▁bre	-2906
▁dre	-2907
▁fon	-2908
▁gui	-2909
▁hul	-2910
▁lév	-2911
▁péd	-2912
▁vic	-2913
cteur	-2914
endie	-2915
onnée	-2916
phone	-2917
toire	-2918
▁ange	-2919
▁appe	-2920
▁carn	-2921
▁extr	-2922
▁file	-2923
▁gant	-2924
▁méde	-2925
illant	-2926
ipient	-2927
▁carte	-2928
▁cônes	-2929
▁décol	-2930
▁gazon	-2931
▁jeans	-2932
▁plant	-2933
▁wagon	-2934
▁arrête	-2935
▁bander	-2936
▁chacun	-2937
▁chaîne	-2938
▁distri	-2939
▁dormir	-2940
▁entrep	-2941
▁pellet	-2942
▁pleure	-2943
▁sièges	-2944
▁tomber	-2945
ablement	-2946
▁circuit	-2947
▁kiosque	-2948
▁motards	-2949
▁toucher	-2950
▁vitesse	-2951
▁éclairé	-2952
▁accroche	-2953
▁affaires	-2954
▁discours	-2955
▁indienne	-2956
▁planches	-2957
▁portrait	-2958
▁utiliser	-2959
▁étranger	-2960
▁alpiniste	-2961
▁chaussure	-2962
▁cuisinant	-2963
▁danseuses	-2964
▁fauteuils	-2965
▁passagers	-2966
▁récipient	-2967
▁transport	-2968
▁adversaire	-2969
▁dreadlocks	-2970
▁magnifique	-2971
▁ressemblant	-2972
▁publicitaire	-2973
▁travailleurs	-2974
hn	-2975
ps	-2976
uf	-2977
man	-2978
oit	-2979
rés	-2980
ufs	-2981
vis	-2982
éph	-2983
▁di	-2984
▁mâ	-2985
ager	-2986
assé	-2987
lets	-2988
ongs	-2989
sses	-2990
▁arc	-2991
▁div	-2992
▁dur	-2993
▁eff	-2994
▁emm	-2995
▁eur	-2996
▁exc	-2997
▁flâ	-2998
▁lev	-2999
▁soc	-3000
▁tax	-3001
▁éti	-3002
isser	-3003
pital	-3004
ssion	-3005
ément	-3006
êtent	-3007
▁bamb	-3008
▁cray	-3009
▁form	-3010
▁lamp	-3011
▁poit	-3012
▁silh	-3013
▁sout	-3014
▁trib	-3015
▁voil	-3016
▁écar	-3017
▁étro	-3018
iquant	-3019
▁aider	-3020
▁artif	-3021
▁baign	-3022
▁basse	-3023
▁frais	-3024
▁prêts	-3025
▁sandw	-3026
▁sculp	-3027
▁smash	-3028
▁vaste	-3029
▁vérif	-3030
▁éléph	-3031
▁action	-3032
▁atterr	-3033
▁chaude	-3034
▁décont	-3035
▁jongle	-3036
▁pliant	-3037
▁scient	-3038
onnement	-3039
▁acheter	-3040
▁agitant	-3041
▁artisan	-3042
▁chanter	-3043
▁harnais	-3044
▁oreille	-3045
▁sortant	-3046
▁urbaine	-3047
▁village	-3048
▁approche	-3049
▁commence	-3050
▁déjeuner	-3051
▁enseigne	-3052
▁magazine	-3053
▁montrent	-3054
▁préparer	-3055
▁cuisinier	-3056
▁patinoire	-3057
▁portables	-3058
▁récupérer	-3059
▁véhicules	-3060
▁américains	-3061
▁basketball	-3062
▁embrassent	-3063
▁légèrement	-3064
▁métalliques	-3065
▁combinaisons	-3066
▁entraînement	-3067
▁réfléchissant	-3068
he	-3069
jo	-3070
cer	-3071
lex	-3072
ots	-3073
qué	-3074
ssi	-3075
tel	-3076
golf	-3077
isme	-3078
iére	-3079
liot	-3080
▁crâ	-3081
▁din	-3082
▁fab	-3083
▁jun	-3084
▁kil	-3085
▁nau	-3086
▁tre	-3087
isson	-3088
uyant	-3089
velop	-3090
▁asse	-3091
▁doré	-3092
▁enco	-3093
▁hula	-3094
▁impl	-3095
▁lass	-3096
▁lave	-3097
▁obsc	-3098
▁opér	-3099
▁paix	-3100
▁papa	-3101
▁pneu	-3102
▁pâte	-3103
▁soud	-3104
▁tram	-3105
▁écol	-3106
▁épée	-3107
iettes	-3108
quoise	-3109
ulaire	-3110
érique	-3111
▁admir	-3112
▁boisé	-3113
▁bordé	-3114
▁chans	-3115
▁crête	-3116
▁froid	-3117
▁manip	-3118
▁musée	-3119
▁palet	-3120
▁prise	-3121
▁verse	-3122
▁ajuste	-3123
▁baller	-3124
▁commun	-3125
▁encour	-3126
▁entret	-3127
▁envoie	-3128
▁filets	-3129
▁inform	-3130
▁jungle	-3131
▁membre	-3132
▁moteur	-3133
▁nagent	-3134
▁portes	-3135
aisselle	-3136
▁alignés	-3137
▁bibliot	-3138
▁camping	-3139
▁cartons	-3140
▁déplace	-3141
▁gravier	-3142
▁groupes	-3143
▁origine	-3144
▁peindre	-3145
▁étrange	-3146
▁achetant	-3147
▁grimpant	-3148
▁imposant	-3149
▁incendie	-3150
▁reposent	-3151
américaine	-3152
▁observent	-3153
▁poussiére	-3154
▁trompette	-3155
▁vététiste	-3156
▁appréciant	-3157
▁entraîneur	-3158
▁rapidement	-3159
▁télévision	-3160
▁automatique	-3161
▁bibliothèque	-3162
▁téléphonique	-3163
▁partiellement	-3164
gé	-3165
po	-3166
irm	-3167
ouc	-3168
riz	-3169
▁ém	-3170
atie	-3171
ciel	-3172
ctée	-3173
ides	-3174
illé	-3175
less	-3176
once	-3177
quel	-3178
rale	-3179
▁ate	-3180
▁dem	-3181
▁dom	-3182
▁fix	-3183
▁fou	-3184
▁tub	-3185
alise	-3186
açant	-3187
orses	-3188
uvres	-3189
▁cric	-3190
▁cône	-3191
▁hoop	-3192
▁posé	-3193
▁tube	-3194
▁boucl	-3195
▁faite	-3196
▁foire	-3197
▁géant	-3198
▁horiz	-3199
▁lampe	-3200
▁large	-3201
▁lasso	-3202
▁maman	-3203
▁médic	-3204
▁pouce	-3205
▁serre	-3206
▁tombé	-3207
▁vitre	-3208
onneuse	-3209
▁ancien	-3210
▁bassin	-3211
▁battre	-3212
▁bijoux	-3213
▁cabane	-3214
▁chaque	-3215
▁charge	-3216
▁déplac	-3217
▁inters	-3218
▁lavant	-3219
▁levant	-3220
▁marine	-3221
▁torses	-3222
▁atelier	-3223
▁billard	-3224
▁boueuse	-3225
▁branche	-3226
▁caresse	-3227
▁chanson	-3228
▁cricket	-3229
▁dessous	-3230
▁envelop	-3231
▁escrime	-3232
▁griller	-3233
▁grimace	-3234
▁hôpital	-3235
▁maisons	-3236
▁serrant	-3237
▁souffle	-3238
▁tramway	-3239
iversaire	-3240
▁accident	-3241
▁accroché	-3242
▁artistes	-3243
▁athlètes	-3244
▁carnaval	-3245
▁coiffure	-3246
▁distribu	-3247
▁journaux	-3248
▁nautique	-3249
▁panneaux	-3250
▁plancher	-3251
▁poitrine	-3252
▁sandwich	-3253
▁vêtement	-3254
▁accroupie	-3255
▁africaine	-3256
▁apprêtent	-3257
▁chanteuse	-3258
▁moustache	-3259
▁opération	-3260
▁plongeant	-3261
▁faiblement	-3262
▁maquillage	-3263
▁microphone	-3264
▁agenouillée	-3265
▁anniversaire	-3266
▁intersection	-3267
ni	-3268
th	-3269
abl	-3270
bus	-3271
col	-3272
ids	-3273
ipp	-3274
oue	-3275
èle	-3276
▁mi	-3277
▁éb	-3278
bles	-3279
dans	-3280
ermé	-3281
esur	-3282
form	-3283
orte	-3284
vres	-3285
▁mix	-3286
▁mun	-3287
▁raf	-3288
▁reç	-3289
▁rég	-3290
asses	-3291
asure	-3292
ature	-3293
corps	-3294
ibles	-3295
ielle	-3296
lants	-3297
onnes	-3298
ument	-3299
▁arme	-3300
▁bonb	-3301
▁cadd	-3302
▁cerf	-3303
▁crép	-3304
▁dune	-3305
▁exéc	-3306
▁faux	-3307
▁kilt	-3308
▁meub	-3309
▁nace	-3310
▁ours	-3311
▁pizz	-3312
▁prob	-3313
▁scol	-3314
▁tiré	-3315
▁tond	-3316
▁tron	-3317
▁turb	-3318
▁vous	-3319
▁élég	-3320
aisses	-3321
assent	-3322
illeux	-3323
ucteur	-3324
volant	-3325
▁agric	-3326
▁aller	-3327
▁amuse	-3328
▁audit	-3329
▁beach	-3330
▁bless	-3331
▁break	-3332
▁compl	-3333
▁flanc	-3334
▁fusil	-3335
▁musel	-3336
▁patau	-3337
▁pours	-3338
▁relig	-3339
▁roues	-3340
▁tongs	-3341
▁vente	-3342
▁accomp	-3343
▁adossé	-3344
▁balanc	-3345
▁barres	-3346
▁boisée	-3347
▁cabine	-3348
▁commen	-3349
▁creuse	-3350
▁dedans	-3351
▁envers	-3352
▁infirm	-3353
▁lampad	-3354
▁lisent	-3355
▁lèvent	-3356
▁protég	-3357
▁voyage	-3358
vêtement	-3359
▁blondes	-3360
▁bouquet	-3361
▁caisses	-3362
▁contreb	-3363
▁nacelle	-3364
▁paniers	-3365
▁partout	-3366
▁patient	-3367
▁pêcheur	-3368
▁rocheux	-3369
▁savoure	-3370
▁support	-3371
▁univers	-3372
▁attachés	-3373
▁aérienne	-3374
▁brouette	-3375
▁heureuse	-3376
▁inspecte	-3377
▁montgolf	-3378
▁ombrelle	-3379
▁palmiers	-3380
▁papillon	-3381
▁reposant	-3382
▁victoire	-3383
▁attrapant	-3384
▁embrasure	-3385
▁tatouages	-3386
▁conducteur	-3387
▁gymnastique	-3388
▁équipements	-3389
▁professionnel	-3390
car	-3391
erv	-3392
inc	-3393
isé	-3394
rup	-3395
ses	-3396
▁lé	-3397
aces	-3398
atel	-3399
atio	-3400
auds	-3401
fare	-3402
▁bro	-3403
▁spr	-3404
chouc	-3405
ctron	-3406
resse	-3407
rette	-3408
▁acti	-3409
▁bagu	-3410
▁bouc	-3411
▁bret	-3412
▁cage	-3413
▁fort	-3414
▁honn	-3415
▁liqu	-3416
▁nous	-3417
▁perd	-3418
▁poin	-3419
▁pres	-3420
▁rase	-3421
▁réce	-3422
▁sign	-3423
▁suit	-3424
▁taxi	-3425
▁toge	-3426
▁truc	-3427
ractée	-3428
uscule	-3429
▁allum	-3430
▁aspir	-3431
▁baiss	-3432
▁bande	-3433
▁benne	-3434
▁borde	-3435
▁caout	-3436
▁chefs	-3437
▁craie	-3438
▁crème	-3439
▁dames	-3440
▁derby	-3441
▁délab	-3442
▁engag	-3443
▁exerc	-3444
▁fumée	-3445
▁jaill	-3446
▁matel	-3447
▁monoc	-3448
▁outil	-3449
▁paire	-3450
▁patio	-3451
▁seaux	-3452
▁style	-3453
▁toges	-3454
▁tress	-3455
▁usine	-3456
▁voies	-3457
▁brique	-3458
▁canard	-3459
▁claire	-3460
▁constr	-3461
▁cornem	-3462
▁couche	-3463
▁foncti	-3464
▁marbre	-3465
▁métier	-3466
▁sortie	-3467
▁ventre	-3468
▁arrivée	-3469
▁bonnets	-3470
▁bougies	-3471
▁camions	-3472
▁château	-3473
▁fanfare	-3474
▁foraine	-3475
▁honneur	-3476
▁impermé	-3477
▁interag	-3478
▁laverie	-3479
▁moderne	-3480
▁parquet	-3481
▁pigeons	-3482
▁poteaux	-3483
▁skieurs	-3484
▁achètent	-3485
▁arrêtent	-3486
▁clôturée	-3487
▁contrôle	-3488
▁déguisés	-3489
▁receveur	-3490
▁réparant	-3491
▁traîneau	-3492
▁vendeurs	-3493
▁écoutent	-3494
▁écrivant	-3495
▁électron	-3496
▁allongées	-3497
▁baignoire	-3498
▁banderole	-3499
▁circulant	-3500
▁examinant	-3501
▁nettoient	-3502
▁vaisselle	-3503
▁écossaise	-3504
▁éloignant	-3505
▁agenouillé	-3506
▁artistique	-3507
▁caoutchouc	-3508
▁crépuscule	-3509
▁entraînant	-3510
▁nourrisson	-3511
▁décontractée	-3512
▁traditionnel	-3513
cô	-3514
lô	-3515
ob	-3516
pp	-3517
pé	-3518
ué	-3519
xy	-3520
èg	-3521
dog	-3522
est	-3523
ult	-3524
upe	-3525
ète	-3526
▁ge	-3527
▁ir	-3528
▁sl	-3529
▁tâ	-3530
abri	-3531
alle	-3532
dess	-3533
land	-3534
nequ	-3535
élic	-3536
▁hot	-3537
▁let	-3538
▁ste	-3539
▁âne	-3540
esurf	-3541
iches	-3542
irurg	-3543
istol	-3544
ourne	-3545
quant	-3546
ressi	-3547
▁asie	-3548
▁bron	-3549
▁crie	-3550
▁fans	-3551
▁fraî	-3552
▁lond	-3553
▁pein	-3554
▁refl	-3555
▁rond	-3556
▁sang	-3557
▁scie	-3558
▁tech	-3559
▁vent	-3560
▁agite	-3561
▁animé	-3562
▁campe	-3563
▁celui	-3564
▁crâne	-3565
▁cuill	-3566
▁engin	-3567
▁garde	-3568
▁geste	-3569
▁habit	-3570
▁impri	-3571
▁laver	-3572
▁levés	-3573
▁local	-3574
▁récol	-3575
▁soude	-3576
▁toile	-3577
dessous	-3578
▁achète	-3579
▁agents	-3580
▁divert	-3581
▁donner	-3582
▁décoré	-3583
▁flotte	-3584
▁froide	-3585
▁grille	-3586
▁inclin	-3587
▁interv	-3588
▁lèvres	-3589
▁manche	-3590
▁nature	-3591
▁pagaie	-3592
▁pistol	-3593
▁plante	-3594
▁poupée	-3595
▁région	-3596
▁tentes	-3597
▁valise	-3598
▁badauds	-3599
▁bandeau	-3600
▁bonbons	-3601
▁cerceau	-3602
▁chirurg	-3603
▁discute	-3604
▁découpe	-3605
▁féminin	-3606
▁immense	-3607
▁indiens	-3608
▁liquide	-3609
▁mannequ	-3610
▁marquer	-3611
▁médecin	-3612
▁parents	-3613
▁penchée	-3614
▁renvers	-3615
▁sportif	-3616
▁écartés	-3617
vêtements	-3618
▁arrosage	-3619
▁branches	-3620
▁ceinture	-3621
▁creusant	-3622
▁individu	-3623
▁kitesurf	-3624
▁machines	-3625
▁passants	-3626
▁professe	-3627
▁scolaire	-3628
▁semblant	-3629
▁appareils	-3630
▁dessinant	-3631
▁détendent	-3632
▁embrasser	-3633
▁monocycle	-3634
▁ramassant	-3635
▁escaladent	-3636
▁extérieure	-3637
▁gravissant	-3638
▁lampadaire	-3639
▁pratiquent	-3640
▁produisant	-3641
▁produisent	-3642
▁réunissent	-3643
▁silhouette	-3644
▁probablement	-3645
▁électronique	-3646
▁applaudissent	-3647
go	-3648
oo	-3649
ru	-3650
st	-3651
don	-3652
gan	-3653
ica	-3654
ick	-3655
lac	-3656
lie	-3657
mon	-3658
omm	-3659
uel	-3660
vre	-3661
▁el	-3662
appe	-3663
arni	-3664
arre	-3665
côté	-3666
icip	-3667
iges	-3668
inis	-3669
isée	-3670
ivre	-3671
udio	-3672
▁asc	-3673
▁bac	-3674
▁bav	-3675
▁châ	-3676
▁enc	-3677
▁ill	-3678
▁lib	-3679
▁pir	-3680
▁rur	-3681
▁sim	-3682
▁sir	-3683
▁syn	-3684
▁tur	-3685
▁wal	-3686
aille	-3687
ances	-3688
elles	-3689
ience	-3690
nière	-3691
vités	-3692
êtres	-3693
▁amie	-3694
▁bomb	-3695
▁enle	-3696
▁garé	-3697
▁grue	-3698
▁jume	-3699
▁ring	-3700
▁skie	-3701
▁veau	-3702
adeaux	-3703
estier	-3704
illent	-3705
onnant	-3706
orient	-3707
ureaux	-3708
▁aussi	-3709
▁bouée	-3710
▁bross	-3711
▁bulle	-3712
▁chaud	-3713
▁chois	-3714
▁corps	-3715
▁cuire	-3716
▁garés	-3717
▁intég	-3718
▁oppos	-3719
▁percu	-3720
▁plais	-3721
▁pneus	-3722
▁proch	-3723
▁retir	-3724
▁sèche	-3725
▁voler	-3726
▁évent	-3727
▁évier	-3728
atiques	-3729
ouillés	-3730
usement	-3731
▁arrive	-3732
▁arrose	-3733
▁boueux	-3734
▁breakd	-3735
▁citrou	-3736
▁collèg	-3737
▁câbles	-3738
▁dispos	-3739
▁ferrée	-3740
▁frisés	-3741
▁gestes	-3742
▁lequel	-3743
▁plumes	-3744
▁russes	-3745
▁studio	-3746
▁unique	-3747
▁volent	-3748
▁apprend	-3749
▁argenté	-3750
▁attente	-3751
▁baskets	-3752
▁chorale	-3753
▁composé	-3754
▁couteau	-3755
▁dégarni	-3756
▁horizon	-3757
▁nuageux	-3758
▁plongée	-3759
▁rapides	-3760
▁servant	-3761
▁théâtre	-3762
▁tombant	-3763
▁violets	-3764
uellement	-3765
▁bordeaux	-3766
▁boutique	-3767
▁diverses	-3768
▁entourés	-3769
▁fenêtres	-3770
▁japonais	-3771
▁penchant	-3772
▁protéger	-3773
▁tricycle	-3774
▁éléphant	-3775
▁charrette	-3776
▁contenant	-3777
▁forestier	-3778
▁partagent	-3779
▁raquettes	-3780
▁également	-3781
▁aspirateur	-3782
▁collection	-3783
▁coéquipier	-3784
▁cuisinière	-3785
▁entraînent	-3786
▁olympiques	-3787
▁partageant	-3788
▁professeur	-3789
▁retournant	-3790
▁imperméable	-3791
▁construisant	-3792
▁présentation	-3793
▁scientifique	-3794
ia	-3795
den	-3796
enu	-3797
ind	-3798
mar	-3799
tau	-3800
éle	-3801
▁is	-3802
▁mc	-3803
ades	-3804
atif	-3805
ices	-3806
ings	-3807
iplô	-3808
iété	-3809
lamm	-3810
outs	-3811
ting	-3812
▁biz	-3813
▁dev	-3814
▁dri	-3815
▁gol	-3816
▁mau	-3817
▁non	-3818
▁suc	-3819
▁tee	-3820
ative	-3821
ceuse	-3822
icale	-3823
onner	-3824
▁bull	-3825
▁cape	-3826
▁cent	-3827
▁chèv	-3828
▁hipp	-3829
▁past	-3830
▁plac	-3831
▁post	-3832
▁pâle	-3833
▁rapp	-3834
▁tenu	-3835
ension	-3836
essent	-3837
ourent	-3838
tiques	-3839
▁abrup	-3840
▁assor	-3841
▁bains	-3842
▁baril	-3843
▁bébés	-3844
▁croix	-3845
▁diplô	-3846
▁déamb	-3847
▁fourr	-3848
▁garée	-3849
▁hôtel	-3850
▁laine	-3851
▁perru	-3852
▁princ	-3853
▁proje	-3854
▁pédal	-3855
▁rails	-3856
▁série	-3857
▁tirée	-3858
▁tonde	-3859
▁tronç	-3860
▁écume	-3861
▁aident	-3862
▁caddie	-3863
▁chiots	-3864
▁courte	-3865
▁débris	-3866
▁départ	-3867
▁espagn	-3868
▁essent	-3869
▁golden	-3870
▁gratte	-3871
▁jetant	-3872
▁justau	-3873
▁mousse	-3874
▁partir	-3875
▁peints	-3876
▁perron	-3877
▁pleurs	-3878
▁propos	-3879
▁pêcher	-3880
▁reçoit	-3881
▁rouler	-3882
▁sporti	-3883
▁suréle	-3884
▁tatoué	-3885
▁tranqu	-3886
▁turban	-3887
▁écrire	-3888
▁étoile	-3889
formance	-3890
issement	-3891
▁apparte	-3892
▁blouses	-3893
▁command	-3894
▁concent	-3895
▁couples	-3896
▁dessine	-3897
▁fraîche	-3898
▁grosses	-3899
▁hauteur	-3900
▁londres	-3901
▁mettent	-3902
▁moutons	-3903
▁municip	-3904
▁mélange	-3905
▁nageurs	-3906
▁poterie	-3907
▁ramasse	-3908
▁réunion	-3909
▁sauvage	-3910
▁cuillère	-3911
▁document	-3912
▁magasins	-3913
▁monument	-3914
▁morceaux	-3915
▁parasols	-3916
▁perceuse	-3917
▁première	-3918
▁tondeuse	-3919
▁acrobatie	-3920
▁assiettes	-3921
▁bretelles	-3922
▁brillante	-3923
▁cherchant	-3924
▁commencer	-3925
▁cornemuse	-3926
▁dirigeant	-3927
▁disputent	-3928
▁documents	-3929
▁escalader	-3930
▁magazines	-3931
▁apprécient	-3932
▁discussion	-3933
▁intérieure	-3934
▁mouvements	-3935
▁basketteurs	-3936
▁justaucorps	-3937
▁performance	-3938
▁manifestants	-3939
da	-3940
iz	-3941
ma	-3942
abe	-3943
ast	-3944
gis	-3945
hal	-3946
née	-3947
oga	-3948
osa	-3949
ulv	-3950
éré	-3951
▁dj	-3952
anch	-3953
auff	-3954
back	-3955
ensi	-3956
gile	-3957
igre	-3958
imes	-3959
iser	-3960
itié	-3961
rise	-3962
▁bur	-3963
▁cur	-3964
▁gag	-3965
▁ong	-3966
▁poê	-3967
▁pup	-3968
▁réf	-3969
▁the	-3970
▁tom	-3971
▁ves	-3972
acles	-3973
poids	-3974
ption	-3975
riers	-3976
ulvér	-3977
ville	-3978
▁john	-3979
▁mess	-3980
▁nive	-3981
▁retr	-3982
▁serp	-3983
▁unes	-3984
▁vall	-3985
▁yoga	-3986
▁épic	-3987
pousse	-3988
rières	-3989
▁arche	-3990
▁armée	-3991
▁asper	-3992
▁badge	-3993
▁banjo	-3994
▁bombe	-3995
▁borne	-3996
▁canot	-3997
▁cible	-3998
▁class	-3999
▁coups	-4000
▁dorée	-4001
▁dress	-4002
▁expér	-4003
▁ferme	-4004
▁frère	-4005
▁illum	-4006
▁nager	-4007
▁pomme	-4008
▁rayés	-4009
▁remet	-4010
▁renif	-4011
▁ronde	-4012
▁sales	-4013
▁stylo	-4014
▁texas	-4015
▁types	-4016
▁étire	-4017
ifiques	-4018
▁allure	-4019
▁argile	-4020
▁boules	-4021
▁casser	-4022
▁disant	-4023
▁entass	-4024
▁entrer	-4025
▁exposé	-4026
▁garées	-4027
▁glacée	-4028
▁gravit	-4029
▁images	-4030
▁lignes	-4031
▁lumine	-4032
▁moitié	-4033
▁mouton	-4034
▁nageur	-4035
▁nuages	-4036
▁parade	-4037
▁pièces	-4038
▁pommes	-4039
▁porche	-4040
▁pulvér	-4041
▁rebond	-4042
▁tombée	-4043
▁abrupte	-4044
▁bordure	-4045
▁bouclés	-4046
▁bureaux	-4047
▁croisés	-4048
▁dorment	-4049
▁défense	-4050
▁encombr	-4051
▁enflamm	-4052
▁engagés	-4053
▁environ	-4054
▁essayer	-4055
▁galerie	-4056
▁glisser	-4057
▁herbeux	-4058
▁lettres	-4059
▁matelas	-4060
▁papiers	-4061
▁poignée	-4062
▁presque	-4063
▁protège	-4064
▁société	-4065
▁sombres	-4066
▁tourner	-4067
▁étroite	-4068
▁attachée	-4069
▁balayant	-4070
▁fourrure	-4071
▁jumelles	-4072
▁oriental	-4073
▁présente	-4074
▁retourne	-4075
▁surpoids	-4076
▁baguettes	-4077
▁carrelage	-4078
▁contrebas	-4079
▁corpulent	-4080
▁entretien	-4081
▁mannequin	-4082
▁obstacles	-4083
▁orientale	-4084
▁patineurs	-4085
▁plongeoir	-4086
▁surveille	-4087
▁éclairage	-4088
▁attraction	-4089
▁breakdance	-4090
▁hockeyeurs	-4091
▁tranquille	-4092
▁étreignent	-4093
▁couvertures	-4094
▁nouvellement	-4095
▁tronçonneuse	-4096
▁éclaboussant	-4097
ci	-4098
ep	-4099
ye	-4100
éd	-4101
ake	-4102
ald	-4103
arr	-4104
can	-4105
ino	-4106
iée	-4107
opt	-4108
rir	-4109
éri	-4110
▁cy	-4111
▁mè	-4112
▁vu	-4113
atig	-4114
chef	-4115
cool	-4116
iter	-4117
itue	-4118
lexe	-4119
oney	-4120
rice	-4121
rons	-4122
ties	-4123
ulti	-4124
▁cau	-4125
▁far	-4126
▁fla	-4127
▁haw	-4128
▁his	-4129
▁mex	-4130
▁pit	-4131
▁pât	-4132
▁sto	-4133
▁sub	-4134
▁vac	-4135
▁éte	-4136
regis	-4137
upart	-4138
▁bols	-4139
▁buff	-4140
▁coca	-4141
▁célè	-4142
▁encl	-4143
▁food	-4144
▁guer	-4145
▁haie	-4146
▁joué	-4147
▁kart	-4148
▁lant	-4149
▁mauv	-4150
▁mort	-4151
▁ramp	-4152
▁rive	-4153
▁smok	-4154
▁élév	-4155
▁étag	-4156
amique	-4157
raphie	-4158
▁acier	-4159
▁ailes	-4160
▁brass	-4161
▁calme	-4162
▁courb	-4163
▁couss	-4164
▁céléb	-4165
▁embar	-4166
▁empil	-4167
▁fabri	-4168
▁fatig	-4169
▁filme	-4170
▁fourg	-4171
▁hache	-4172
▁hélic	-4173
▁lancé	-4174
▁médié	-4175
▁organ	-4176
▁phase	-4177
▁plats	-4178
▁poste	-4179
▁rappe	-4180
▁rayon	-4181
▁reste	-4182
▁sauté	-4183
▁simil	-4184
▁ébrou	-4185
▁écras	-4186
ression	-4187
uration	-4188
▁alcool	-4189
▁allant	-4190
▁chasse	-4191
▁chorég	-4192
▁commer	-4193
▁crayon	-4194
▁déchar	-4195
▁emball	-4196
▁extrém	-4197
▁géante	-4198
▁occupe	-4199
▁paquet	-4200
▁porter	-4201
▁ramant	-4202
▁rament	-4203
▁saisit	-4204
▁sortir	-4205
▁tachet	-4206
▁tisser	-4207
▁tourné	-4208
▁échecs	-4209
▁étoffe	-4210
▁étudie	-4211
▁artific	-4212
▁baissée	-4213
▁bizarre	-4214
▁circule	-4215
▁déchets	-4216
▁enregis	-4217
▁fleurie	-4218
▁illumin	-4219
▁imprimé	-4220
▁inspect	-4221
▁meubles	-4222
▁navigue	-4223
▁pliante	-4224
▁plupart	-4225
▁pêchant	-4226
▁rafting	-4227
▁remplis	-4228
▁reposer	-4229
▁tournoi	-4230
▁voilier	-4231
▁épaisse	-4232
alisation	-4233
iellement	-4234
▁alignées	-4235
▁appuyant	-4236
▁chameaux	-4237
▁collants	-4238
▁colonnes	-4239
▁découper	-4240
▁friandis	-4241
▁gobelets	-4242
▁grimaces	-4243
▁jonglant	-4244
▁joueuses	-4245
▁lévriers	-4246
▁peignent	-4247
▁plongeur	-4248
▁poursuit	-4249
▁écoliers	-4250
▁écossais	-4251
▁épicerie	-4252
américains	-4253
▁accroupit	-4254
▁attention	-4255
▁ballerine	-4256
▁barrières	-4257
▁cavaliers	-4258
▁déplacent	-4259
▁déplaçant	-4260
▁enveloppé	-4261
▁immeubles	-4262
▁indiennes	-4263
▁municipal	-4264
▁nombreuse	-4265
▁observant	-4266
▁suspendue	-4267
▁turquoise	-4268
▁violettes	-4269
▁affrontant	-4270
▁américaine	-4271
▁chargement	-4272
▁combattant	-4273
▁construire	-4274
▁directions	-4275
▁installant	-4276
▁pratiquant	-4277
▁poussiéreux	-4278
▁violoncelle	-4279
▁enthousiasme	-4280
▁enthousiaste	-4281
▁montgolfière	-4282
▁enthousiastes	-4283
▁traditionnelle	-4284
▁essentiellement	-4285
mo	-4286
ug	-4287
én	-4288
cas	-4289
chu	-4290
cop	-4291
gée	-4292
ime	-4293
ish	-4294
osp	-4295
rai	-4296
tor	-4297
unk	-4298
▁oe	-4299
▁os	-4300
azer	-4301
cont	-4302
imon	-4303
itée	-4304
même	-4305
oter	-4306
uire	-4307
urer	-4308
▁ari	-4309
▁bét	-4310
▁cri	-4311
▁ici	-4312
▁lig	-4313
▁lux	-4314
▁mob	-4315
▁mut	-4316
▁nom	-4317
▁nou	-4318
▁pér	-4319
▁rat	-4320
▁rés	-4321
▁soy	-4322
▁tut	-4323
▁vus	-4324
▁éje	-4325
aiser	-4326
ertes	-4327
halte	-4328
icain	-4329
ignon	-4330
isses	-4331
neige	-4332
orium	-4333
rosse	-4334
▁corn	-4335
▁crée	-4336
▁fant	-4337
▁from	-4338
▁hawa	-4339
▁inde	-4340
▁joie	-4341
▁menu	-4342
▁peup	-4343
▁pins	-4344
▁prél	-4345
▁rent	-4346
▁spéc	-4347
▁tant	-4348
▁toil	-4349
▁vont	-4350
▁émer	-4351
donald	-4352
ignoir	-4353
optère	-4354
riever	-4355
âteaux	-4356
▁armes	-4357
▁bonne	-4358
▁broch	-4359
▁canad	-4360
▁capot	-4361
▁celle	-4362
▁chiff	-4363
▁finir	-4364
▁genou	-4365
▁libre	-4366
▁lèche	-4367
▁mince	-4368
▁moins	-4369
▁muscl	-4370
▁perdu	-4371
▁poche	-4372
▁situé	-4373
▁super	-4374
▁tremp	-4375
▁écart	-4376
▁épais	-4377
▁époux	-4378
▁établ	-4379
oulière	-4380
yclette	-4381
▁arcade	-4382
▁assemb	-4383
▁ballet	-4384
▁blazer	-4385
▁blessé	-4386
▁boîtes	-4387
▁citron	-4388
▁coiffe	-4389
▁disque	-4390
▁dresse	-4391
▁déploy	-4392
▁essaye	-4393
▁fleuri	-4394
▁gagner	-4395
▁habits	-4396
▁marque	-4397
▁mascul	-4398
▁navire	-4399
▁oreill	-4400
▁parall	-4401
▁peinte	-4402
▁ponton	-4403
▁poulet	-4404
▁rappel	-4405
▁reflet	-4406
▁scouts	-4407
▁secoue	-4408
▁tapant	-4409
▁triste	-4410
▁écrans	-4411
▁canette	-4412
▁chameau	-4413
▁compagn	-4414
▁couchée	-4415
▁déguisé	-4416
▁délabré	-4417
▁enseign	-4418
▁impliqu	-4419
▁ouvrant	-4420
▁patauge	-4421
▁pilotes	-4422
▁plaisir	-4423
▁pupitre	-4424
▁quarter	-4425
▁regroup	-4426
▁remplit	-4427
▁réunies	-4428
▁trouver	-4429
▁vendent	-4430
▁écouter	-4431
▁adverses	-4432
▁argentée	-4433
▁asphalte	-4434
▁attendre	-4435
▁chariots	-4436
▁collines	-4437
▁concours	-4438
▁cuisiner	-4439
▁espagnol	-4440
▁essaient	-4441
▁graffiti	-4442
▁manipule	-4443
▁marchand	-4444
▁mcdonald	-4445
▁nouvelle	-4446
▁nuageuse	-4447
▁patineur	-4448
▁peignoir	-4449
▁pellette	-4450
▁pistolet	-4451
▁pointant	-4452
▁sarcelle	-4453
▁sportive	-4454
▁touchant	-4455
▁vacances	-4456
▁échasses	-4457
▁accroupis	-4458
▁balancent	-4459
▁concentre	-4460
▁examinent	-4461
▁obscurité	-4462
▁périlleux	-4463
▁retriever	-4464
▁seulement	-4465
▁auditorium	-4466
▁entreprise	-4467
▁expérience	-4468
▁inspectent	-4469
▁religieuse	-4470
▁adolescente	-4471
▁bandoulière	-4472
▁hélicoptère	-4473
▁travailleur	-4474
▁chorégraphie	-4475
▁restauration	-4476
▁échafaudages	-4477
▁environnement	-4478
▁signalisation	-4479
ah	-4480
là	-4481
nu	-4482
ata	-4483
att	-4484
cté	-4485
gir	-4486
gré	-4487
hab	-4488
idi	-4489
iés	-4490
lés	-4491
ota	-4492
owe	-4493
pre	-4494
rol	-4495
▁ip	-4496
ador	-4497
agée	-4498
anes	-4499
ions	-4500
itif	-4501
jour	-4502
midi	-4503
olog	-4504
opol	-4505
orge	-4506
oton	-4507
quée	-4508
titu	-4509
égét	-4510
êmes	-4511
▁and	-4512
▁ang	-4513
▁bob	-4514
▁exh	-4515
▁ham	-4516
▁hut	-4517
▁maj	-4518
▁mis	-4519
▁mit	-4520
▁pop	-4521
▁rac	-4522
▁rad	-4523
▁rav	-4524
▁sui	-4525
arium	-4526
chron	-4527
chées	-4528
colat	-4529
ctant	-4530
icien	-4531
ients	-4532
illés	-4533
iseur	-4534
liers	-4535
oween	-4536
rines	-4537
veuse	-4538
èques	-4539
épied	-4540
▁cell	-4541
▁chic	-4542
▁cout	-4543
▁doss	-4544
▁drib	-4545
▁elmo	-4546
▁fois	-4547
▁jack	-4548
▁jeep	-4549
▁joli	-4550
▁live	-4551
▁marm	-4552
▁moby	-4553
▁pend	-4554
▁ping	-4555
▁pots	-4556
▁prix	-4557
▁rasé	-4558
▁sens	-4559
▁soda	-4560
▁suiv	-4561
▁vite	-4562
▁vrai	-4563
▁wake	-4564
▁épar	-4565
cteurs	-4566
itoufl	-4567
ospace	-4568
riques	-4569
venant	-4570
▁balay	-4571
▁brace	-4572
▁bronz	-4573
▁cache	-4574
▁canal	-4575
▁chute	-4576
▁drôle	-4577
▁démar	-4578
▁enter	-4579
▁foyer	-4580
▁fumer	-4581
▁lever	-4582
▁matin	-4583
▁nappe	-4584
▁pierc	-4585
▁pizza	-4586
▁poing	-4587
▁posés	-4588
▁raser	-4589
▁steak	-4590
▁texto	-4591
▁végét	-4592
▁admire	-4593
▁baiser	-4594
▁bondit	-4595
▁buffet	-4596
▁cannes	-4597
▁chèvre	-4598
▁concur	-4599
▁douche	-4600
▁durant	-4601
▁europe	-4602
▁explor	-4603
▁franch	-4604
▁nettoy	-4605
▁perles	-4606
▁plaqué	-4607
▁proche	-4608
▁propri	-4609
▁protes	-4610
▁rasant	-4611
▁rayées	-4612
▁servir	-4613
▁soigne	-4614
▁soyeux	-4615
▁surfer	-4616
▁sécher	-4617
▁tendus	-4618
▁vallée	-4619
▁veston	-4620
▁épouse	-4621
ouillard	-4622
▁bascule	-4623
▁bikinis	-4624
▁billets	-4625
▁calèche	-4626
▁canards	-4627
▁complet	-4628
▁curieux	-4629
▁ferrées	-4630
▁flânant	-4631
▁fromage	-4632
▁gâteaux	-4633
▁industr	-4634
▁lancent	-4635
▁lévrier	-4636
▁médical	-4637
▁peintre	-4638
▁pourpre	-4639
▁princip	-4640
▁proches	-4641
▁rencont	-4642
▁saluant	-4643
▁serveur	-4644
▁suivant	-4645
▁tacheté	-4646
▁tendant	-4647
▁tombent	-4648
▁trépied	-4649
▁vérifie	-4650
▁échauff	-4651
▁agricole	-4652
▁amérique	-4653
▁aquarium	-4654
▁artifice	-4655
▁bannière	-4656
▁cheminée	-4657
▁chercher	-4658
▁chocolat	-4659
▁commande	-4660
▁couverts	-4661
▁couvrant	-4662
▁deuxième	-4663
▁défilent	-4664
▁entrepôt	-4665
▁intervie	-4666
▁intéress	-4667
▁lacrosse	-4668
▁maquille	-4669
▁mexicain	-4670
▁perruque	-4671
▁pratique	-4672
▁roulants	-4673
▁réparent	-4674
▁skateurs	-4675
▁synchron	-4676
▁vieilles	-4677
▁visibles	-4678
▁éventail	-4679
▁assistant	-4680
▁balançant	-4681
▁ceintures	-4682
▁chinoises	-4683
▁circulent	-4684
▁découpant	-4685
▁emmitoufl	-4686
▁exécutent	-4687
▁halloween	-4688
▁intégrale	-4689
▁jardinage	-4690
▁miniature	-4691
▁monospace	-4692
▁moustachu	-4693
▁naviguant	-4694
▁oreillers	-4695
▁partition	-4696
▁pastèques	-4697
▁savourent	-4698
▁wakeboard	-4699
▁brouillard	-4700
▁corpulente	-4701
▁débardeurs	-4702
▁effectuent	-4703
▁enregistre	-4704
▁impliquant	-4705
▁revêtement	-4706
▁verdoyante	-4707
▁agenouillés	-4708
▁appartement	-4709
▁décorations	-4710
▁infirmières	-4711
▁marchandise	-4712
▁rassemblant	-4713
▁remplissant	-4714
▁surveillent	-4715
▁distributeur	-4716
▁informatique	-4717
▁photographes	-4718
▁photographié	-4719
▁pourchassant	-4720
ga	-4721
▁u	-4722
act	-4723
agé	-4724
box	-4725
cri	-4726
ett	-4727
eté	-4728
gos	-4729
ink	-4730
ips	-4731
iré	-4732
oin	-4733
pan	-4734
pir	-4735
xyl	-4736
▁ni	-4737
▁sh	-4738
▁we	-4739
afic	-4740
agné	-4741
aies	-4742
anne	-4743
apor	-4744
boys	-4745
ctur	-4746
delà	-4747
enue	-4748
ffre	-4749
girl	-4750
gréd	-4751
ical	-4752
lace	-4753
mart	-4754
oche	-4755
omac	-4756
oyer	-4757
reet	-4758
sive	-4759
tion	-4760
uite	-4761
utes	-4762
utre	-4763
wing	-4764
èles	-4765
▁abo	-4766
▁amp	-4767
▁ans	-4768
▁boy	-4769
▁cah	-4770
▁cue	-4771
▁eth	-4772
▁iro	-4773
▁lou	-4774
▁maî	-4775
▁riz	-4776
▁rob	-4777
▁réd	-4778
▁squ	-4779
▁tam	-4780
▁tri	-4781
▁urg	-4782
▁xyl	-4783
ardes	-4784
assée	-4785
aties	-4786
cheur	-4787
cotte	-4788
endre	-4789
ernes	-4790
icile	-4791
istor	-4792
meute	-4793
obile	-4794
oires	-4795
onstr	-4796
opoly	-4797
otant	-4798
oyant	-4799
pique	-4800
pping	-4801
écage	-4802
▁barb	-4803
▁boxe	-4804
▁cock	-4805
▁cong	-4806
▁coud	-4807
▁cuit	-4808
▁dent	-4809
▁ence	-4810
▁ethn	-4811
▁feux	-4812
▁girl	-4813
▁mode	-4814
▁neuf	-4815
▁noix	-4816
▁nomm	-4817
▁ombr	-4818
▁orné	-4819
▁quoi	-4820
▁rail	-4821
▁sauc	-4822
▁soup	-4823
▁tort	-4824
▁tuba	-4825
▁verd	-4826
▁étir	-4827
atrice	-4828
chette	-4829
itions	-4830
monica	-4831
ueuses	-4832
▁accél	-4833
▁aride	-4834
▁bords	-4835
▁chine	-4836
▁châle	-4837
▁conte	-4838
▁cross	-4839
▁câble	-4840
▁dirig	-4841
▁encad	-4842
▁escar	-4843
▁frisé	-4844
▁hamac	-4845
▁juges	-4846
▁kimon	-4847
▁lapin	-4848
▁lutte	-4849
▁mâche	-4850
▁mécan	-4851
▁posée	-4852
▁poêle	-4853
▁raide	-4854
▁salue	-4855
▁savon	-4856
▁singe	-4857
▁sourc	-4858
▁techn	-4859
▁times	-4860
▁tâche	-4861
▁appelé	-4862
▁autoch	-4863
▁bambou	-4864
▁barbus	-4865
▁batman	-4866
▁beiges	-4867
▁bières	-4868
▁bougie	-4869
▁boulan	-4870
▁calmes	-4871
▁caress	-4872
▁casino	-4873
▁champs	-4874
▁clowns	-4875
▁coffre	-4876
▁crosse	-4877
▁destin	-4878
▁dinosa	-4879
▁double	-4880
▁débarr	-4881
▁désord	-4882
▁enlève	-4883
▁filmer	-4884
▁forces	-4885
▁garder	-4886
▁guerre	-4887
▁hispan	-4888
▁histor	-4889
▁inconn	-4890
▁ingréd	-4891
▁kayaks	-4892
▁lavent	-4893
▁murale	-4894
▁médiév	-4895
▁ongles	-4896
▁pauvre	-4897
▁pigeon	-4898
▁pinata	-4899
▁posées	-4900
▁quitte	-4901
▁rurale	-4902
▁répète	-4903
▁secour	-4904
▁signes	-4905
▁située	-4906
▁skiant	-4907
▁sports	-4908
▁street	-4909
▁temple	-4910
▁trafic	-4911
▁troupe	-4912
▁visite	-4913
▁vitres	-4914
▁éponge	-4915
▁étroit	-4916
oiselles	-4917
▁appuyée	-4918
▁attache	-4919
▁atteint	-4920
▁bloquer	-4921
▁boucher	-4922
▁cadeaux	-4923
▁caniche	-4924
▁clôturé	-4925
▁compris	-4926
▁contain	-4927
▁contenu	-4928
▁contrer	-4929
▁coupent	-4930
▁coussin	-4931
▁dessins	-4932
▁déambul	-4933
▁décolle	-4934
▁enlever	-4935
▁estomac	-4936
▁fantais	-4937
▁fatigué	-4938
▁filmant	-4939
▁flânent	-4940
▁gazonné	-4941
▁glacier	-4942
▁luttent	-4943
▁manière	-4944
▁marmite	-4945
▁moyenne	-4946
▁musical	-4947
▁nourrit	-4948
▁obscure	-4949
▁ouverts	-4950
▁palmier	-4951
▁plaquer	-4952
▁profond	-4953
▁quilles	-4954
▁saluent	-4955
▁serpent	-4956
▁service	-4957
▁tailler	-4958
▁tomates	-4959
▁urgence	-4960
▁visière	-4961
▁walmart	-4962
▁étreint	-4963
ouillères	-4964
▁admirant	-4965
▁atterrir	-4966
▁brossant	-4967
▁catcheur	-4968
▁cerceaux	-4969
▁coiffeur	-4970
▁creusent	-4971
▁croisées	-4972
▁déguisée	-4973
▁démonstr	-4974
▁enceinte	-4975
▁endroits	-4976
▁essayent	-4977
▁ethnique	-4978
▁exercice	-4979
▁flanelle	-4980
▁grimpent	-4981
▁guitares	-4982
▁impressi	-4983
▁marécage	-4984
▁monopoly	-4985
▁oreiller	-4986
▁pagayant	-4987
▁passager	-4988
▁patinent	-4989
▁plantant	-4990
▁poussent	-4991
▁prochain	-4992
▁retourné	-4993
▁serveuse	-4994
▁shopping	-4995
▁tabliers	-4996
▁touriste	-4997
▁transpar	-4998
▁traînant	-4999
▁accrochés	-5000
▁activités	-5001
▁casserole	-5002
▁cherchent	-5003
▁collation	-5004
▁construit	-5005
▁cuisinent	-5006
▁détendant	-5007
▁extrémité	-5008
▁formation	-5009
▁harmonica	-5010
▁iroquoise	-5011
▁messieurs	-5012
▁muselière	-5013
▁olympique	-5014
▁plongeurs	-5015
▁réception	-5016
▁souriants	-5017
▁surélevée	-5018
▁xylophone	-5019
▁accompagné	-5020
▁accrochant	-5021
▁acrobaties	-5022
▁agenouille	-5023
▁approchant	-5024
▁ballerines	-5025
▁brillantes	-5026
▁citrouille	-5027
▁inspectant	-5028
▁montagneux	-5029
▁officielle	-5030
▁pourchassé	-5031
▁sculptures	-5032
▁transporte	-5033
▁étreignant	-5034
▁demoiselles	-5035
▁encouragent	-5036
▁ingrédients	-5037
▁quarterback	-5038
▁survêtement	-5039
▁fourgonnette	-5040
▁genouillères	-5041
▁mutuellement	-5042
▁poussiéreuse	-5043
▁démonstration	-5044
▁photographier	-5045
▁stationnement	-5046
▁universitaire	-5047
▁établissement	-5048
dr	-5049
dy	-5050
el	-5051
ka	-5052
lu	-5053
ça	-5054
arç	-5055
doz	-5056
fle	-5057
gge	-5058
héd	-5059
hée	-5060
lét	-5061
opé	-5062
ral	-5063
ram	-5064
ren	-5065
rig	-5066
ulé	-5067
wer	-5068
èse	-5069
▁oh	-5070
▁ry	-5071
▁ça	-5072
ains	-5073
angé	-5074
ater	-5075
chon	-5076
corn	-5077
enga	-5078
eria	-5079
hoir	-5080
iale	-5081
insi	-5082
ites	-5083
iège	-5084
jamb	-5085
lins	-5086
ning	-5087
ocol	-5088
ompl	-5089
oque	-5090
ourd	-5091
tées	-5092
téri	-5093
unis	-5094
vité	-5095
éros	-5096
▁bes	-5097
▁bic	-5098
▁civ	-5099
▁com	-5100
▁crê	-5101
▁cyg	-5102
▁enr	-5103
▁ext	-5104
▁hur	-5105
▁lot	-5106
▁mec	-5107
▁mol	-5108
▁pla	-5109
▁pén	-5110
▁pét	-5111
▁red	-5112
▁sud	-5113
▁sép	-5114
▁tag	-5115
allye	-5116
apins	-5117
atifs	-5118
ermud	-5119
ettis	-5120
euses	-5121
gorge	-5122
heure	-5123
ister	-5124
isées	-5125
jours	-5126
sière	-5127
toral	-5128
uelle	-5129
velot	-5130
vient	-5131
érant	-5132
érind	-5133
▁ador	-5134
▁affi	-5135
▁afin	-5136
▁amar	-5137
▁amer	-5138
▁bard	-5139
▁blot	-5140
▁bong	-5141
▁brit	-5142
▁cach	-5143
▁demi	-5144
▁détr	-5145
▁effr	-5146
▁flor	-5147
▁hand	-5148
▁ipod	-5149
▁kick	-5150
▁labr	-5151
▁logo	-5152
▁mass	-5153
▁ment	-5154
▁onze	-5155
▁rele	-5156
▁remb	-5157
▁roca	-5158
▁rout	-5159
▁soon	-5160
▁souv	-5161
▁star	-5162
▁tige	-5163
▁ulti	-5164
▁âges	-5165
andail	-5166
etière	-5167
illons	-5168
inette	-5169
oroute	-5170
ourant	-5171
quelle	-5172
▁ainsi	-5173
▁amies	-5174
▁apple	-5175
▁avent	-5176
▁beaux	-5177
▁berge	-5178
▁bâche	-5179
▁chips	-5180
▁compr	-5181
▁domin	-5182
▁douce	-5183
▁flamb	-5184
▁frire	-5185
▁fruit	-5186
▁inhab	-5187
▁jenga	-5188
▁jogge	-5189
▁muret	-5190
▁musul	-5191
▁notes	-5192
▁pagay	-5193
▁parce	-5194
▁pneum	-5195
▁polit	-5196
▁polos	-5197
▁poney	-5198
▁poser	-5199
▁prête	-5200
▁pyram	-5201
▁radio	-5202
▁ravin	-5203
▁spons	-5204
▁teint	-5205
▁tigre	-5206
▁truck	-5207
▁télés	-5208
▁éparp	-5209
▁étage	-5210
▁était	-5211
angeant	-5212
hédrale	-5213
istique	-5214
létisme	-5215
vention	-5216
▁affich	-5217
▁amuser	-5218
▁anneau	-5219
▁arrêté	-5220
▁baisse	-5221
▁balais	-5222
▁bambin	-5223
▁banlie	-5224
▁barque	-5225
▁bavard	-5226
▁belles	-5227
▁bermud	-5228
▁brunes	-5229
▁cigare	-5230
▁courbé	-5231
▁désarç	-5232
▁enlace	-5233
▁essuie	-5234
▁europé	-5235
▁feuill	-5236
▁feutre	-5237
▁galets	-5238
▁grotte	-5239
▁inache	-5240
▁inscri	-5241
▁intens	-5242
▁intern	-5243
▁mariés	-5244
▁menuis	-5245
▁mobile	-5246
▁modèle	-5247
▁musclé	-5248
▁nattes	-5249
▁niveau	-5250
▁opposé	-5251
▁ouvrir	-5252
▁patins	-5253
▁peuplé	-5254
▁pilier	-5255
▁pirate	-5256
▁poudre	-5257
▁presse	-5258
▁rallye	-5259
▁rappro	-5260
▁retire	-5261
▁sprink	-5262
▁square	-5263
▁séance	-5264
▁taches	-5265
▁talent	-5266
▁tendue	-5267
▁trains	-5268
▁troncs	-5269
▁venant	-5270
▁voirie	-5271
▁ébroue	-5272
▁échant	-5273
▁éjecté	-5274
▁époque	-5275
▁étendu	-5276
ouillent	-5277
▁accompl	-5278
▁agricul	-5279
▁amérind	-5280
▁bananes	-5281
▁bulldoz	-5282
▁chapite	-5283
▁crayons	-5284
▁célèbre	-5285
▁demande	-5286
▁donnent	-5287
▁déchiré	-5288
▁déneige	-5289
▁enclume	-5290
▁entrent	-5291
▁fermier	-5292
▁flammes	-5293
▁inférie	-5294
▁javelot	-5295
▁jockeys	-5296
▁masques	-5297
▁peloton	-5298
▁pinceau	-5299
▁poutres	-5300
▁pêchent	-5301
▁remuant	-5302
▁rentrer	-5303
▁serrent	-5304
▁smoking	-5305
▁sortent	-5306
▁soutien	-5307
▁sucette	-5308
▁suivent	-5309
▁tatouée	-5310
▁trophée	-5311
▁verdure	-5312
▁versant	-5313
▁étagère	-5314
▁attelage	-5315
▁bataille	-5316
▁bracelet	-5317
▁chandail	-5318
▁chevalet	-5319
▁collègue	-5320
▁composée	-5321
▁dessiner	-5322
▁défilant	-5323
▁fabrique	-5324
▁flottent	-5325
▁grattant	-5326
▁herbeuse	-5327
▁installe	-5328
▁laquelle	-5329
▁littoral	-5330
▁lumineux	-5331
▁malheure	-5332
▁maquette	-5333
▁mascotte	-5334
▁mitaines	-5335
▁mouillée	-5336
▁observer	-5337
▁occupent	-5338
▁officiel	-5339
▁officier	-5340
▁pagaient	-5341
▁particul	-5342
▁pizzeria	-5343
▁pliantes	-5344
▁propriét	-5345
▁quittant	-5346
▁renversé	-5347
▁scooters	-5348
▁sourcils	-5349
▁souvenir	-5350
▁tableaux	-5351
▁touchent	-5352
▁toujours	-5353
▁tournage	-5354
▁viennent	-5355
▁écharpes	-5356
▁écrasant	-5357
▁éteindre	-5358
▁applaudit	-5359
▁apprenant	-5360
▁aquatique	-5361
▁artisanat	-5362
▁ascension	-5363
▁autoroute	-5364
▁chargeant	-5365
▁classique	-5366
▁collègues	-5367
▁container	-5368
▁couvercle	-5369
▁dinosaure	-5370
▁défenseur	-5371
▁encombrée	-5372
▁entourant	-5373
▁entourent	-5374
▁entourées	-5375
▁exercices	-5376
▁fontaines	-5377
▁lanternes	-5378
▁mobylette	-5379
▁numérique	-5380
▁rencontre	-5381
▁rocheuses	-5382
▁soulevant	-5383
▁vérifiant	-5384
▁élévateur	-5385
▁étudiante	-5386
▁alpinistes	-5387
▁athlétisme	-5388
▁automobile	-5389
▁bicyclette	-5390
▁cathédrale	-5391
▁cellulaire	-5392
▁circulaire	-5393
▁cuisiniers	-5394
▁expression	-5395
▁gonflables	-5396
▁gravissent	-5397
▁industriel	-5398
▁infirmière	-5399
▁pelleteuse	-5400
▁percussion	-5401
▁plateforme	-5402
▁projecteur	-5403
▁rassemblée	-5404
▁souriantes	-5405
▁spectateur	-5406
▁téléphones	-5407
▁végétation	-5408
▁coéquipiers	-5409
▁enseignante	-5410
▁fonctionner	-5411
▁magnifiques	-5412
▁personnages	-5413
▁réparations	-5414
▁électriques	-5415
▁adolescentes	-5416
▁alimentaires	-5417
▁construisent	-5418
▁instructions	-5419
▁interagissent	-5420
▁soigneusement	-5421
▁professionnels	-5422
▁réfléchissants	-5423
br	-5424
fr	-5425
ht	-5426
ik	-5427
ph	-5428
vo	-5429
▁-	-5430
abo	-5431
ami	-5432
bon	-5433
cel	-5434
ena	-5435
jet	-5436
ker	-5437
kie	-5438
ksw	-5439
mée	-5440
ney	-5441
onf	-5442
par	-5443
raî	-5444
uds	-5445
uzz	-5446
ves	-5447
vez	-5448
yon	-5449
ève	-5450
▁là	-5451
▁ok	-5452
▁ur	-5453
agen	-5454
aite	-5455
anda	-5456
cins	-5457
coat	-5458
cola	-5459
docu	-5460
ench	-5461
erts	-5462
erté	-5463
ffes	-5464
gers	-5465
icap	-5466
inue	-5467
itus	-5468
maid	-5469
mate	-5470
mine	-5471
mint	-5472
oirs	-5473
otid	-5474
otre	-5475
près	-5476
pées	-5477
riot	-5478
serv	-5479
tête	-5480
ueur	-5481
vert	-5482
voir	-5483
york	-5484
ôles	-5485
▁act	-5486
▁bel	-5487
▁cup	-5488
▁del	-5489
▁fur	-5490
▁fée	-5491
▁gau	-5492
▁jui	-5493
▁lyc	-5494
▁mel	-5495
▁nég	-5496
▁obt	-5497
▁pic	-5498
▁rid	-5499
▁rus	-5500
▁tar	-5501
▁tum	-5502
▁zéb	-5503
attle	-5504
atule	-5505
copes	-5506
ences	-5507
erman	-5508
gerie	-5509
ierge	-5510
ilant	-5511
intes	-5512
itres	-5513
lance	-5514
lante	-5515
opard	-5516
ophon	-5517
orter	-5518
quent	-5519
raîch	-5520
tient	-5521
tière	-5522
tores	-5523
uient	-5524
ètent	-5525
▁agri	-5526
▁baie	-5527
▁body	-5528
▁chal	-5529
▁cire	-5530
▁cise	-5531
▁clar	-5532
▁coco	-5533
▁déco	-5534
▁déta	-5535
▁enla	-5536
▁enti	-5537
▁fier	-5538
▁fixe	-5539
▁flou	-5540
▁levé	-5541
▁mise	-5542
▁mots	-5543
▁pais	-5544
▁prim	-5545
▁pétr	-5546
▁ryth	-5547
▁sant	-5548
▁semi	-5549
▁siff	-5550
▁site	-5551
▁slip	-5552
▁stop	-5553
▁tréb	-5554
▁tutu	-5555
▁zomb	-5556
▁ânes	-5557
▁état	-5558
action	-5559
alises	-5560
cturne	-5561
ession	-5562
iennes	-5563
illées	-5564
ington	-5565
lèvent	-5566
minton	-5567
ptions	-5568
uriant	-5569
vement	-5570
▁aband	-5571
▁antié	-5572
▁arabe	-5573
▁biker	-5574
▁bonho	-5575
▁cassé	-5576
▁cerfs	-5577
▁charc	-5578
▁créer	-5579
▁début	-5580
▁déter	-5581
▁enlac	-5582
▁envol	-5583
▁floue	-5584
▁fléch	-5585
▁fourn	-5586
▁franç	-5587
▁guide	-5588
▁hutte	-5589
▁immob	-5590
▁intit	-5591
▁jeter	-5592
▁legos	-5593
▁loupe	-5594
▁marin	-5595
▁miami	-5596
▁multi	-5597
▁nommé	-5598
▁ordre	-5599
▁panor	-5600
▁patte	-5601
▁pleut	-5602
▁plume	-5603
▁poils	-5604
▁pulls	-5605
▁rural	-5606
▁saris	-5607
▁serré	-5608
▁state	-5609
▁sueur	-5610
▁taper	-5611
▁tisse	-5612
▁tribu	-5613
▁tromb	-5614
▁tubes	-5615
▁vides	-5616
▁épées	-5617
▁états	-5618
ctement	-5619
estière	-5620
kswagen	-5621
ouettes	-5622
ressant	-5623
service	-5624
▁access	-5625
▁allume	-5626
▁auprès	-5627
▁auvent	-5628
▁banane	-5629
▁bavoir	-5630
▁bloque	-5631
▁canyon	-5632
▁cassée	-5633
▁caucas	-5634
▁criant	-5635
▁dragon	-5636
▁défend	-5637
▁embarc	-5638
▁emmène	-5639
▁encore	-5640
▁expose	-5641
▁frappé	-5642
▁lapins	-5643
▁lavabo	-5644
▁locale	-5645
▁manuel	-5646
▁menant	-5647
▁menton	-5648
▁meuble	-5649
▁minces	-5650
▁mordre	-5651
▁musulm	-5652
▁ombres	-5653
▁pelles	-5654
▁perché	-5655
▁pistes	-5656
▁potier	-5657
▁poursu	-5658
▁priant	-5659
▁prient	-5660
▁prises	-5661
▁propre	-5662
▁prêtre	-5663
▁quotid	-5664
▁rampes	-5665
▁rasoir	-5666
▁relais	-5667
▁revers	-5668
▁rondes	-5669
▁rubans	-5670
▁réconf	-5671
▁sortes	-5672
▁souder	-5673
▁souple	-5674
▁tenter	-5675
▁trench	-5676
▁tumult	-5677
▁tuyaux	-5678
▁tâches	-5679
▁vaches	-5680
▁vernis	-5681
▁vertic	-5682
▁vieill	-5683
toresque	-5684
▁acteurs	-5685
▁agitent	-5686
▁anneaux	-5687
▁appelle	-5688
▁appuyés	-5689
▁barmaid	-5690
▁brosser	-5691
▁buisson	-5692
▁cabines	-5693
▁ciseaux	-5694
▁colonne	-5695
▁colorie	-5696
▁confort	-5697
▁dossard	-5698
▁dribble	-5699
▁décorée	-5700
▁entrant	-5701
▁exposés	-5702
▁grimper	-5703
▁guichet	-5704
▁identif	-5705
▁interro	-5706
▁kickbox	-5707
▁legging	-5708
▁liberté	-5709
▁léopard	-5710
▁nageuse	-5711
▁occupés	-5712
▁partage	-5713
▁planter	-5714
▁plonger	-5715
▁poulets	-5716
▁poupées	-5717
▁radeaux	-5718
▁renifle	-5719
▁seattle	-5720
▁secours	-5721
▁sooners	-5722
▁soudure	-5723
▁spatule	-5724
▁sponsor	-5725
▁terminé	-5726
▁terrier	-5727
▁tresses	-5728
▁typique	-5729
▁valises	-5730
▁visible	-5731
▁élégant	-5732
▁étalage	-5733
▁étirant	-5734
▁étoffes	-5735
▁étoiles	-5736
documents	-5737
ieusement	-5738
▁activité	-5739
▁affiches	-5740
▁ancienne	-5741
▁atterrit	-5742
▁baignent	-5743
▁banlieue	-5744
▁bardeaux	-5745
▁barreaux	-5746
▁colliers	-5747
▁complexe	-5748
▁complète	-5749
▁descente	-5750
▁dessinée	-5751
▁détritus	-5752
▁enlaçant	-5753
▁entassés	-5754
▁envoyant	-5755
▁examiner	-5756
▁exposées	-5757
▁foulards	-5758
▁gratuits	-5759
▁grillage	-5760
▁handicap	-5761
▁incluant	-5762
▁lutteurs	-5763
▁maquillé	-5764
▁mouettes	-5765
▁médecins	-5766
▁médicaux	-5767
▁nocturne	-5768
▁paisible	-5769
▁piercing	-5770
▁plongeon	-5771
▁pyramide	-5772
▁pédalant	-5773
▁ramasser	-5774
▁recevant	-5775
▁remettre	-5776
▁rouillée	-5777
▁rustique	-5778
▁répètent	-5779
▁saxophon	-5780
▁soulever	-5781
▁superman	-5782
▁surfeurs	-5783
▁taillant	-5784
▁tatoueur	-5785
▁terminer	-5786
▁ultimate	-5787
▁vitrines	-5788
▁vraiment	-5789
▁accompagn	-5790
▁acheteurs	-5791
▁affichage	-5792
▁badminton	-5793
▁boulevers	-5794
▁bulldozer	-5795
▁campement	-5796
▁chapiteau	-5797
▁compagnie	-5798
▁concentré	-5799
▁confettis	-5800
▁déguisées	-5801
▁effectuer	-5802
▁enflammés	-5803
▁enseignes	-5804
▁ethniques	-5805
▁fantaisie	-5806
▁friandise	-5807
▁impliqués	-5808
▁important	-5809
▁imposante	-5810
▁installée	-5811
▁luxuriant	-5812
▁navigable	-5813
▁officiers	-5814
▁paressent	-5815
▁portraits	-5816
▁prochaine	-5817
▁profondes	-5818
▁proposant	-5819
▁provenant	-5820
▁ramassent	-5821
▁regroupés	-5822
▁saucisses	-5823
▁similaire	-5824
▁soufflant	-5825
▁souffleur	-5826
▁souvenirs	-5827
▁surplombe	-5828
▁suspendus	-5829
▁technique	-5830
▁tropicale	-5831
▁télésiège	-5832
▁élastique	-5833
▁éloignent	-5834
▁éléphants	-5835
▁africaines	-5836
▁cigarettes	-5837
▁construite	-5838
▁dispositif	-5839
▁emmitouflé	-5840
▁enseignant	-5841
▁fabriquant	-5842
▁fonctionne	-5843
▁forestière	-5844
▁historique	-5845
▁manipulant	-5846
▁mélangeant	-5847
▁personnage	-5848
▁personnels	-5849
▁publicités	-5850
▁recouvrant	-5851
▁serviettes	-5852
▁supporters	-5853
▁volkswagen	-5854
▁éclairages	-5855
▁boulangerie	-5856
▁chirurgiens	-5857
▁citrouilles	-5858
▁destination	-5859
▁déchargeant	-5860
▁entièrement	-5861
▁intensément	-5862
▁pittoresque	-5863
▁projecteurs	-5864
▁remplissent	-5865
▁ressemblent	-5866
▁snowboarder	-5867
▁artificielle	-5868
▁informations	-5869
▁inscriptions	-5870
▁participants	-5871
▁synchronisée	-5872
▁tumultueuses	-5873
▁montgolfières	-5874
▁principalement	-5875
ha	-5876
ts	-5877
ys	-5878
alm	-5879
cep	-5880
cke	-5881
cks	-5882
dim	-5883
dit	-5884
edo	-5885
eni	-5886
ere	-5887
gas	-5888
gés	-5889
ham	-5890
ibe	-5891
iné	-5892
irs	-5893
lax	-5894
mps	-5895
més	-5896
ode	-5897
oll	-5898
olo	-5899
olé	-5900
ood	-5901
ory	-5902
rov	-5903
roy	-5904
run	-5905
sol	-5906
tue	-5907
uir	-5908
uor	-5909
usk	-5910
ysi	-5911
▁of	-5912
▁sw	-5913
▁ti	-5914
▁uk	-5915
abor	-5916
aint	-5917
akes	-5918
auph	-5919
cons	-5920
eron	-5921
ford	-5922
homa	-5923
iage	-5924
ince	-5925
issé	-5926
line	-5927
mple	-5928
nerg	-5929
orde	-5930
osol	-5931
oulé	-5932
reen	-5933
rome	-5934
unch	-5935
utôt	-5936
éens	-5937
▁abe	-5938
▁aig	-5939
▁avi	-5940
▁big	-5941
▁bit	-5942
▁cag	-5943
▁cim	-5944
▁cop	-5945
▁diz	-5946
▁dér	-5947
▁ges	-5948
▁gig	-5949
▁hal	-5950
▁han	-5951
▁hol	-5952
▁jum	-5953
▁los	-5954
▁mac	-5955
▁mes	-5956
▁ond	-5957
▁sam	-5958
▁san	-5959
▁sel	-5960
▁spe	-5961
▁tét	-5962
▁ust	-5963
▁vel	-5964
▁zoo	-5965
aison	-5966
alles	-5967
ancer	-5968
asion	-5969
avane	-5970
avent	-5971
bucks	-5972
cades	-5973
chefs	-5974
esses	-5975
ignée	-5976
illis	-5977
iquet	-5978
linge	-5979
orant	-5980
ossée	-5981
otion	-5982
plexe	-5983
short	-5984
tesse	-5985
téria	-5986
utant	-5987
verse	-5988
vette	-5989
éales	-5990
écomm	-5991
étant	-5992
êcher	-5993
▁agré	-5994
▁aime	-5995
▁anti	-5996
▁aqua	-5997
▁bour	-5998
▁béqu	-5999
▁card	-6000
▁cela	-6001
▁conn	-6002
▁conv	-6003
▁crev	-6004
▁cult	-6005
▁doit	-6006
▁drag	-6007
▁ench	-6008
▁exer	-6009
▁fast	-6010
▁hamb	-6011
▁hang	-6012
▁husk	-6013
▁ital	-6014
▁jets	-6015
▁jeté	-6016
▁lice	-6017
▁ling	-6018
▁lion	-6019
▁mecs	-6020
▁mine	-6021
▁mène	-6022
▁nike	-6023
▁noms	-6024
▁nuée	-6025
▁okla	-6026
▁orne	-6027
▁page	-6028
▁paon	-6029
▁pens	-6030
▁pieu	-6031
▁pipe	-6032
▁pluv	-6033
▁porc	-6034
▁prog	-6035
▁préc	-6036
▁préf	-6037
▁péri	-6038
▁ress	-6039
▁ride	-6040
▁rien	-6041
▁réag	-6042
▁réch	-6043
▁seni	-6044
▁side	-6045
▁spid	-6046
▁sque	-6047
▁symb	-6048
▁vise	-6049
▁vues	-6050
▁wash	-6051
amment	-6052
antité	-6053
aquant	-6054
astron	-6055
cercle	-6056
ctures	-6057
issade	-6058
issage	-6059
itaine	-6060
marine	-6061
onnier	-6062
onçant	-6063
ticule	-6064
titude	-6065
▁amish	-6066
▁athlé	-6067
▁atter	-6068
▁attir	-6069
▁blott	-6070
▁bring	-6071
▁canin	-6072
▁canon	-6073
▁caric	-6074
▁chats	-6075
▁crist	-6076
▁dauph	-6077
▁dinde	-6078
▁dorés	-6079
▁douze	-6080
▁dégus	-6081
▁délic	-6082
▁démén	-6083
▁dérou	-6084
▁fossé	-6085
▁genre	-6086
▁haies	-6087
▁harpe	-6088
▁idiot	-6089
▁indig	-6090
▁inond	-6091
▁invis	-6092
▁joues	-6093
▁latin	-6094
▁levée	-6095
▁lieux	-6096
▁light	-6097
▁ligue	-6098
▁lourd	-6099
▁maint	-6100
▁moine	-6101
▁monté	-6102
▁morte	-6103
▁mêmes	-6104
▁obama	-6105
▁passi	-6106
▁physi	-6107
▁piles	-6108
▁pince	-6109
▁plane	-6110
▁porté	-6111
▁poses	-6112
▁power	-6113
▁puits	-6114
▁relax	-6115
▁remue	-6116
▁robot	-6117
▁ruade	-6118
▁récré	-6119
▁rétro	-6120
▁selle	-6121
▁soupe	-6122
▁suite	-6123
▁suivi	-6124
▁sépar	-6125
▁tiers	-6126
▁toque	-6127
▁trace	-6128
▁trous	-6129
▁tyrol	-6130
▁égout	-6131
▁élève	-6132
▁énerg	-6133
agement	-6134
dimensi	-6135
ication	-6136
illette	-6137
isation	-6138
itation	-6139
onibles	-6140
onnaire	-6141
othèque	-6142
volants	-6143
ériment	-6144
▁achats	-6145
▁années	-6146
▁appart	-6147
▁assort	-6148
▁avance	-6149
▁baigne	-6150
▁bandés	-6151
▁barils	-6152
▁besoin	-6153
▁billet	-6154
▁boucle	-6155
▁bouton	-6156
▁boxant	-6157
▁boxeur	-6158
▁britan	-6159
▁bronze	-6160
▁bétail	-6161
▁cahier	-6162
▁chargé	-6163
▁civile	-6164
▁coiffé	-6165
▁cornes	-6166
▁courbe	-6167
▁crache	-6168
▁créant	-6169
▁câlins	-6170
▁dalles	-6171
▁demand	-6172
▁disney	-6173
▁dorées	-6174
▁drôles	-6175
▁déball	-6176
▁effort	-6177
▁effray	-6178
▁emprun	-6179
▁enfile	-6180
▁engins	-6181
▁excité	-6182
▁exhibe	-6183
▁explos	-6184
▁flèche	-6185
▁fouill	-6186
▁frotte	-6187
▁fusils	-6188
▁gonfle	-6189
▁grises	-6190
▁incroy	-6191
▁lacets	-6192
▁maigre	-6193
▁marins	-6194
▁maître	-6195
▁meille	-6196
▁mignon	-6197
▁mixage	-6198
▁museau	-6199
▁mâcher	-6200
▁mèches	-6201
▁observ	-6202
▁patron	-6203
▁paysan	-6204
▁pingou	-6205
▁plaine	-6206
▁plutôt	-6207
▁pouces	-6208
▁puisse	-6209
▁pédale	-6210
▁quille	-6211
▁respir	-6212
▁rester	-6213
▁ruines	-6214
▁rythme	-6215
▁réalis	-6216
▁saleté	-6217
▁shoote	-6218
▁smashe	-6219
▁soccer	-6220
▁speedo	-6221
▁stands	-6222
▁steaks	-6223
▁stores	-6224
▁subway	-6225
▁tapent	-6226
▁torche	-6227
▁tortue	-6228
▁trempé	-6229
▁tricot	-6230
▁trotte	-6231
▁vitrée	-6232
▁vivant	-6233
▁voiles	-6234
▁élabor	-6235
▁étages	-6236
▁éviter	-6237
▁adossée	-6238
▁annonce	-6239
▁arrêter	-6240
▁arrêtée	-6241
▁ascense	-6242
▁autobus	-6243
▁autocol	-6244
▁aérosol	-6245
▁bassine	-6246
▁bermuda	-6247
▁boucles	-6248
▁caméras	-6249
▁chaînes	-6250
▁chiffon	-6251
▁cliente	-6252
▁concurr	-6253
▁couchés	-6254
▁courtes	-6255
▁couture	-6256
▁dominos	-6257
▁extrême	-6258
▁exécute	-6259
▁fausses	-6260
▁footing	-6261
▁forment	-6262
▁fortune	-6263
▁géantes	-6264
▁hanches	-6265
▁hôtesse	-6266
▁impatie	-6267
▁incliné	-6268
▁intense	-6269
▁jaillir	-6270
▁jettent	-6271
▁karting	-6272
▁kimonos	-6273
▁lessive	-6274
▁muselés	-6275
▁numéros	-6276
▁obtenir	-6277
▁partant	-6278
▁pleurer	-6279
▁pointes	-6280
▁pousser	-6281
▁pétales	-6282
▁quatuor	-6283
▁rangées	-6284
▁rapport	-6285
▁restant	-6286
▁rouleau	-6287
▁sacoche	-6288
▁sculpte	-6289
▁shooter	-6290
▁sifflet	-6291
▁soulevé	-6292
▁sprinte	-6293
▁superbe	-6294
▁talents	-6295
▁tempête	-6296
▁termine	-6297
▁tissant	-6298
▁torches	-6299
▁tressés	-6300
▁tricoté	-6301
▁échappe	-6302
▁admirent	-6303
▁adorable	-6304
▁ajustant	-6305
▁apprécie	-6306
▁arrivant	-6307
▁arrières	-6308
▁arroseur	-6309
▁arrêtant	-6310
▁aventure	-6311
▁balancer	-6312
▁bandeaux	-6313
▁bonhomme	-6314
▁campeurs	-6315
▁canettes	-6316
▁caniches	-6317
▁caravane	-6318
▁cascades	-6319
▁conduire	-6320
▁converse	-6321
▁corniche	-6322
▁création	-6323
▁céréales	-6324
▁dentaire	-6325
▁dernière	-6326
▁distance	-6327
▁démarrer	-6328
▁déplacer	-6329
▁empilées	-6330
▁empêcher	-6331
▁encombré	-6332
▁endormie	-6333
▁enfilant	-6334
▁essuyant	-6335
▁franchit	-6336
▁frappent	-6337
▁inconnue	-6338
▁labrador	-6339
▁leggings	-6340
▁lingerie	-6341
▁marqueur	-6342
▁mouillés	-6343
▁moutarde	-6344
▁nageuses	-6345
▁nouilles	-6346
▁oklahoma	-6347
▁ornement	-6348
▁parachut	-6349
▁parvient	-6350
▁perplexe	-6351
▁plaquage	-6352
▁plaquant	-6353
▁plateaux	-6354
▁produire	-6355
▁projetée	-6356
▁promener	-6357
▁pêcheurs	-6358
▁quantité	-6359
▁quittent	-6360
▁rafraîch	-6361
▁rembourr	-6362
▁récupère	-6363
▁répétant	-6364
▁services	-6365
▁smashant	-6366
▁souffler	-6367
▁surélevé	-6368
▁traineau	-6369
▁tranches	-6370
▁trombone	-6371
▁tropical	-6372
▁trouvant	-6373
▁télécomm	-6374
▁électric	-6375
▁assorties	-6376
▁auditoire	-6377
▁banquette	-6378
▁brassards	-6379
▁cafétéria	-6380
▁caressant	-6381
▁caucasien	-6382
▁champagne	-6383
▁cimetière	-6384
▁coloriage	-6385
▁couvertes	-6386
▁devanture	-6387
▁décombres	-6388
▁enneigées	-6389
▁entassées	-6390
▁fourneaux	-6391
▁glacières	-6392
▁indiquant	-6393
▁inhabitue	-6394
▁installés	-6395
▁interagit	-6396
▁interview	-6397
▁invisible	-6398
▁japonaise	-6399
▁kayakiste	-6400
▁lumineuse	-6401
▁masculine	-6402
▁mauvaises	-6403
▁médiévale	-6404
▁nettoyage	-6405
▁ombrelles	-6406
▁ornements	-6407
▁ouverture	-6408
▁parallèle	-6409
▁personnel	-6410
▁pistolets	-6411
▁projetant	-6412
▁pulvérise	-6413
▁religieux	-6414
▁reniflant	-6415
▁récemment	-6416
▁sculpteur	-6417
▁spiderman	-6418
▁starbucks	-6419
▁stationné	-6420
▁tabourets	-6421
▁toilettes	-6422
▁accrochées	-6423
▁antiémeute	-6424
▁approchent	-6425
▁banderoles	-6426
▁clarinette	-6427
▁débarrasse	-6428
▁expériment	-6429
▁flamboyant	-6430
▁fourchette	-6431
▁friandises	-6432
▁hispanique	-6433
▁inférieure	-6434
▁installent	-6435
▁kickboxing	-6436
▁malheureux	-6437
▁parallèles	-6438
▁participer	-6439
▁poussettes	-6440
▁prélassant	-6441
▁rocailleux	-6442
▁similaires	-6443
▁sprinklers	-6444
▁structures	-6445
▁surdimensi	-6446
▁tyrolienne	-6447
▁université	-6448
▁violoniste	-6449
▁washington	-6450
▁éclabousse	-6451
▁adversaires	-6452
▁artistiques	-6453
▁assortiment	-6454
▁chevauchent	-6455
▁choisissant	-6456
▁contrebasse	-6457
▁discothèque	-6458
▁disponibles	-6459
▁fraîchement	-6460
▁guitaristes	-6461
▁intéressant	-6462
▁jaillissant	-6463
▁kitesurfeur	-6464
▁marionnette	-6465
▁microscopes	-6466
▁silhouettes	-6467
▁skateboards	-6468
▁surveillant	-6469
▁touristique	-6470
▁échantillon	-6471
▁déambulateur	-6472
▁encourageant	-6473
▁impatiemment	-6474
▁photographie	-6475
▁applaudissant	-6476
▁marathonienne	-6477
▁snowboardeurs	-6478
▁photographient	-6479
▁représentation	-6480
dd	-6481
ez	-6482
ii	-6483
no	-6484
ty	-6485
add	-6486
ame	-6487
ank	-6488
ars	-6489
aît	-6490
ber	-6491
bum	-6492
bym	-6493
der	-6494
dis	-6495
enc	-6496
gue	-6497
gum	-6498
mbo	-6499
met	-6500
méd	-6501
per	-6502
pit	-6503
pou	-6504
pro	-6505
rac	-6506
rit	-6507
tam	-6508
tap	-6509
tim	-6510
try	-6511
tée	-6512
uma	-6513
umo	-6514
umé	-6515
ung	-6516
uée	-6517
élé	-6518
▁ds	-6519
▁ha	-6520
▁hy	-6521
▁ny	-6522
▁ov	-6523
▁tw	-6524
achi	-6525
anas	-6526
apot	-6527
aqué	-6528
aute	-6529
bord	-6530
cake	-6531
cara	-6532
cent	-6533
dogs	-6534
enné	-6535
ergé	-6536
four	-6537
glac	-6538
hote	-6539
ican	-6540
icef	-6541
ider	-6542
igan	-6543
illi	-6544
ingt	-6545
jupe	-6546
lane	-6547
lein	-6548
lées	-6549
ness	-6550
olle	-6551
onte	-6552
orce	-6553
ourt	-6554
pong	-6555
rait	-6556
seau	-6557
thét	-6558
tile	-6559
tine	-6560
tone	-6561
uces	-6562
urée	-6563
vous	-6564
âché	-6565
ètre	-6566
émor	-6567
énév	-6568
ésil	-6569
▁ado	-6570
▁bab	-6571
▁bid	-6572
▁bis	-6573
▁bud	-6574
▁coq	-6575
▁cul	-6576
▁dan	-6577
▁dév	-6578
▁fas	-6579
▁fit	-6580
▁fre	-6581
▁fêt	-6582
▁gap	-6583
▁git	-6584
▁gou	-6585
▁hui	-6586
▁irr	-6587
▁jud	-6588
▁lak	-6589
▁las	-6590
▁lay	-6591
▁scr	-6592
▁spa	-6593
▁sph	-6594
▁str	-6595
▁toy	-6596
▁wel	-6597
amaha	-6598
anger	-6599
angle	-6600
brent	-6601
chena	-6602
chite	-6603
choir	-6604
culer	-6605
geron	-6606
hique	-6607
ilité	-6608
illet	-6609
ioles	-6610
ionne	-6611
jambe	-6612
mbrer	-6613
mêmes	-6614
oient	-6615
onnés	-6616
oston	-6617
ouver	-6618
pente	-6619
riole	-6620
rième	-6621
tones	-6622
uiles	-6623
untry	-6624
ustré	-6625
uzzle	-6626
venue	-6627
ycles	-6628
èrent	-6629
▁abat	-6630
▁accl	-6631
▁ados	-6632
▁ambu	-6633
▁ampl	-6634
▁bann	-6635
▁blue	-6636
▁bous	-6637
▁brum	-6638
▁brut	-6639
▁bugg	-6640
▁cafe	-6641
▁cale	-6642
▁ceux	-6643
▁chim	-6644
▁clos	-6645
▁clou	-6646
▁clés	-6647
▁cola	-6648
▁cook	-6649
▁cool	-6650
▁cord	-6651
▁cors	-6652
▁crue	-6653
▁cuve	-6654
▁doll	-6655
▁espè	-6656
▁fice	-6657
▁fine	-6658
▁flag	-6659
▁ford	-6660
▁gelé	-6661
▁glis	-6662
▁gren	-6663
▁guir	-6664
▁hirs	-6665
▁inse	-6666
▁ivre	-6667
▁jazz	-6668
▁lait	-6669
▁lama	-6670
▁lamb	-6671
▁lent	-6672
▁libr	-6673
▁mart	-6674
▁mend	-6675
▁mets	-6676
▁moue	-6677
▁mule	-6678
▁méda	-6679
▁nues	-6680
▁négl	-6681
▁pare	-6682
▁parf	-6683
▁phar	-6684
▁pick	-6685
▁poss	-6686
▁prie	-6687
▁punk	-6688
▁raff	-6689
▁remp	-6690
▁rend	-6691
▁réno	-6692
▁sabl	-6693
▁sexy	-6694
▁shop	-6695
▁show	-6696
▁slal	-6697
▁soin	-6698
▁solo	-6699
▁sumo	-6700
▁surp	-6701
▁tart	-6702
▁trie	-6703
▁télé	-6704
▁veut	-6705
▁vois	-6706
▁élan	-6707
▁élas	-6708
▁émis	-6709
▁étui	-6710
ainage	-6711
chiste	-6712
culent	-6713
ignets	-6714
isiers	-6715
odrome	-6716
onnées	-6717
ortent	-6718
oscope	-6719
ouille	-6720
oureux	-6721
ouriff	-6722
petits	-6723
rammes	-6724
ration	-6725
rement	-6726
stance	-6727
ueille	-6728
urgers	-6729
uterie	-6730
▁ajout	-6731
▁album	-6732
▁amour	-6733
▁anges	-6734
▁angle	-6735
▁appel	-6736
▁balad	-6737
▁bosse	-6738
▁bouts	-6739
▁boxer	-6740
▁bénév	-6741
▁calif	-6742
▁camar	-6743
▁carré	-6744
▁casse	-6745
▁catch	-6746
▁cirer	-6747
▁clous	-6748
▁conce	-6749
▁coude	-6750
▁coupé	-6751
▁crabe	-6752
▁crêpe	-6753
▁culti	-6754
▁cygne	-6755
▁dalle	-6756
▁deere	-6757
▁dunes	-6758
▁débat	-6759
▁exhib	-6760
▁faits	-6761
▁famil	-6762
▁fermé	-6763
▁figur	-6764
▁fixes	-6765
▁fière	-6766
▁fosse	-6767
▁galop	-6768
▁geish	-6769
▁gelée	-6770
▁green	-6771
▁henné	-6772
▁horlo	-6773
▁insol	-6774
▁kilts	-6775
▁minut	-6776
▁mixte	-6777
▁moque	-6778
▁morts	-6779
▁mouss	-6780
▁natte	-6781
▁notre	-6782
▁obèse	-6783
▁offre	-6784
▁olive	-6785
▁ongle	-6786
▁orage	-6787
▁ornée	-6788
▁osier	-6789
▁paper	-6790
▁passé	-6791
▁peine	-6792
▁pense	-6793
▁pilot	-6794
▁poids	-6795
▁poilu	-6796
▁ponce	-6797
▁puces	-6798
▁punch	-6799
▁relié	-6800
▁respe	-6801
▁réfug	-6802
▁saint	-6803
▁santé	-6804
▁sauts	-6805
▁skier	-6806
▁slide	-6807
▁sujet	-6808
▁sémin	-6809
▁tarte	-6810
▁taxis	-6811
▁tecke	-6812
▁tendu	-6813
▁tiare	-6814
▁tiges	-6815
▁tirés	-6816
▁touff	-6817
▁trait	-6818
▁tutus	-6819
▁vapor	-6820
▁vegas	-6821
▁venir	-6822
▁water	-6823
▁zébré	-6824
▁éclat	-6825
▁épice	-6826
▁éping	-6827
▁équip	-6828
aissent	-6829
aporama	-6830
chenaid	-6831
demment	-6832
ensiles	-6833
ettiste	-6834
illante	-6835
inaires	-6836
issante	-6837
isserie	-6838
onnière	-6839
rouille	-6840
taplane	-6841
ènement	-6842
érateur	-6843
▁agitée	-6844
▁amarré	-6845
▁ananas	-6846
▁antiqu	-6847
▁archet	-6848
▁assied	-6849
▁aérien	-6850
▁ballot	-6851
▁bandes	-6852
▁beauté	-6853
▁bijout	-6854
▁bloqué	-6855
▁bongos	-6856
▁boston	-6857
▁brille	-6858
▁bringé	-6859
▁brouss	-6860
▁brésil	-6861
▁carrés	-6862
▁chaton	-6863
▁cireur	-6864
▁collie	-6865
▁colère	-6866
▁compte	-6867
▁contrô	-6868
▁coutur	-6869
▁cuivre	-6870
▁design	-6871
▁diable	-6872
▁disent	-6873
▁déchaî	-6874
▁découv	-6875
▁dépose	-6876
▁enchaî	-6877
▁enclos	-6878
▁endomm	-6879
▁endort	-6880
▁enfonc	-6881
▁enlevé	-6882
▁expert	-6883
▁farine	-6884
▁fascin	-6885
▁faucon	-6886
▁fausse	-6887
▁fesses	-6888
▁former	-6889
▁formes	-6890
▁gamins	-6891
▁gravir	-6892
▁guidon	-6893
▁géants	-6894
▁jolies	-6895
▁joyeux	-6896
▁larges	-6897
▁latine	-6898
▁lesque	-6899
▁levées	-6900
▁légume	-6901
▁légère	-6902
▁majest	-6903
▁marcel	-6904
▁marqué	-6905
▁masqué	-6906
▁melons	-6907
▁mickey	-6908
▁mollet	-6909
▁mortes	-6910
▁multip	-6911
▁muselé	-6912
▁origin	-6913
▁pagaye	-6914
▁palais	-6915
▁parten	-6916
▁pinces	-6917
▁plâtre	-6918
▁poches	-6919
▁pompes	-6920
▁portée	-6921
▁positi	-6922
▁poussé	-6923
▁pouvez	-6924
▁poêles	-6925
▁puzzle	-6926
▁pédalo	-6927
▁questi	-6928
▁rayons	-6929
▁recher	-6930
▁retiré	-6931
▁rideau	-6932
▁rugbym	-6933
▁réfrig	-6934
▁répond	-6935
▁salade	-6936
▁saluer	-6937
▁saupou	-6938
▁sciant	-6939
▁serrés	-6940
▁sirène	-6941
▁suivre	-6942
▁textos	-6943
▁tomate	-6944
▁triant	-6945
▁tribal	-6946
▁tuiles	-6947
▁tétine	-6948
▁unicef	-6949
▁vendus	-6950
▁vision	-6951
▁voient	-6952
▁yamaha	-6953
▁écrase	-6954
▁émerve	-6955
▁étince	-6956
aculaire	-6957
aissance	-6958
antesque	-6959
apotable	-6960
avention	-6961
isseries	-6962
▁aboyant	-6963
▁adresse	-6964
▁afrique	-6965
▁ajuster	-6966
▁allumée	-6967
▁america	-6968
▁angeles	-6969
▁archite	-6970
▁arrange	-6971
▁assurer	-6972
▁atterri	-6973
▁balcons	-6974
▁bordant	-6975
▁boutons	-6976
▁boxeurs	-6977
▁cagoule	-6978
▁central	-6979
▁chacune	-6980
▁charbon	-6981
▁chewing	-6982
▁chèvres	-6983
▁citrons	-6984
▁clairse	-6985
▁cockpit	-6986
▁commerç	-6987
▁congrès	-6988
▁contemp	-6989
▁contrac	-6990
▁cornets	-6991
▁country	-6992
▁crochet	-6993
▁crosses	-6994
▁culture	-6995
▁cuvette	-6996
▁dauphin	-6997
▁dessiné	-6998
▁diplômé	-6999
▁dressée	-7000
▁déballe	-7001
▁découpé	-7002
▁détient	-7003
▁enfonce	-7004
▁enroulé	-7005
▁essence	-7006
▁ficelle	-7007
▁fitness	-7008
▁fouille	-7009
▁golfeur	-7010
▁gueules	-7011
▁hotdogs	-7012
▁humaine	-7013
▁hurlant	-7014
▁immobil	-7015
▁instant	-7016
▁invités	-7017
▁jaillit	-7018
▁jongler	-7019
▁lunette	-7020
▁lutteur	-7021
▁lycéens	-7022
▁léchant	-7023
▁magique	-7024
▁marelle	-7025
▁marrons	-7026
▁mascara	-7027
▁matinée	-7028
▁montrer	-7029
▁mordant	-7030
▁mouette	-7031
▁oeuvres	-7032
▁patriot	-7033
▁peintes	-7034
▁penchés	-7035
▁percute	-7036
▁perçant	-7037
▁peuvent	-7038
▁pieuvre	-7039
▁pinçant	-7040
▁pirates	-7041
▁placées	-7042
▁pleines	-7043
▁portail	-7044
▁porteur	-7045
▁propres	-7046
▁publics	-7047
▁période	-7048
▁rameurs	-7049
▁ratisse	-7050
▁reflets	-7051
▁restent	-7052
▁rondins	-7053
▁récolte	-7054
▁seniors	-7055
▁servent	-7056
▁sombrer	-7057
▁sommets	-7058
▁souterr	-7059
▁spécial	-7060
▁statues	-7061
▁synthét	-7062
▁tondant	-7063
▁tricote	-7064
▁tronçon	-7065
▁trouble	-7066
▁tunique	-7067
▁twister	-7068
▁verglac	-7069
▁énormes	-7070
▁accélère	-7071
▁agréable	-7072
▁amoureux	-7073
▁applique	-7074
▁appuyées	-7075
▁arbitres	-7076
▁arborant	-7077
▁baguette	-7078
▁bassiste	-7079
▁brochure	-7080
▁canadien	-7081
▁carriole	-7082
▁chinoise	-7083
▁commémor	-7084
▁couchant	-7085
▁cravates	-7086
▁croisent	-7087
▁disposés	-7088
▁divertir	-7089
▁divertit	-7090
▁dizaines	-7091
▁domicile	-7092
▁drainage	-7093
▁décoller	-7094
▁embrassé	-7095
▁endormis	-7096
▁entrelac	-7097
▁européen	-7098
▁exerçant	-7099
▁explique	-7100
▁exposant	-7101
▁fillette	-7102
▁forgeron	-7103
▁français	-7104
▁frontale	-7105
▁féminine	-7106
▁glacière	-7107
▁hippique	-7108
▁illuminé	-7109
▁inachevé	-7110
▁installé	-7111
▁interdit	-7112
▁internet	-7113
▁intitulé	-7114
▁joyeuses	-7115
▁laissant	-7116
▁lambeaux	-7117
▁lanterne	-7118
▁moquette	-7119
▁nouveaux	-7120
▁occasion	-7121
▁occupées	-7122
▁ombragée	-7123
▁opposées	-7124
▁patiente	-7125
▁penchent	-7126
▁penchées	-7127
▁percussi	-7128
▁percuter	-7129
▁physique	-7130
▁pilotant	-7131
▁piétonne	-7132
▁plongent	-7133
▁primaire	-7134
▁rapporte	-7135
▁rebondir	-7136
▁recevoir	-7137
▁relaxant	-7138
▁retrouss	-7139
▁réaliser	-7140
▁récoltes	-7141
▁sauvages	-7142
▁smokings	-7143
▁tournant	-7144
▁traînent	-7145
▁treillis	-7146
▁triangle	-7147
▁troupeau	-7148
▁trébuche	-7149
▁voiliers	-7150
▁voyagent	-7151
▁ébouriff	-7152
▁échelles	-7153
▁écolière	-7154
▁élégante	-7155
▁étagères	-7156
▁étranges	-7157
▁accrochée	-7158
▁agenouill	-7159
▁apparence	-7160
▁ascenseur	-7161
▁attachent	-7162
▁bannières	-7163
▁bavardent	-7164
▁bienvenue	-7165
▁boucherie	-7166
▁béquilles	-7167
▁caméraman	-7168
▁caressent	-7169
▁carrefour	-7170
▁cerisiers	-7171
▁charpente	-7172
▁coiffeuse	-7173
▁commander	-7174
▁commandes	-7175
▁compagnon	-7176
▁couronnes	-7177
▁croisière	-7178
▁célèbrent	-7179
▁célébrant	-7180
▁demandant	-7181
▁diaporama	-7182
▁difficile	-7183
▁différent	-7184
▁disputant	-7185
▁décontrac	-7186
▁déjeunent	-7187
▁déployées	-7188
▁emballage	-7189
▁encourage	-7190
▁enfonçant	-7191
▁explosion	-7192
▁extension	-7193
▁gesticule	-7194
▁glissière	-7195
▁identique	-7196
▁librairie	-7197
▁marcheurs	-7198
▁menuisier	-7199
▁musicales	-7200
▁musulmans	-7201
▁paintball	-7202
▁palissade	-7203
▁patineuse	-7204
▁pelletant	-7205
▁perruques	-7206
▁poubelles	-7207
▁quatrième	-7208
▁rambardes	-7209
▁réfléchit	-7210
▁savourant	-7211
▁sculptant	-7212
▁situation	-7213
▁soulèvent	-7214
▁squelette	-7215
▁substance	-7216
▁séminaire	-7217
▁technolog	-7218
▁terminant	-7219
▁tournoyer	-7220
▁transform	-7221
▁verticale	-7222
▁voyageant	-7223
▁voyageurs	-7224
▁accrochent	-7225
▁artificiel	-7226
▁autochtone	-7227
▁bondissant	-7228
▁bousculent	-7229
▁bétonnière	-7230
▁caricature	-7231
▁commerçant	-7232
▁concurrent	-7233
▁conduisent	-7234
▁deltaplane	-7235
▁déambulant	-7236
▁décorative	-7237
▁défenseurs	-7238
▁ensoleillé	-7239
▁enveloppée	-7240
▁hamburgers	-7241
▁handicapée	-7242
▁hippodrome	-7243
▁japonaises	-7244
▁kayakistes	-7245
▁kitchenaid	-7246
▁luxuriante	-7247
▁muselières	-7248
▁parachutes	-7249
▁patrouille	-7250
▁pellettent	-7251
▁piétonnier	-7252
▁postérieur	-7253
▁pourchasse	-7254
▁prestation	-7255
▁projection	-7256
▁saisissant	-7257
▁sauveteurs	-7258
▁stationnée	-7259
▁tourniquet	-7260
▁ustensiles	-7261
▁vieillards	-7262
▁villageois	-7263
▁échauffant	-7264
▁élévatrice	-7265
▁éparpillés	-7266
▁étincelles	-7267
▁accessoires	-7268
▁accompagnée	-7269
▁agriculteur	-7270
▁apparemment	-7271
▁appartenant	-7272
▁autochtones	-7273
▁britannique	-7274
▁charcuterie	-7275
▁choisissent	-7276
▁combattants	-7277
▁concurrents	-7278
▁décapotable	-7279
▁gigantesque	-7280
▁information	-7281
▁montagneuse	-7282
▁occupations	-7283
▁panoramique	-7284
▁particulier	-7285
▁protections	-7286
▁pâtisseries	-7287
▁randonneuse	-7288
▁renaissance	-7289
▁secouristes	-7290
▁transparent	-7291
▁télécommand	-7292
▁électricien	-7293
▁acrobatiques	-7294
▁actuellement	-7295
▁appartements	-7296
▁atterrissage	-7297
▁automatiques	-7298
▁chirurgicale	-7299
▁complètement	-7300
▁inhabituelle	-7301
▁pneumatiques	-7302
▁propriétaire	-7303
▁protestation	-7304
▁synthétiseur	-7305
▁trompettiste	-7306
▁trottinettes	-7307
▁contravention	-7308
▁photographiée	-7309
▁scientifiques	-7310
▁spectaculaire	-7311
▁enregistrement	-7312
▁impressionnant	-7313
▁traditionnelles	-7314
aç	-7315
cc	-7316
cé	-7317
di	-7318
ed	-7319
fo	-7320
hd	-7321
ry	-7322
va	-7323
xe	-7324
yr	-7325
çu	-7326
any	-7327
aok	-7328
apè	-7329
ark	-7330
aut	-7331
bos	-7332
bue	-7333
bur	-7334
béb	-7335
cal	-7336
cod	-7337
com	-7338
das	-7339
dic	-7340
enl	-7341
etn	-7342
gap	-7343
gar	-7344
hau	-7345
hee	-7346
ias	-7347
iki	-7348
jab	-7349
jou	-7350
lem	-7351
lié	-7352
mas	-7353
noc	-7354
nés	-7355
oie	-7356
ows	-7357
ppe	-7358
rét	-7359
uck	-7360
uve	-7361
vit	-7362
vor	-7363
ède	-7364
éné	-7365
▁bé	-7366
▁gy	-7367
▁rè	-7368
▁wc	-7369
agle	-7370
ague	-7371
aoké	-7372
bras	-7373
bébé	-7374
chos	-7375
dent	-7376
elet	-7377
endo	-7378
erre	-7379
erry	-7380
esol	-7381
etch	-7382
ffee	-7383
iger	-7384
ipes	-7385
iron	-7386
isés	-7387
iées	-7388
lème	-7389
mant	-7390
mère	-7391
oiss	-7392
omot	-7393
omét	-7394
orté	-7395
oura	-7396
rade	-7397
rain	-7398
reté	-7399
ki	-7400
ave	-7401
igh	-7402
inj	-7403
nie	-7404
tex	-7405
uss	-7406
vés	-7407
▁né	-7408
abes	-7409
agés	-7410
anon	-7411
bote	-7412
ctes	-7413
ires	-7414
mmer	-7415
pose	-7416
rick	-7417
rovi	-7418
tige	-7419
tire	-7420
téth	-7421
uels	-7422
ueux	-7423
vées	-7424
çonn	-7425
éran	-7426
▁abd	-7427
▁abs	-7428
▁ait	-7429
▁alg	-7430
▁ard	-7431
▁aur	-7432
▁blé	-7433
▁bmw	-7434
▁clé	-7435
▁day	-7436
▁den	-7437
▁dix	-7438
▁fac	-7439
▁gor	-7440
▁hér	-7441
▁ign	-7442
▁jam	-7443
▁joe	-7444
▁jon	-7445
▁ken	-7446
▁lei	-7447
▁lim	-7448
▁léz	-7449
▁mug	-7450
▁mém	-7451
▁mén	-7452
▁nid	-7453
▁noe	-7454
▁nue	-7455
▁néc	-7456
▁pon	-7457
▁rab	-7458
▁rai	-7459
▁rod	-7460
▁rot	-7461
▁sat	-7462
▁sch	-7463
▁sno	-7464
▁séd	-7465
▁tra	-7466
▁tul	-7467
▁tém	-7468
▁usa	-7469
▁vap	-7470
▁ven	-7471
▁vig	-7472
▁wii	-7473
▁épi	-7474
▁épr	-7475
abeau	-7476
almat	-7477
ampoo	-7478
apèze	-7479
atown	-7480
buste	-7481
cakes	-7482
chons	-7483
cross	-7484
ctang	-7485
enlit	-7486
enses	-7487
eries	-7488
etant	-7489
eting	-7490
etnam	-7491
franc	-7492
gères	-7493
icots	-7494
iesse	-7495
inant	-7496
inium	-7497
marin	-7498
ormée	-7499
gi	-7500
aff	-7501
alé	-7502
ith	-7503
lot	-7504
mac	-7505
ome	-7506
utt	-7507
▁ox	-7508
ayer	-7509
cles	-7510
iaux	-7511
itut	-7512
nées	-7513
pper	-7514
tang	-7515
time	-7516
▁bec	-7517
▁boa	-7518
▁exe	-7519
▁gay	-7520
▁mos	-7521
▁rig	-7522
▁vik	-7523
arech	-7524
ators	-7525
erves	-7526
eurre	-7527
fille	-7528
issés	-7529
osses	-7530
ourir	-7531
oyens	-7532
point	-7533
ppant	-7534
rible	-7535
rigué	-7536
roite	-7537
ronte	-7538
siers	-7539
sters	-7540
stème	-7541
ulent	-7542
ultan	-7543
ulélé	-7544
umeau	-7545
unker	-7546
voyer	-7547
ètres	-7548
▁abri	-7549
▁alum	-7550
▁amph	-7551
▁aube	-7552
▁bacs	-7553
▁bowl	-7554
▁brad	-7555
▁burq	-7556
▁cais	-7557
▁capu	-7558
▁chuc	-7559
▁cier	-7560
▁coqu	-7561
▁diab	-7562
▁dieu	-7563
▁dojo	-7564
▁dram	-7565
▁dure	-7566
▁débl	-7567
▁décl	-7568
▁démê	-7569
▁exce	-7570
▁farm	-7571
▁fire	-7572
▁fish	-7573
▁flex	-7574
▁flic	-7575
▁floc	-7576
▁féro	-7577
▁gamb	-7578
▁gauf	-7579
▁gout	-7580
▁grap	-7581
▁hach	-7582
▁half	-7583
▁hero	-7584
▁holl	-7585
▁hydr	-7586
▁juge	-7587
▁jump	-7588
▁lame	-7589
▁lego	-7590
▁lois	-7591
▁love	-7592
▁luxe	-7593
▁mall	-7594
▁mare	-7595
▁mich	-7596
▁mosa	-7597
▁mâle	-7598
▁ninj	-7599
ifs	-7600
ual	-7601
una	-7602
▁ai	-7603
▁em	-7604
book	-7605
gren	-7606
ibré	-7607
rape	-7608
rets	-7609
ster	-7610
uide	-7611
uise	-7612
voix	-7613
▁jim	-7614
▁tim	-7615
▁top	-7616
▁vér	-7617
ament	-7618
champ	-7619
iness	-7620
ombre	-7621
oncho	-7622
èches	-7623
▁alli	-7624
▁bouv	-7625
▁bric	-7626
▁cari	-7627
▁cort	-7628
▁crus	-7629
▁isol	-7630
▁nint	-7631
▁ohio	-7632
▁padd	-7633
▁patr	-7634
▁piss	-7635
▁play	-7636
▁pole	-7637
▁pouv	-7638
▁pron	-7639
▁pros	-7640
▁puis	-7641
▁puma	-7642
▁putt	-7643
▁pèse	-7644
▁quas	-7645
▁race	-7646
▁rejo	-7647
▁sari	-7648
▁secs	-7649
▁sing	-7650
▁souc	-7651
▁spir	-7652
▁stro	-7653
▁stup	-7654
▁suis	-7655
▁séqu	-7656
▁tard	-7657
▁test	-7658
▁trio	-7659
▁velu	-7660
▁voix	-7661
▁vote	-7662
▁walk	-7663
▁écou	-7664
▁éplu	-7665
▁évac	-7666
ampons	-7667
boscop	-7668
chages	-7669
codile	-7670
ctique	-7671
ercles	-7672
iences	-7673
ieuses	-7674
ignote	-7675
inions	-7676
iquier	-7677
itures	-7678
landes	-7679
mboard	-7680
neiger	-7681
oneige	-7682
onnent	-7683
ontant	-7684
oraire	-7685
orangé	-7686
oupier	-7687
ourdes	-7688
ousine	-7689
ouvant	-7690
pectus	-7691
thanne	-7692
uvrant	-7693
volley	-7694
ésente	-7695
▁abond	-7696
▁accep	-7697
▁ampli	-7698
▁arbus	-7699
▁arché	-7700
▁armés	-7701
▁aubes	-7702
▁audio	-7703
▁avert	-7704
▁bases	-7705
▁bidon	-7706
▁bongo	-7707
▁botte	-7708
▁boudd	-7709
▁broad	-7710
▁buggy	-7711
▁cages	-7712
▁caill	-7713
▁camer	-7714
▁camés	-7715
▁capes	-7716
▁cause	-7717
▁colon	-7718
▁coney	-7719
▁conse	-7720
▁conçu	-7721
▁corbe	-7722
▁corre	-7723
▁crier	-7724
▁crocs	-7725
▁divan	-7726
▁dribb	-7727
▁dépri	-7728
▁déser	-7729
▁empre	-7730
▁enrou	-7731
▁espad	-7732
▁favor	-7733
▁flous	-7734
▁flâne	-7735
▁folle	-7736
▁force	-7737
▁formé	-7738
▁forte	-7739
▁franc	-7740
▁frite	-7741
▁fréné	-7742
▁gosse	-7743
▁goudr	-7744
▁grave	-7745
▁griff	-7746
▁humor	-7747
▁husky	-7748
▁index	-7749
▁joker	-7750
▁kitty	-7751
▁latex	-7752
▁lente	-7753
▁loint	-7754
▁lâché	-7755
▁léger	-7756
▁major	-7757
▁manie	-7758
▁marie	-7759
▁menus	-7760
▁meute	-7761
▁mouse	-7762
▁mères	-7763
▁mètre	-7764
▁mégap	-7765
▁ollie	-7766
▁ondul	-7767
▁orgue	-7768
▁pages	-7769
▁pains	-7770
▁panda	-7771
▁parka	-7772
▁patie	-7773
▁pavés	-7774
▁phare	-7775
▁poker	-7776
▁pompe	-7777
▁porcs	-7778
▁pélic	-7779
▁quais	-7780
▁rames	-7781
▁rangs	-7782
▁roulé	-7783
▁règle	-7784
▁sauce	-7785
▁sauna	-7786
▁scint	-7787
▁scout	-7788
▁seins	-7789
▁sembl	-7790
▁seuls	-7791
▁sinis	-7792
▁sinue	-7793
▁situe	-7794
▁sodas	-7795
▁space	-7796
▁store	-7797
▁story	-7798
▁stéth	-7799
▁surch	-7800
▁sécur	-7801
▁tabac	-7802
▁tenus	-7803
▁toast	-7804
▁trucs	-7805
▁vingt	-7806
▁éques	-7807
▁étals	-7808
actères	-7809
adolesc	-7810
anneuse	-7811
hauteur	-7812
intemps	-7813
itative	-7814
namique	-7815
onnante	-7816
onnelle	-7817
onniers	-7818
onstitu	-7819
ournant	-7820
uisante	-7821
visions	-7822
▁affair	-7823
▁algues	-7824
▁allumé	-7825
▁angels	-7826
▁armure	-7827
▁assais	-7828
▁assoit	-7829
▁assure	-7830
▁astron	-7831
▁attabl	-7832
▁attire	-7833
▁auquel	-7834
▁avions	-7835
▁aviron	-7836
▁baille	-7837
▁balaye	-7838
▁barbie	-7839
▁barman	-7840
▁barric	-7841
▁battue	-7842
▁beagle	-7843
▁berlin	-7844
▁beurre	-7845
▁bitume	-7846
▁border	-7847
▁brasse	-7848
▁bunker	-7849
▁bâches	-7850
▁bérets	-7851
▁cacher	-7852
▁cadres	-7853
▁canine	-7854
▁carnet	-7855
▁cierge	-7856
▁cirant	-7857
▁cirque	-7858
▁cockta	-7859
▁colley	-7860
▁consul	-7861
▁croise	-7862
▁cruche	-7863
▁crânes	-7864
▁crêpes	-7865
▁cygnes	-7866
▁dalmat	-7867
▁danger	-7868
▁dindes	-7869
▁dirait	-7870
▁direct	-7871
▁drapée	-7872
▁drible	-7873
▁défile	-7874
▁démène	-7875
▁dérape	-7876
▁dînent	-7877
▁effets	-7878
▁empile	-7879
▁envole	-7880
▁espèce	-7881
▁examen	-7882
▁faites	-7883
▁fermée	-7884
▁flamme	-7885
▁fourre	-7886
▁fraise	-7887
▁frisée	-7888
▁galope	-7889
▁garden	-7890
▁gardes	-7891
▁gouver	-7892
▁grains	-7893
▁géomét	-7894
▁hangar	-7895
▁huttes	-7896
▁impéri	-7897
▁inspir	-7898
▁intégr	-7899
▁island	-7900
▁jonché	-7901
▁kimono	-7902
▁lakers	-7903
▁lancée	-7904
▁lancés	-7905
▁laveur	-7906
▁liesse	-7907
▁locaux	-7908
▁louche	-7909
▁manque	-7910
▁marais	-7911
▁market	-7912
▁matéri	-7913
▁mixeur	-7914
▁moines	-7915
▁monite	-7916
▁mouche	-7917
▁muscul	-7918
▁mènent	-7919
▁mètres	-7920
▁nouvel	-7921
▁nécess	-7922
▁occupé	-7923
▁oeuvre	-7924
▁orangé	-7925
▁oxford	-7926
▁parent	-7927
▁peigne	-7928
▁pelage	-7929
▁percer	-7930
▁perman	-7931
▁permet	-7932
▁plates	-7933
▁pleins	-7934
▁poings	-7935
▁pointu	-7936
▁poncho	-7937
▁poster	-7938
▁profil	-7939
▁précip	-7940
▁pâques	-7941
▁raides	-7942
▁recule	-7943
▁recycl	-7944
▁rendre	-7945
▁rentre	-7946
▁replié	-7947
▁râteau	-7948
▁rédige	-7949
▁réduit	-7950
▁saisir	-7951
▁sangle	-7952
▁saumon	-7953
▁second	-7954
▁serrer	-7955
▁	-7956
e	-7957
n	-7958
u	-7959
s	-7960
a	-7961
t	-7962
r	-7963
o	-7964
i	-7965
l	-7966
d	-7967
m	-7968
p	-7969
c	-7970
h	-7971
.	-7972
b	-7973
v	-7974
g	-7975
f	-7976
é	-7977
;	-7978
&	-7979
q	-7980
j	-7981
x	-7982
à	-7983
,	-7984
è	-7985
-	-7986
ê	-7987
y	-7988
ç	-7989
k	-7990
â	-7991
ô	-7992
w	-7993
z	-7994
î	-7995
