<pad>	0
<s>	0
</s>	0
<unk>	0
in	-0
en	-1
ein	-2
▁ein	-3
er	-4
▁s	-5
ch	-6
▁.	-7
▁m	-8
au	-9
▁eine	-10
an	-11
un	-12
▁d	-13
ei	-14
▁b	-15
▁f	-16
▁h	-17
ge	-18
it	-19
▁einem	-20
▁in	-21
ie	-22
und	-23
▁au	-24
▁k	-25
te	-26
ar	-27
▁mit	-28
▁auf	-29
▁,	-30
▁und	-31
▁w	-32
▁z	-33
ann	-34
▁v	-35
▁mann	-36
sch	-37
▁sch	-38
on	-39
rau	-40
hr	-41
st	-42
▁ge	-43
▁einer	-44
▁g	-45
lt	-46
▁r	-47
em	-48
▁i	-49
▁p	-50
▁l	-51
tr	-52
as	-53
ll	-54
or	-55
▁frau	-56
ten	-57
ck	-58
▁der	-59
▁an	-60
▁sp	-61
▁j	-62
ter	-63
gen	-64
ich	-65
wei	-66
der	-67
es	-68
▁die	-69
▁mä	-70
▁gr	-71
▁zwei	-72
▁kl	-73
de	-74
am	-75
▁einen	-76
ht	-77
▁zu	-78
ben	-79
gt	-80
el	-81
▁n	-82
▁jun	-83
and	-84
chen	-85
▁t	-86
▁bl	-87
▁im	-88
▁spie	-89
▁ste	-90
itz	-91
ers	-92
ber	-93
hen	-94
▁vor	-95
ach	-96
▁sitz	-97
et	-98
ier	-99
ft	-100
▁str	-101
ot	-102
um	-103
▁schw	-104
all	-105
ner	-106
ßen	-107
▁klein	-108
rei	-109
at	-110
▁tr	-111
nen	-112
▁von	-113
▁sich	-114
ur	-115
ähr	-116
▁junge	-117
schen	-118
▁st	-119
ung	-120
▁ro	-121
dchen	-122
▁dem	-123
▁mädchen	-124
den	-125
pp	-126
▁wei	-127
ält	-128
▁hund	-129
eu	-130
▁kin	-131
arz	-132
ße	-133
▁män	-134
ad	-135
erson	-136
▁person	-137
ger	-138
sen	-139
▁schwarz	-140
▁männer	-141
ahr	-142
▁steht	-143
bei	-144
▁stra	-145
▁o	-146
ir	-147
al	-148
ppe	-149
▁blau	-150
▁den	-151
▁ho	-152
ut	-153
▁sein	-154
▁be	-155
▁sitzt	-156
▁hin	-157
über	-158
▁spiel	-159
isch	-160
fen	-161
ne	-162
ass	-163
men	-164
end	-165
▁bei	-166
▁men	-167
uppe	-168
▁über	-169
ik	-170
äu	-171
▁straße	-172
▁währ	-173
▁während	-174
unter	-175
▁spr	-176
än	-177
▁aus	-178
il	-179
▁menschen	-180
▁gruppe	-181
se	-182
▁ihr	-183
▁spielt	-184
sp	-185
▁hält	-186
emd	-187
ball	-188
▁das	-189
tet	-190
kl	-191
alt	-192
cke	-193
▁um	-194
eben	-195
▁hemd	-196
iel	-197
▁personen	-198
ür	-199
ent	-200
▁ver	-201
▁ar	-202
acht	-203
▁fahr	-204
▁drei	-205
eid	-206
ang	-207
ehr	-208
be	-209
▁ander	-210
▁gel	-211
aar	-212
▁wass	-213
eil	-214
▁eines	-215
pf	-216
▁neben	-217
▁am	-218
ingt	-219
ri	-220
lle	-221
▁gro	-222
▁kinder	-223
urch	-224
▁frauen	-225
▁stehen	-226
▁sitzen	-227
▁wasser	-228
▁hinter	-229
mm	-230
▁blauen	-231
▁durch	-232
ab	-233
ol	-234
▁kind	-235
rad	-236
▁ist	-237
gr	-238
▁schau	-239
ägt	-240
▁weißen	-241
▁roten	-242
▁ko	-243
▁spielen	-244
af	-245
▁ent	-246
ro	-247
hn	-248
arben	-249
re	-250
lich	-251
ährt	-252
▁hand	-253
fer	-254
▁geht	-255
▁leu	-256
▁unter	-257
ere	-258
▁brau	-259
la	-260
▁grü	-261
▁trägt	-262
bo	-263
icht	-264
tel	-265
▁fährt	-266
he	-267
iert	-268
▁er	-269
kt	-270
eg	-271
▁bo	-272
spiel	-273
gel	-274
cken	-275
▁her	-276
▁ober	-277
▁kleid	-278
▁kleines	-279
▁weiß	-280
imm	-281
ckt	-282
us	-283
▁macht	-284
eide	-285
▁ren	-286
▁arbei	-287
▁entl	-288
os	-289
anz	-290
▁re	-291
▁entlang	-292
▁springt	-293
▁kleiner	-294
▁ber	-295
▁schwarzen	-296
igen	-297
agen	-298
▁sie	-299
▁geb	-300
äch	-301
teil	-302
▁mehr	-303
uch	-304
ind	-305
▁fel	-306
ange	-307
ern	-308
elt	-309
▁leute	-310
qu	-311
▁fl	-312
▁gehen	-313
ige	-314
▁frei	-315
uß	-316
▁or	-317
is	-318
▁es	-319
▁schl	-320
kleide	-321
fahr	-322
▁lie	-323
ischen	-324
▁ja	-325
▁sk	-326
▁et	-327
▁fahrrad	-328
auf	-329
▁schne	-330
▁ält	-331
eln	-332
hl	-333
sh	-334
▁oberteil	-335
▁etw	-336
alten	-337
▁wir	-338
▁c	-339
▁fuß	-340
▁bau	-341
irt	-342
▁etwas	-343
ug	-344
▁mehrere	-345
▁ball	-346
eit	-347
▁seinem	-348
farben	-349
ig	-350
▁großen	-351
uft	-352
▁läu	-353
▁se	-354
ell	-355
ieren	-356
▁schnee	-357
▁vers	-358
grund	-359
rille	-360
▁gebäu	-361
▁jungen	-362
▁gekleide	-363
▁par	-364
zeu	-365
▁kam	-366
ander	-367
bt	-368
▁hoch	-369
▁son	-370
sam	-371
spieler	-372
▁fü	-373
ild	-374
ort	-375
▁luft	-376
boar	-377
▁nach	-378
▁grünen	-379
▁da	-380
era	-381
▁läch	-382
▁strand	-383
ster	-384
▁fot	-385
weg	-386
▁läuft	-387
▁sind	-388
ate	-389
▁bas	-390
bl	-391
zen	-392
▁für	-393
▁vo	-394
ze	-395
▁hintergrund	-396
▁freien	-397
shirt	-398
ör	-399
▁hat	-400
▁jacke	-401
▁kopf	-402
rü	-403
▁&	-404
aufen	-405
▁anderen	-406
▁kleidung	-407
▁schaut	-408
▁nä	-409
▁junger	-410
▁as	-411
▁renn	-412
zeug	-413
▁vorbei	-414
▁asi	-415
▁bli	-416
▁gras	-417
tem	-418
äft	-419
ett	-420
▁tisch	-421
ag	-422
to	-423
▁haar	-424
▁vier	-425
ank	-426
itar	-427
schau	-428
▁foto	-429
▁essen	-430
▁geh	-431
▁orange	-432
ack	-433
quot	-434
achen	-435
lat	-436
sten	-437
fahrer	-438
▁andere	-439
aus	-440
menge	-441
angen	-442
▁gelben	-443
▁rei	-444
ap	-445
stü	-446
▁le	-447
fon	-448
sche	-449
▁war	-450
▁wie	-451
▁gebäude	-452
▁ih	-453
▁kleine	-454
hne	-455
board	-456
umen	-457
▁hut	-458
▁ab	-459
▁bü	-460
▁hän	-461
▁un	-462
▁al	-463
▁wird	-464
eich	-465
▁fußball	-466
▁beim	-467
üt	-468
▁nähe	-469
ing	-470
▁gegen	-471
amm	-472
▁blon	-473
▁kleinen	-474
▁stad	-475
▁gesch	-476
▁kamera	-477
str	-478
▁park	-479
▁hunde	-480
▁älter	-481
iger	-482
▁schwarzer	-483
▁menschenmenge	-484
▁asiat	-485
ahn	-486
▁ros	-487
▁paar	-488
ans	-489
utz	-490
ow	-491
ische	-492
farbenen	-493
otor	-494
▁boden	-495
etter	-496
▁gitar	-497
det	-498
ste	-499
är	-500
eig	-501
ert	-502
▁kü	-503
▁schwimm	-504
sst	-505
▁bef	-506
▁skate	-507
▁sonnen	-508
op	-509
▁feld	-510
ink	-511
ion	-512
▁rennt	-513
▁zusam	-514
▁zuschau	-515
ver	-516
▁grau	-517
▁ihre	-518
▁stadt	-519
▁straßen	-520
▁je	-521
ucht	-522
▁dam	-523
ler	-524
latz	-525
fl	-526
dern	-527
▁dun	-528
▁pu	-529
▁pos	-530
▁gl	-531
▁tanz	-532
▁br	-533
▁viel	-534
▁des	-535
▁ihren	-536
▁te	-537
▁zusammen	-538
▁unterh	-539
ßer	-540
▁sand	-541
einander	-542
▁hü	-543
kleid	-544
che	-545
tes	-546
steig	-547
▁herum	-548
ho	-549
mp	-550
▁rot	-551
▁pfer	-552
▁ei	-553
▁gitarre	-554
▁a	-555
ingen	-556
▁motor	-557
kel	-558
▁wer	-559
▁älterer	-560
des	-561
▁drau	-562
▁schu	-563
geb	-564
▁so	-565
▁schn	-566
▁fahren	-567
▁draußen	-568
elm	-569
▁jeans	-570
fe	-571
▁ges	-572
lz	-573
art	-574
eigt	-575
▁bür	-576
▁bühne	-577
▁rennen	-578
kleidung	-579
▁sh	-580
ss	-581
▁ru	-582
▁befin	-583
▁gew	-584
▁brille	-585
ob	-586
▁gehweg	-587
▁skateboard	-588
deck	-589
ller	-590
▁zie	-591
▁base	-592
▁hell	-593
▁seine	-594
wach	-595
▁gest	-596
▁sehen	-597
aby	-598
wagen	-599
ade	-600
▁rau	-601
▁kletter	-602
▁hinunter	-603
ff	-604
ikro	-605
achtet	-606
wachsen	-607
cht	-608
ischer	-609
llen	-610
▁mikro	-611
▁stu	-612
▁baby	-613
▁dabei	-614
▁lächeln	-615
ock	-616
▁kur	-617
▁blickt	-618
▁seinen	-619
▁kar	-620
▁weißer	-621
▁laufen	-622
▁mar	-623
brille	-624
iz	-625
▁man	-626
▁baum	-627
▁me	-628
hrt	-629
▁holz	-630
▁braunen	-631
▁verk	-632
haar	-633
▁liegt	-634
aft	-635
▁dar	-636
▁versucht	-637
▁arbeitet	-638
llt	-639
▁bank	-640
▁tragen	-641
zug	-642
▁als	-643
nis	-644
▁wand	-645
eiten	-646
lichen	-647
▁betr	-648
lag	-649
▁tre	-650
▁mus	-651
▁schie	-652
ant	-653
reif	-654
arbei	-655
▁dame	-656
▁baseball	-657
bahn	-658
▁bel	-659
▁grün	-660
▁große	-661
▁machen	-662
per	-663
▁lächelt	-664
▁schauen	-665
ffen	-666
▁mau	-667
ko	-668
irm	-669
▁alt	-670
▁brauner	-671
ket	-672
▁versch	-673
for	-674
▁bürger	-675
eren	-676
▁ihrem	-677
ick	-678
▁wal	-679
ren	-680
ikot	-681
▁stein	-682
▁gestreif	-683
▁ältere	-684
▁arbeiten	-685
ütze	-686
▁orangefarbenen	-687
▁ihm	-688
unst	-689
assen	-690
▁braun	-691
▁junges	-692
▁bürgersteig	-693
ke	-694
bedeck	-695
▁gesicht	-696
▁motorrad	-697
▁erwachsen	-698
▁rad	-699
le	-700
▁weg	-701
▁bild	-702
▁hose	-703
ßt	-704
▁kr	-705
▁we	-706
▁zeigt	-707
▁u	-708
ikan	-709
▁sieht	-710
▁gem	-711
eitet	-712
mer	-713
▁spricht	-714
▁unterhalten	-715
uss	-716
schaft	-717
▁liest	-718
tele	-719
sehen	-720
▁auto	-721
▁boot	-722
afarben	-723
telefon	-724
fit	-725
stau	-726
▁wald	-727
fü	-728
▁ten	-729
▁halten	-730
▁trikot	-731
we	-732
ine	-733
▁gelb	-734
▁musik	-735
▁haaren	-736
gl	-737
itt	-738
▁kunst	-739
ät	-740
amp	-741
platz	-742
▁hosen	-743
▁fe	-744
rä	-745
▁rosa	-746
schu	-747
▁sur	-748
▁meer	-749
ecke	-750
▁tag	-751
▁helm	-752
▁viele	-753
par	-754
▁zum	-755
staur	-756
▁pferd	-757
▁tennis	-758
▁sonnenbrille	-759
▁ka	-760
▁band	-761
staurant	-762
▁kn	-763
liche	-764
asch	-765
orts	-766
▁beob	-767
ketball	-768
▁gekleidete	-769
ück	-770
▁bä	-771
▁bes	-772
▁seiner	-773
fel	-774
▁felsen	-775
▁la	-776
▁arm	-777
▁berg	-778
▁feu	-779
im	-780
▁fo	-781
▁co	-782
▁ta	-783
▁pol	-784
▁weißem	-785
▁restaurant	-786
▁gelän	-787
▁grauen	-788
▁singt	-789
▁geschäft	-790
▁pf	-791
▁ihnen	-792
▁blauem	-793
etz	-794
▁ha	-795
otball	-796
▁basketball	-797
nf	-798
wer	-799
▁mantel	-800
ah	-801
br	-802
llo	-803
▁fen	-804
▁dunkel	-805
▁mikrofon	-806
▁fünf	-807
▁pro	-808
▁posiert	-809
ken	-810
use	-811
▁wo	-812
▁darauf	-813
ien	-814
▁fr	-815
brau	-816
asen	-817
eite	-818
▁jem	-819
▁ange	-820
arbeiter	-821
▁versamm	-822
▁football	-823
▁klettert	-824
▁ob	-825
anzug	-826
▁führt	-827
▁jemand	-828
▁shorts	-829
▁spielzeug	-830
▁befindet	-831
ün	-832
asse	-833
▁spa	-834
uchen	-835
▁einige	-836
▁sport	-837
ja	-838
cks	-839
▁ne	-840
örper	-841
▁regen	-842
ppen	-843
▁fenster	-844
iet	-845
mit	-846
▁to	-847
llover	-848
▁blumen	-849
▁telefon	-850
ifor	-851
inkt	-852
▁flie	-853
▁sehr	-854
achten	-855
▁feuer	-856
▁wirft	-857
▁blauer	-858
▁arbeiter	-859
▁schwarzem	-860
zu	-861
aun	-862
hnt	-863
scht	-864
▁schrei	-865
iv	-866
▁gekleideter	-867
ette	-868
▁bun	-869
▁anzug	-870
aten	-871
stand	-872
▁bade	-873
änger	-874
▁raum	-875
licher	-876
▁spieler	-877
▁zw	-878
▁oder	-879
▁zeit	-880
▁ins	-881
ungen	-882
▁rotem	-883
eb	-884
ain	-885
▁po	-886
▁kon	-887
▁isst	-888
▁rosafarben	-889
▁gen	-890
gesch	-891
▁männern	-892
▁schwarze	-893
unden	-894
▁wiese	-895
▁anderer	-896
▁kindern	-897
äut	-898
becken	-899
ges	-900
hon	-901
▁teil	-902
▁roter	-903
▁langen	-904
▁wartet	-905
▁pullover	-906
▁weiße	-907
▁tanzen	-908
▁springen	-909
cher	-910
▁met	-911
▁maul	-912
haarige	-913
▁schutz	-914
▁poliz	-915
▁werden	-916
▁bar	-917
körper	-918
schirm	-919
▁fluss	-920
gang	-921
▁hal	-922
immer	-923
▁rucks	-924
▁posieren	-925
▁gestreiften	-926
gend	-927
▁bluse	-928
▁schild	-929
ekt	-930
▁dr	-931
blau	-932
ckey	-933
▁hügel	-934
▁stuhl	-935
stu	-936
zer	-937
▁sn	-938
auft	-939
zeit	-940
▁eis	-941
▁nacht	-942
▁wander	-943
▁ö	-944
ill	-945
▁buch	-946
▁beleb	-947
▁fotogr	-948
▁überqu	-949
▁dunkl	-950
▁handy	-951
▁voller	-952
▁oberkörper	-953
ieht	-954
▁umge	-955
▁bereitet	-956
her	-957
▁af	-958
▁vi	-959
▁schm	-960
▁warten	-961
▁mo	-962
▁brü	-963
▁fest	-964
▁getr	-965
▁metall	-966
ist	-967
ierten	-968
▁kleink	-969
ess	-970
ater	-971
▁eink	-972
▁zwischen	-973
▁betrachtet	-974
dem	-975
eine	-976
▁alter	-977
▁unifor	-978
▁en	-979
▁rü	-980
▁fri	-981
▁dies	-982
▁haus	-983
▁seil	-984
▁genie	-985
▁blonde	-986
äss	-987
▁he	-988
este	-989
▁fels	-990
▁oben	-991
▁spaz	-992
erikan	-993
▁bauarbeiter	-994
▁kä	-995
hren	-996
mann	-997
schl	-998
schw	-999
äger	-1000
▁bet	-1001
ieden	-1002
▁leuten	-1003
▁schläft	-1004
utzt	-1005
▁bus	-1006
▁fre	-1007
▁lil	-1008
▁stock	-1009
▁zieht	-1010
old	-1011
wand	-1012
▁rut	-1013
isten	-1014
altung	-1015
▁ch	-1016
immt	-1017
▁pap	-1018
sieht	-1019
▁mütze	-1020
häut	-1021
▁snow	-1022
▁lehnt	-1023
▁reitet	-1024
del	-1025
▁zug	-1026
ation	-1027
▁kostü	-1028
▁markt	-1029
▁händen	-1030
dr	-1031
ena	-1032
kor	-1033
▁dav	-1034
▁kleinkind	-1035
▁e	-1036
spr	-1037
ichtung	-1038
▁herunter	-1039
▁beobachtet	-1040
▁miteinander	-1041
di	-1042
▁männ	-1043
▁pink	-1044
▁bäumen	-1045
▁rucksack	-1046
ahl	-1047
▁ju	-1048
▁all	-1049
▁ihrer	-1050
▁tanzt	-1051
chten	-1052
▁land	-1053
og	-1054
▁ski	-1055
▁tur	-1056
▁mitt	-1057
▁zaun	-1058
weißer	-1059
▁radfahrer	-1060
▁-	-1061
amil	-1062
▁verschieden	-1063
feld	-1064
▁ger	-1065
aschine	-1066
sk	-1067
ul	-1068
▁see	-1069
▁vom	-1070
▁groß	-1071
▁beton	-1072
▁schein	-1073
▁schiebt	-1074
▁befinden	-1075
▁schneebedeck	-1076
ärt	-1077
▁bal	-1078
▁haben	-1079
▁gewäss	-1080
▁fotograf	-1081
▁famil	-1082
▁orangefarben	-1083
▁schwimmbecken	-1084
band	-1085
▁ben	-1086
stein	-1087
▁rücken	-1088
▁zuschauer	-1089
▁graf	-1090
▁küche	-1091
ue	-1092
ies	-1093
tern	-1094
äche	-1095
▁tür	-1096
inken	-1097
stück	-1098
▁seite	-1099
schuhen	-1100
▁einkauf	-1101
bar	-1102
hal	-1103
hlen	-1104
▁out	-1105
▁gera	-1106
▁instr	-1107
▁welle	-1108
▁arbeit	-1109
▁kurzen	-1110
▁sprung	-1111
▁umgeben	-1112
ast	-1113
att	-1114
eidet	-1115
▁schlag	-1116
▁asiatische	-1117
sbe	-1118
tos	-1119
▁na	-1120
ampe	-1121
boarder	-1122
▁treppe	-1123
▁graffit	-1124
emden	-1125
stelle	-1126
igt	-1127
mar	-1128
▁de	-1129
anst	-1130
▁tau	-1131
▁zur	-1132
utter	-1133
▁schü	-1134
▁schla	-1135
▁farben	-1136
▁papier	-1137
▁verkauft	-1138
uck	-1139
▁flag	-1140
▁gerade	-1141
▁versammelt	-1142
innen	-1143
▁star	-1144
▁offen	-1145
▁fangen	-1146
▁geträn	-1147
▁großer	-1148
▁mitten	-1149
▁trinkt	-1150
▁familie	-1151
ds	-1152
me	-1153
öpf	-1154
weißen	-1155
▁aussehen	-1156
▁cow	-1157
sport	-1158
isches	-1159
▁schreibt	-1160
▁erwachsene	-1161
▁rosafarbenen	-1162
dt	-1163
ief	-1164
mmen	-1165
▁ihn	-1166
▁tor	-1167
gruppe	-1168
▁autos	-1169
▁hängt	-1170
geschäft	-1171
anstaltung	-1172
▁schneidet	-1173
yp	-1174
boy	-1175
mmt	-1176
net	-1177
▁mü	-1178
äufer	-1179
▁sonn	-1180
stre	-1181
▁pla	-1182
mpfen	-1183
stung	-1184
unnen	-1185
zimmer	-1186
▁platz	-1187
tlichen	-1188
▁spazieren	-1189
▁telefoniert	-1190
deo	-1191
hut	-1192
▁gu	-1193
fall	-1194
weiß	-1195
▁bik	-1196
▁wagen	-1197
▁belebten	-1198
ak	-1199
mpu	-1200
alen	-1201
inter	-1202
itten	-1203
▁bahn	-1204
▁malt	-1205
enager	-1206
▁bunten	-1207
▁teenager	-1208
▁lo	-1209
chte	-1210
schri	-1211
blauen	-1212
▁nimmt	-1213
▁reihe	-1214
▁frisbe	-1215
▁schwimmt	-1216
aße	-1217
hör	-1218
▁dre	-1219
▁gar	-1220
▁stä	-1221
▁typ	-1222
immel	-1223
jacke	-1224
▁rote	-1225
▁viol	-1226
▁rasen	-1227
▁cowboy	-1228
▁lachen	-1229
▁blicken	-1230
▁gewässer	-1231
kam	-1232
lley	-1233
ogen	-1234
ässt	-1235
▁denen	-1236
▁freiem	-1237
▁vielen	-1238
▁frisbee	-1239
▁schneebedeckten	-1240
ikum	-1241
▁himmel	-1242
▁schlägt	-1243
▁zeitung	-1244
▁gekleidet	-1245
▁kopfbedeck	-1246
arb	-1247
▁bu	-1248
atte	-1249
hmen	-1250
▁kan	-1251
eigen	-1252
stuhl	-1253
▁bart	-1254
▁rock	-1255
blikum	-1256
straße	-1257
▁compu	-1258
▁hände	-1259
▁brücke	-1260
▁hinauf	-1261
▁mutter	-1262
▁gebäudes	-1263
▁sonnigen	-1264
▁fußballspieler	-1265
fest	-1266
ügen	-1267
zogen	-1268
▁lang	-1269
▁fisch	-1270
rüstung	-1271
▁fliegt	-1272
lleyball	-1273
▁geländer	-1274
▁publikum	-1275
▁ü	-1276
arm	-1277
▁ak	-1278
jekt	-1279
▁tro	-1280
markt	-1281
▁hebt	-1282
▁leben	-1283
▁shirt	-1284
▁tasche	-1285
▁kämpfen	-1286
▁richtung	-1287
▁wä	-1288
hemd	-1289
fläche	-1290
▁kampf	-1291
▁hemden	-1292
▁schult	-1293
▁dunklen	-1294
chs	-1295
ängt	-1296
▁beg	-1297
eifen	-1298
eiter	-1299
mittel	-1300
▁weste	-1301
▁öffen	-1302
▁grünem	-1303
▁orangen	-1304
▁schutzh	-1305
gew	-1306
ust	-1307
esen	-1308
▁hof	-1309
asche	-1310
inger	-1311
stler	-1312
▁hohen	-1313
▁repar	-1314
▁graffiti	-1315
rich	-1316
wehr	-1317
werk	-1318
ellen	-1319
▁augen	-1320
▁freund	-1321
▁outfit	-1322
▁weißes	-1323
▁blondes	-1324
▁uniform	-1325
▁spielplatz	-1326
▁asiatischer	-1327
▁gi	-1328
igar	-1329
ummer	-1330
▁alte	-1331
▁bier	-1332
▁hals	-1333
▁gleich	-1334
▁liegen	-1335
▁überqueren	-1336
▁kopfbedeckung	-1337
hü	-1338
pft	-1339
▁el	-1340
▁flug	-1341
▁tritt	-1342
▁zigar	-1343
▁jugend	-1344
▁mannes	-1345
▁schirm	-1346
▁winter	-1347
▁mittler	-1348
▁zuschauen	-1349
anc	-1350
aub	-1351
bank	-1352
ling	-1353
park	-1354
▁pfl	-1355
ument	-1356
▁herr	-1357
eichen	-1358
haariger	-1359
zt	-1360
ärm	-1361
atue	-1362
fern	-1363
hose	-1364
ungs	-1365
▁glas	-1366
▁nack	-1367
▁schö	-1368
▁davon	-1369
▁mensch	-1370
▁verschn	-1371
▁bereiten	-1372
▁gol	-1373
▁hör	-1374
etten	-1375
▁pool	-1376
▁verl	-1377
laster	-1378
▁ausge	-1379
▁blaue	-1380
▁blick	-1381
▁schal	-1382
▁städt	-1383
▁train	-1384
schrift	-1385
▁bereit	-1386
▁ziegel	-1387
▁genießt	-1388
▁dunkelhäut	-1389
kon	-1390
▁hil	-1391
▁kor	-1392
brett	-1393
▁dach	-1394
▁team	-1395
▁decke	-1396
▁stück	-1397
smittel	-1398
▁computer	-1399
▁hellbrau	-1400
▁mittleren	-1401
fa	-1402
▁klei	-1403
rädern	-1404
▁lacht	-1405
▁mauer	-1406
▁schür	-1407
▁sechs	-1408
▁schaukel	-1409
▁karierten	-1410
▁zuschauern	-1411
▁hö	-1412
haus	-1413
ickt	-1414
gebäu	-1415
tellt	-1416
▁gemü	-1417
▁roll	-1418
▁zelt	-1419
▁alters	-1420
▁vorder	-1421
▁benutzt	-1422
▁feuerwehr	-1423
hält	-1424
▁alten	-1425
▁menge	-1426
schwarz	-1427
▁kunststück	-1428
▁geg	-1429
elmen	-1430
▁obst	-1431
▁ries	-1432
▁sold	-1433
gänger	-1434
▁großes	-1435
amerikan	-1436
▁einigen	-1437
▁unterhält	-1438
ied	-1439
änd	-1440
bild	-1441
▁sil	-1442
▁sto	-1443
▁bein	-1444
▁mund	-1445
▁nahe	-1446
▁voll	-1447
▁fotos	-1448
▁mitte	-1449
▁zusieht	-1450
▁baseballspieler	-1451
ons	-1452
▁stü	-1453
anten	-1454
immen	-1455
kampf	-1456
▁lila	-1457
▁sofa	-1458
fahren	-1459
▁armen	-1460
▁außer	-1461
▁weihn	-1462
▁trinken	-1463
▁einkaufs	-1464
▁zuschaut	-1465
▁fußgänger	-1466
▁nebeneinander	-1467
lin	-1468
pfen	-1469
▁hei	-1470
▁verw	-1471
▁wett	-1472
▁lässt	-1473
▁nicht	-1474
▁nachts	-1475
▁zusehen	-1476
▁lebensmittel	-1477
grü	-1478
igk	-1479
ini	-1480
affe	-1481
auer	-1482
eift	-1483
geln	-1484
halb	-1485
teln	-1486
▁for	-1487
▁kap	-1488
▁kurz	-1489
▁kniet	-1490
▁schüt	-1491
▁sonne	-1492
▁gemüse	-1493
▁hockey	-1494
▁gegenstand	-1495
ition	-1496
under	-1497
▁aben	-1498
▁stre	-1499
▁ufer	-1500
▁braut	-1501
▁gelber	-1502
▁hinten	-1503
▁surfer	-1504
▁versuchen	-1505
▁zigarette	-1506
▁volleyball	-1507
vo	-1508
fro	-1509
len	-1510
▁cl	-1511
▁sa	-1512
erne	-1513
itzt	-1514
▁afr	-1515
▁fla	-1516
▁gibt	-1517
▁unbe	-1518
▁wein	-1519
▁führen	-1520
▁treten	-1521
▁scheint	-1522
▁mehreren	-1523
▁beobachten	-1524
kr	-1525
▁pl	-1526
ause	-1527
stik	-1528
▁ker	-1529
achts	-1530
▁bett	-1531
▁pass	-1532
▁pfad	-1533
▁farbenfro	-1534
oß	-1535
rück	-1536
▁gef	-1537
▁wur	-1538
deckt	-1539
spann	-1540
▁bärt	-1541
▁beide	-1542
▁fängt	-1543
▁trick	-1544
▁flagge	-1545
▁garten	-1546
▁gegner	-1547
▁nummer	-1548
▁raucht	-1549
▁öffentlichen	-1550
ek	-1551
rt	-1552
tur	-1553
hund	-1554
iges	-1555
zert	-1556
▁bew	-1557
▁fei	-1558
▁ind	-1559
▁part	-1560
▁beleu	-1561
▁ferne	-1562
▁handt	-1563
▁stange	-1564
▁stufen	-1565
▁afrikan	-1566
▁schürze	-1567
▁trikots	-1568
▁betrachten	-1569
▁weihnachts	-1570
▁verschneiten	-1571
aben	-1572
etzt	-1573
heit	-1574
▁art	-1575
▁bow	-1576
kostü	-1577
stell	-1578
▁afro	-1579
▁krei	-1580
▁müll	-1581
▁grill	-1582
▁laden	-1583
▁reden	-1584
▁gehsteig	-1585
▁wanderer	-1586
oh	-1587
hof	-1588
üst	-1589
▁kö	-1590
alle	-1591
olgt	-1592
issen	-1593
mütze	-1594
änzer	-1595
gebung	-1596
▁diese	-1597
▁rotes	-1598
▁blonden	-1599
ausrüstung	-1600
▁erwachsener	-1601
▁veranstaltung	-1602
ka	-1603
los	-1604
vor	-1605
öff	-1606
phon	-1607
▁che	-1608
anzen	-1609
füllt	-1610
gehen	-1611
▁back	-1612
▁chin	-1613
▁geld	-1614
▁surf	-1615
▁rampe	-1616
▁unten	-1617
▁musiker	-1618
▁einander	-1619
▁außerhalb	-1620
▁tennisball	-1621
▁snowboarder	-1622
▁mö	-1623
boot	-1624
atten	-1625
gebäude	-1626
▁gemein	-1627
▁roller	-1628
▁weiter	-1629
▁plastik	-1630
untergang	-1631
▁snowboard	-1632
▁mannschaft	-1633
do	-1634
od	-1635
ub	-1636
bau	-1637
▁ku	-1638
▁dass	-1639
▁gele	-1640
▁greift	-1641
▁läufer	-1642
▁zurück	-1643
▁rutscht	-1644
▁leuchten	-1645
▁instrumen	-1646
▁männliche	-1647
▁sonnenuntergang	-1648
own	-1649
ume	-1650
▁ke	-1651
köpf	-1652
▁gep	-1653
mauer	-1654
▁kapu	-1655
▁turn	-1656
liches	-1657
▁hilft	-1658
▁hüten	-1659
▁vater	-1660
▁bikini	-1661
▁braune	-1662
▁bowling	-1663
▁brunnen	-1664
▁klassen	-1665
▁bärtiger	-1666
▁kleidern	-1667
▁skifahrer	-1668
▁aufschrift	-1669
▁fotografiert	-1670
aw	-1671
eibe	-1672
eugt	-1673
geht	-1674
ings	-1675
obil	-1676
weat	-1677
▁bem	-1678
▁bil	-1679
▁jog	-1680
▁kün	-1681
uster	-1682
schild	-1683
▁angel	-1684
▁besch	-1685
▁beste	-1686
▁damen	-1687
▁surft	-1688
▁vogel	-1689
▁beiden	-1690
▁werfen	-1691
pflaster	-1692
weatshirt	-1693
▁fahrzeug	-1694
▁polizist	-1695
▁kampfsport	-1696
▁afroamerikan	-1697
co	-1698
pu	-1699
▁y	-1700
jak	-1701
kar	-1702
ont	-1703
umm	-1704
▁ma	-1705
▁wa	-1706
▁neu	-1707
endet	-1708
▁arme	-1709
▁fall	-1710
festig	-1711
grünen	-1712
▁gelbe	-1713
▁haare	-1714
▁gelbem	-1715
▁grüner	-1716
▁leiter	-1717
▁hochzeit	-1718
▁kostümen	-1719
▁überquert	-1720
▁polizisten	-1721
▁unbefestig	-1722
akt	-1723
auto	-1724
hnen	-1725
oten	-1726
▁jün	-1727
▁kat	-1728
▁the	-1729
ockey	-1730
zentr	-1731
▁korb	-1732
▁legt	-1733
rennen	-1734
▁kajak	-1735
▁jünger	-1736
▁kostüm	-1737
▁statue	-1738
▁nacktem	-1739
skleidung	-1740
▁amerikan	-1741
▁sweatshirt	-1742
▁versammeln	-1743
▁erwachsenen	-1744
▁städtischen	-1745
kw	-1746
ase	-1747
▁pa	-1748
auch	-1749
eige	-1750
rand	-1751
▁anz	-1752
▁mil	-1753
▁weib	-1754
reifen	-1755
▁lange	-1756
▁lesen	-1757
▁nehmen	-1758
▁blonder	-1759
▁maschine	-1760
▁gemeinsam	-1761
man	-1762
top	-1763
unt	-1764
▁ir	-1765
▁tä	-1766
form	-1767
kelt	-1768
eicht	-1769
▁fern	-1770
▁kommt	-1771
▁leine	-1772
▁blaues	-1773
maschine	-1774
▁getränk	-1775
▁rutsche	-1776
▁schlamm	-1777
▁schmutz	-1778
▁lilafarben	-1779
ukt	-1780
▁do	-1781
ippe	-1782
ssen	-1783
team	-1784
▁caf	-1785
athon	-1786
boden	-1787
▁rein	-1788
▁spre	-1789
▁trad	-1790
iefeln	-1791
▁guckt	-1792
▁waren	-1793
otorrad	-1794
▁durchs	-1795
▁reifen	-1796
▁silber	-1797
▁stellt	-1798
▁westen	-1799
▁kopfhör	-1800
▁genießen	-1801
▁schlafen	-1802
▁tradition	-1803
▁regenschirm	-1804
lk	-1805
aut	-1806
äum	-1807
erle	-1808
führ	-1809
oren	-1810
stän	-1811
öcken	-1812
▁wohn	-1813
▁eimer	-1814
▁leder	-1815
▁leeren	-1816
▁pferde	-1817
▁seifen	-1818
▁singen	-1819
▁tänzer	-1820
▁wellen	-1821
▁spiegel	-1822
▁stühlen	-1823
▁verkehr	-1824
▁entspann	-1825
▁klettern	-1826
▁soldaten	-1827
▁mikrophon	-1828
▁schlagzeug	-1829
▁schutzhelm	-1830
▁asiatischen	-1831
ip	-1832
▁fä	-1833
aske	-1834
bung	-1835
ften	-1836
eiden	-1837
▁berü	-1838
▁ende	-1839
▁ohne	-1840
mitten	-1841
▁rodeo	-1842
▁wobei	-1843
▁balanc	-1844
▁kaufen	-1845
▁schüler	-1846
▁streckt	-1847
▁geländem	-1848
▁inmitten	-1849
▁sprechen	-1850
▁umgebung	-1851
▁gekleideten	-1852
▁gestreiftem	-1853
▁verschiedene	-1854
▁motorradfahrer	-1855
ser	-1856
▁hu	-1857
afen	-1858
belt	-1859
dert	-1860
ssel	-1861
▁pad	-1862
▁ras	-1863
▁säu	-1864
instr	-1865
▁kraw	-1866
blasen	-1867
▁kaffe	-1868
▁mobil	-1869
▁umarm	-1870
▁heraus	-1871
▁sicher	-1872
▁schuhen	-1873
▁wassers	-1874
▁marathon	-1875
▁riesigen	-1876
▁schwingt	-1877
▁badeanzug	-1878
esk	-1879
tow	-1880
ulp	-1881
▁pr	-1882
itär	-1883
schn	-1884
verk	-1885
▁lap	-1886
eller	-1887
halle	-1888
inder	-1889
▁ganz	-1890
▁rück	-1891
▁sohn	-1892
▁werk	-1893
kostüm	-1894
▁gegend	-1895
▁gelbes	-1896
▁grauem	-1897
▁laptop	-1898
▁parade	-1899
gestellt	-1900
▁anderes	-1901
▁konzert	-1902
▁treppen	-1903
▁älteren	-1904
▁schlagen	-1905
▁gegenüber	-1906
▁parkplatz	-1907
▁uniformen	-1908
▁instrument	-1909
▁pinkfarben	-1910
▁handschuhen	-1911
bik	-1912
euz	-1913
nah	-1914
▁ki	-1915
aden	-1916
atur	-1917
skop	-1918
eisen	-1919
räder	-1920
▁hört	-1921
▁tätow	-1922
richter	-1923
▁bergen	-1924
▁chines	-1925
▁finger	-1926
▁spring	-1927
▁starrt	-1928
▁unters	-1929
▁offenen	-1930
bewachsen	-1931
▁gebäuden	-1932
▁künstler	-1933
▁schwarzes	-1934
▁schwimmen	-1935
▁verkleide	-1936
▁kinderwagen	-1937
▁straßenecke	-1938
▁straßenrand	-1939
▁jugendlicher	-1940
by	-1941
anne	-1942
farb	-1943
korb	-1944
▁kir	-1945
▁lkw	-1946
anken	-1947
schuh	-1948
sicht	-1949
teten	-1950
▁jagt	-1951
verall	-1952
▁party	-1953
▁schoß	-1954
▁stand	-1955
▁dieser	-1956
▁umarmt	-1957
▁wunder	-1958
▁bereich	-1959
▁cheerle	-1960
▁militär	-1961
▁lächelnd	-1962
▁schatten	-1963
▁backstein	-1964
▁baustelle	-1965
▁pinkfarbenen	-1966
▁geländemotorrad	-1967
pr	-1968
bst	-1969
fuß	-1970
inn	-1971
ork	-1972
cker	-1973
ober	-1974
osen	-1975
eisch	-1976
ennen	-1977
ierte	-1978
irmen	-1979
▁alle	-1980
▁beko	-1981
▁blät	-1982
▁einz	-1983
▁gold	-1984
▁lauf	-1985
▁link	-1986
▁tour	-1987
ulptur	-1988
▁einge	-1989
▁glück	-1990
▁grüne	-1991
▁pause	-1992
▁wasch	-1993
fenster	-1994
strecke	-1995
▁jacken	-1996
▁kuchen	-1997
▁sänger	-1998
▁cheerlea	-1999
▁krawatte	-2000
▁grasbewachsen	-2001
▁dunkelhäutiger	-2002
▁orangefarbener	-2003
ive	-2004
äun	-2005
▁wü	-2006
▁gut	-2007
▁nah	-2008
▁näh	-2009
▁zer	-2010
▁ärm	-2011
aften	-2012
chter	-2013
utzen	-2014
▁abge	-2015
▁fell	-2016
▁last	-2017
▁netz	-2018
▁tier	-2019
▁clown	-2020
▁irgend	-2021
▁schnau	-2022
▁hellhäut	-2023
▁pflanzen	-2024
▁repariert	-2025
▁verkaufen	-2026
▁gepflaster	-2027
▁vordergrund	-2028
▁schreibtisch	-2029
tre	-2030
ient	-2031
iste	-2032
lage	-2033
▁was	-2034
tritt	-2035
itarre	-2036
▁putzt	-2037
▁tromm	-2038
chteten	-2039
füllten	-2040
▁kurzer	-2041
▁taschen	-2042
▁schulter	-2043
▁schlitten	-2044
▁gekleidetes	-2045
▁fußballspiel	-2046
▁gegeneinander	-2047
▁tennisspieler	-2048
ok	-2049
ve	-2050
app	-2051
leu	-2052
▁qu	-2053
erin	-2054
telt	-2055
▁anh	-2056
▁öff	-2057
alter	-2058
asser	-2059
führt	-2060
orfen	-2061
seite	-2062
gelben	-2063
westen	-2064
führung	-2065
▁baumst	-2066
▁grünes	-2067
▁kunden	-2068
fahrzeug	-2069
▁bedeckt	-2070
▁overall	-2071
dsrichter	-2072
▁jemandem	-2073
▁sandalen	-2074
▁schläger	-2075
▁angezogen	-2076
▁lächelnde	-2077
▁mikroskop	-2078
▁balanciert	-2079
▁fahrrädern	-2080
▁asiatisches	-2081
▁fahrradfahrer	-2082
atz	-2083
iff	-2084
nel	-2085
sto	-2086
amen	-2087
ankt	-2088
deon	-2089
hand	-2090
raum	-2091
sern	-2092
▁lab	-2093
ahnen	-2094
ckelt	-2095
druck	-2096
ieder	-2097
laden	-2098
nahme	-2099
ppich	-2100
weste	-2101
▁erde	-2102
▁farb	-2103
▁koch	-2104
gebiet	-2105
▁akkor	-2106
▁beugt	-2107
▁dreht	-2108
▁innen	-2109
▁kreis	-2110
▁setzt	-2111
▁winkt	-2112
▁ziehen	-2113
schläger	-2114
▁gelände	-2115
▁pferden	-2116
▁schlauch	-2117
▁stiefeln	-2118
▁weibliche	-2119
▁rothaarige	-2120
▁mobiltelefon	-2121
▁einkaufswagen	-2122
ki	-2123
est	-2124
eut	-2125
hak	-2126
oto	-2127
unk	-2128
deln	-2129
ektr	-2130
hang	-2131
luft	-2132
lung	-2133
▁jon	-2134
▁tun	-2135
▁kanu	-2136
▁khak	-2137
▁pick	-2138
▁rand	-2139
▁fällt	-2140
▁rollt	-2141
▁video	-2142
anzügen	-2143
bereich	-2144
▁küssen	-2145
▁reiten	-2146
stellung	-2147
▁kapuzen	-2148
▁felswand	-2149
▁flugzeug	-2150
▁halsband	-2151
▁akkordeon	-2152
▁surfbrett	-2153
▁klassenzimmer	-2154
▁orangefarbenem	-2155
▁schiedsrichter	-2156
▁footballspieler	-2157
om	-2158
bel	-2159
ift	-2160
pro	-2161
urs	-2162
igem	-2163
schö	-2164
wegs	-2165
▁wel	-2166
ischt	-2167
roten	-2168
▁büro	-2169
▁form	-2170
▁golf	-2171
▁höhe	-2172
▁komp	-2173
▁verf	-2174
anktop	-2175
▁außen	-2176
▁davor	-2177
gitarre	-2178
scheibe	-2179
▁dessen	-2180
▁elektr	-2181
▁frisch	-2182
▁zeigen	-2183
▁zimmer	-2184
▁belebte	-2185
▁fleisch	-2186
▁badehose	-2187
▁gesichts	-2188
▁sicherheit	-2189
▁hellbrauner	-2190
▁unbefestigten	-2191
ru	-2192
enn	-2193
ord	-2194
aler	-2195
apos	-2196
delt	-2197
nung	-2198
zaun	-2199
enden	-2200
uppen	-2201
▁bewe	-2202
▁jahr	-2203
▁redet	-2204
brunnen	-2205
▁marsch	-2206
▁schuhe	-2207
▁seines	-2208
schaften	-2209
▁braunem	-2210
▁fliegen	-2211
▁tanktop	-2212
▁aussieht	-2213
▁leuchtend	-2214
▁oberteilen	-2215
▁cheerleader	-2216
▁seifenblasen	-2217
ce	-2218
fla	-2219
irn	-2220
one	-2221
urt	-2222
ähn	-2223
lett	-2224
stad	-2225
▁fil	-2226
ängen	-2227
▁ecke	-2228
▁loch	-2229
▁spaß	-2230
▁wind	-2231
lossen	-2232
rillen	-2233
untain	-2234
▁jongl	-2235
▁khaki	-2236
▁küsst	-2237
▁tramp	-2238
brauner	-2239
▁kranken	-2240
▁tischen	-2241
▁bekleide	-2242
▁mountain	-2243
▁schlange	-2244
▁schnauze	-2245
▁asiatisch	-2246
▁wunderschö	-2247
▁skateboarder	-2248
▁verschiedenen	-2249
gn	-2250
kün	-2251
tro	-2252
▁du	-2253
▁lö	-2254
▁ol	-2255
afel	-2256
dach	-2257
igur	-2258
ment	-2259
terr	-2260
▁bis	-2261
fahrt	-2262
fährt	-2263
itzen	-2264
weiße	-2265
▁kahl	-2266
▁plat	-2267
▁schä	-2268
▁vert	-2269
shirts	-2270
strukt	-2271
▁aufge	-2272
▁bäume	-2273
▁inter	-2274
▁kopft	-2275
▁recht	-2276
▁stirn	-2277
▁teich	-2278
▁aufger	-2279
▁gerüst	-2280
▁geschm	-2281
▁karate	-2282
▁schauf	-2283
köpfiger	-2284
▁entfern	-2285
▁hindern	-2286
▁schönen	-2287
▁stadion	-2288
▁streich	-2289
▁teppich	-2290
▁tochter	-2291
▁ausgestre	-2292
▁lastwagen	-2293
▁schultern	-2294
▁spielfeld	-2295
▁landschaft	-2296
▁männlicher	-2297
▁mountainbik	-2298
▁rennstrecke	-2299
veranstaltung	-2300
▁farbenfrohen	-2301
▁lilafarbenen	-2302
▁grasbewachsenen	-2303
pe	-2304
po	-2305
cro	-2306
pen	-2307
äck	-2308
▁di	-2309
▁vö	-2310
enkt	-2311
flug	-2312
ießt	-2313
illt	-2314
zene	-2315
▁flü	-2316
▁kai	-2317
dient	-2318
eilen	-2319
kappe	-2320
öpfen	-2321
▁hula	-2322
▁laub	-2323
igkeit	-2324
▁geige	-2325
▁kocht	-2326
▁tasse	-2327
▁zeich	-2328
▁golden	-2329
▁haufen	-2330
▁kaffee	-2331
▁kirche	-2332
▁orient	-2333
schaukel	-2334
▁flasche	-2335
▁verkauf	-2336
▁luftball	-2337
▁geschäfts	-2338
▁gepflasterten	-2339
öh	-2340
üs	-2341
bad	-2342
prü	-2343
urg	-2344
▁zä	-2345
allt	-2346
alto	-2347
anda	-2348
lauf	-2349
olin	-2350
wärt	-2351
▁dir	-2352
▁nur	-2353
ammer	-2354
armen	-2355
bewer	-2356
bogen	-2357
ernen	-2358
gerät	-2359
hosen	-2360
▁eish	-2361
▁soft	-2362
halten	-2363
läufer	-2364
sprung	-2365
▁kappe	-2366
▁küste	-2367
▁schuh	-2368
▁stroh	-2369
▁balkon	-2370
▁bemalt	-2371
▁hellen	-2372
▁hunden	-2373
▁hängen	-2374
▁meeres	-2375
▁objekt	-2376
▁schnur	-2377
▁skater	-2378
▁ärmell	-2379
farbener	-2380
igkeiten	-2381
oberteil	-2382
▁bedient	-2383
▁freunde	-2384
▁schnell	-2385
▁umarmen	-2386
▁freunden	-2387
▁oriental	-2388
▁parkbank	-2389
▁schaufel	-2390
▁schaukelt	-2391
▁unterwegs	-2392
▁aussehende	-2393
▁geschlossen	-2394
▁gegnerischen	-2395
arn	-2396
bus	-2397
hei	-2398
aren	-2399
ehrt	-2400
ffer	-2401
iern	-2402
mmer	-2403
test	-2404
unge	-2405
▁ruh	-2406
▁stö	-2407
indet	-2408
licht	-2409
stadt	-2410
▁eins	-2411
▁hang	-2412
▁mahl	-2413
sstand	-2414
▁abend	-2415
▁blatt	-2416
▁damit	-2417
▁gasse	-2418
▁gespr	-2419
▁katze	-2420
▁namen	-2421
▁pickn	-2422
▁staub	-2423
zeichen	-2424
▁einzel	-2425
▁grauer	-2426
▁helmen	-2427
▁sachen	-2428
▁sieben	-2429
▁steine	-2430
▁flaggen	-2431
schwarzer	-2432
▁schüssel	-2433
▁entspannt	-2434
▁gegenstän	-2435
▁kapuzenpu	-2436
▁touristen	-2437
▁trampolin	-2438
▁violetten	-2439
▁beleuchteten	-2440
▁schutzhelmen	-2441
▁schwimmbrille	-2442
gs	-2443
err	-2444
pan	-2445
örm	-2446
land	-2447
tert	-2448
▁bad	-2449
▁kau	-2450
▁new	-2451
▁ohr	-2452
tisch	-2453
▁holt	-2454
▁plan	-2455
▁stap	-2456
▁terr	-2457
▁tran	-2458
bewerb	-2459
hälter	-2460
ierter	-2461
zeugen	-2462
ändern	-2463
▁berge	-2464
▁hinab	-2465
▁hüpft	-2466
▁kreuz	-2467
▁maske	-2468
▁vergn	-2469
▁befest	-2470
▁bullen	-2471
▁fahnen	-2472
▁langem	-2473
▁schlaf	-2474
▁seiten	-2475
▁skiern	-2476
▁steigt	-2477
▁turner	-2478
▁feldweg	-2479
▁gezogen	-2480
▁strecke	-2481
▁jongliert	-2482
▁kopfhörer	-2483
▁verwendet	-2484
▁springbrunnen	-2485
du	-2486
wo	-2487
▁;	-2488
age	-2489
ale	-2490
ard	-2491
bis	-2492
dio	-2493
ipp	-2494
irr	-2495
kat	-2496
lli	-2497
orn	-2498
pfl	-2499
zie	-2500
äst	-2501
üne	-2502
üte	-2503
▁at	-2504
arbe	-2505
hoop	-2506
inen	-2507
sell	-2508
umpf	-2509
zäun	-2510
äten	-2511
▁tri	-2512
lagen	-2513
maten	-2514
osten	-2515
stern	-2516
▁brün	-2517
▁prof	-2518
▁rett	-2519
▁couch	-2520
▁dekor	-2521
▁kauft	-2522
▁licht	-2523
▁links	-2524
▁schil	-2525
▁umzug	-2526
▁barfuß	-2527
▁bilder	-2528
▁einsam	-2529
▁klippe	-2530
▁mittel	-2531
▁rechts	-2532
▁studen	-2533
künstler	-2534
richtung	-2535
▁dunkler	-2536
▁protest	-2537
▁schießt	-2538
▁softball	-2539
▁eishockey	-2540
▁fallschirm	-2541
▁lächelnder	-2542
▁reparieren	-2543
▁schaufenster	-2544
▁fotografieren	-2545
äl	-2546
gem	-2547
▁sü	-2548
blas	-2549
helm	-2550
vier	-2551
ürde	-2552
▁erd	-2553
▁hel	-2554
baren	-2555
chern	-2556
gegen	-2557
hügel	-2558
ienen	-2559
ophon	-2560
weise	-2561
zeigt	-2562
▁gebl	-2563
▁gefl	-2564
▁grim	-2565
▁ruht	-2566
▁wurf	-2567
▁zahl	-2568
eister	-2569
ichtet	-2570
muster	-2571
stücke	-2572
utsche	-2573
▁bläst	-2574
▁brett	-2575
▁geöff	-2576
▁heben	-2577
▁hockt	-2578
▁stoff	-2579
▁wüste	-2580
stühlen	-2581
▁asiate	-2582
▁bücher	-2583
▁gesäum	-2584
▁grillt	-2585
▁ringen	-2586
▁schach	-2587
▁teller	-2588
▁anzügen	-2589
▁bekommt	-2590
▁berührt	-2591
▁geschen	-2592
▁projekt	-2593
▁veranda	-2594
▁wandert	-2595
▁kopftuch	-2596
▁sitzende	-2597
▁verfolgt	-2598
▁cowboyhut	-2599
▁schüttelt	-2600
▁hellblauen	-2601
▁aussehender	-2602
▁braunhaarige	-2603
▁instrumenten	-2604
▁dunkelhäutige	-2605
aht	-2606
hil	-2607
och	-2608
▁sm	-2609
elle	-2610
gelt	-2611
▁dis	-2612
▁kal	-2613
▁per	-2614
▁reg	-2615
ckten	-2616
eiben	-2617
▁nase	-2618
▁samm	-2619
▁tief	-2620
fallen	-2621
iertem	-2622
schlag	-2623
schuhe	-2624
wasser	-2625
▁schaf	-2626
▁spitz	-2627
▁bedeck	-2628
▁beinen	-2629
▁linken	-2630
▁reiter	-2631
aufnahme	-2632
▁gitarri	-2633
▁reinigt	-2634
▁vorüber	-2635
verkäufer	-2636
▁bestehen	-2637
▁mahlzeit	-2638
▁sportler	-2639
▁wettkampf	-2640
▁handtasche	-2641
▁instrumente	-2642
▁sicherheits	-2643
▁überfüllten	-2644
▁geschlossenen	-2645
▁personengruppe	-2646
ed	-2647
ku	-2648
kü	-2649
üm	-2650
don	-2651
fft	-2652
▁ur	-2653
alon	-2654
baum	-2655
glas	-2656
sent	-2657
▁frü	-2658
▁hüb	-2659
▁kön	-2660
▁med	-2661
▁prä	-2662
endes	-2663
eskop	-2664
etzen	-2665
sperr	-2666
▁amüs	-2667
▁auch	-2668
▁bach	-2669
▁erkl	-2670
▁weit	-2671
▁york	-2672
▁ziel	-2673
▁üben	-2674
unifor	-2675
▁bauen	-2676
▁gerät	-2677
▁japan	-2678
▁salto	-2679
▁umher	-2680
▁zähne	-2681
flasche	-2682
zentrum	-2683
▁diesem	-2684
▁gebiet	-2685
▁gucken	-2686
▁hauses	-2687
▁öffnet	-2688
arbeiten	-2689
schirmen	-2690
teleskop	-2691
▁asiaten	-2692
▁asiatin	-2693
▁fischer	-2694
▁steigen	-2695
instrumen	-2696
▁felsigen	-2697
▁getränke	-2698
▁untersch	-2699
mannschaft	-2700
▁wasserfall	-2701
▁vorbeigehen	-2702
▁pinkfarbenem	-2703
▁traditioneller	-2704
ay	-2705
bä	-2706
feu	-2707
fte	-2708
füß	-2709
hle	-2710
hlt	-2711
äge	-2712
beln	-2713
iker	-2714
onen	-2715
▁bre	-2716
▁din	-2717
▁ort	-2718
▁sau	-2719
ement	-2720
hafen	-2721
opren	-2722
scher	-2723
▁fast	-2724
▁fert	-2725
▁fröh	-2726
▁halb	-2727
▁kann	-2728
▁kerl	-2729
▁knie	-2730
▁näch	-2731
▁wild	-2732
achter	-2733
mantel	-2734
stehen	-2735
yboard	-2736
▁beige	-2737
▁brust	-2738
brillen	-2739
▁dieses	-2740
▁gewehr	-2741
▁küchen	-2742
▁taucht	-2743
▁tunnel	-2744
▁wäsche	-2745
▁wäscht	-2746
bereitet	-2747
▁aufblas	-2748
▁blätter	-2749
▁langärm	-2750
▁nachdem	-2751
▁neopren	-2752
▁steinen	-2753
schwarzen	-2754
struktion	-2755
▁auftritt	-2756
▁fahrräder	-2757
▁schneiden	-2758
▁verlassen	-2759
▁lederjacke	-2760
▁untersucht	-2761
▁winterkleidung	-2762
hol	-2763
isp	-2764
män	-2765
sur	-2766
ölk	-2767
▁bm	-2768
bart	-2769
eibt	-2770
eife	-2771
halt	-2772
händ	-2773
stag	-2774
▁kuh	-2775
▁mon	-2776
▁pal	-2777
▁übt	-2778
icker	-2779
ippen	-2780
linie	-2781
wärts	-2782
zeich	-2783
zeuge	-2784
äcken	-2785
änden	-2786
ützen	-2787
▁drit	-2788
▁mode	-2789
▁ring	-2790
▁sees	-2791
▁tarn	-2792
▁tuch	-2793
aschen	-2794
ickelt	-2795
kommen	-2796
schein	-2797
▁blond	-2798
▁bunte	-2799
▁geldb	-2800
▁gießt	-2801
▁kamer	-2802
▁kickt	-2803
▁kurve	-2804
▁schot	-2805
▁schul	-2806
▁stark	-2807
▁teams	-2808
▁wurde	-2809
▁zunge	-2810
braunen	-2811
fahrern	-2812
station	-2813
▁allein	-2814
▁barfüß	-2815
▁gelegt	-2816
▁gewand	-2817
▁kissen	-2818
▁kommen	-2819
▁vollen	-2820
▁eingang	-2821
▁gruppen	-2822
▁taucher	-2823
▁weitere	-2824
▁darunter	-2825
▁schießen	-2826
▁terrasse	-2827
bekleidung	-2828
▁baumstamm	-2829
▁jahrmarkt	-2830
▁passanten	-2831
▁sitzender	-2832
▁beieinander	-2833
▁hellbraunen	-2834
▁amerikanische	-2835
▁dunkelhaarige	-2836
▁fußgängerüber	-2837
egt	-2838
nes	-2839
rem	-2840
sel	-2841
äbt	-2842
▁rä	-2843
atto	-2844
eilt	-2845
igam	-2846
keln	-2847
pfel	-2848
pfer	-2849
ugby	-2850
wett	-2851
ütte	-2852
▁ban	-2853
▁dan	-2854
▁heu	-2855
cross	-2856
stoff	-2857
▁bord	-2858
▁hölz	-2859
▁verz	-2860
▁vorn	-2861
ichten	-2862
nitten	-2863
stufen	-2864
▁bräut	-2865
▁lager	-2866
▁mitgl	-2867
▁rugby	-2868
▁becher	-2869
▁bringt	-2870
▁gepäck	-2871
▁gesich	-2872
▁helfen	-2873
▁hinaus	-2874
▁können	-2875
▁nassen	-2876
▁träger	-2877
testelle	-2878
▁gezeigt	-2879
▁polizei	-2880
▁rasiert	-2881
▁brünette	-2882
▁geschenk	-2883
▁geworfen	-2884
▁konzentr	-2885
▁teleskop	-2886
▁bräutigam	-2887
▁hindernis	-2888
▁hinterher	-2889
▁rollstuhl	-2890
▁schwimmer	-2891
▁vollführt	-2892
▁ausrüstung	-2893
▁unterschied	-2894
▁hockeyspieler	-2895
▁straßenkünstler	-2896
fr	-2897
ic	-2898
mä	-2899
sa	-2900
bes	-2901
dre	-2902
erv	-2903
hem	-2904
ymp	-2905
iere	-2906
lege	-2907
unde	-2908
▁abs	-2909
▁grö	-2910
▁kab	-2911
▁sel	-2912
aktor	-2913
hilfe	-2914
kugel	-2915
mmert	-2916
änder	-2917
▁acht	-2918
▁begl	-2919
▁brei	-2920
▁gesp	-2921
▁lehr	-2922
▁schr	-2923
ettern	-2924
haufen	-2925
▁akust	-2926
▁begut	-2927
▁besen	-2928
▁dreck	-2929
▁geben	-2930
▁matte	-2931
gewicht	-2932
▁angelt	-2933
▁feiern	-2934
▁karren	-2935
▁karten	-2936
▁kochen	-2937
▁schöne	-2938
▁zement	-2939
▁drachen	-2940
▁gleitet	-2941
▁paddelt	-2942
▁präsent	-2943
▁rolltre	-2944
▁schnurr	-2945
▁schreit	-2946
▁schäfer	-2947
▁überprü	-2948
▁benutzen	-2949
▁geschirr	-2950
▁keyboard	-2951
▁rettungs	-2952
▁tätowier	-2953
▁glücklich	-2954
▁sitzenden	-2955
▁transport	-2956
▁waldgebiet	-2957
▁hellhäutiger	-2958
▁neoprenanzug	-2959
▁arbeitskleidung	-2960
hö	-2961
kan	-2962
mus	-2963
öhn	-2964
▁fa	-2965
▁su	-2966
▁us	-2967
ance	-2968
asst	-2969
kten	-2970
ocks	-2971
unkt	-2972
älde	-2973
▁blo	-2974
▁mei	-2975
anger	-2976
chtet	-2977
neten	-2978
tform	-2979
trick	-2980
änken	-2981
▁abzu	-2982
▁anzu	-2983
▁aufs	-2984
▁disk	-2985
▁moto	-2986
▁nass	-2987
▁selt	-2988
▁verb	-2989
nehmen	-2990
▁farbe	-2991
▁feier	-2992
▁herab	-2993
▁jungs	-2994
▁kehrt	-2995
▁schwe	-2996
▁theke	-2997
chester	-2998
schnitt	-2999
zäunten	-3000
▁berges	-3001
▁bewegt	-3002
▁hundes	-3003
▁jockey	-3004
▁lehnen	-3005
▁leicht	-3006
▁modell	-3007
▁runden	-3008
▁spiels	-3009
▁vergnü	-3010
▁alleine	-3011
▁mänteln	-3012
▁rechten	-3013
▁seltsam	-3014
▁spazier	-3015
▁trommel	-3016
▁entfernt	-3017
▁handtuch	-3018
▁flughafen	-3019
▁irgendein	-3020
▁motocross	-3021
▁turnhalle	-3022
▁verkleidet	-3023
▁ärmellosen	-3024
▁nahaufnahme	-3025
▁schäferhund	-3026
▁chinesischen	-3027
▁kapuzenpulli	-3028
▁konzentriert	-3029
▁tennisschläger	-3030
▁weihnachtsbaum	-3031
ai	-3032
je	-3033
mt	-3034
ete	-3035
ker	-3036
lie	-3037
min	-3038
öte	-3039
▁rö	-3040
▁ze	-3041
grau	-3042
inie	-3043
lern	-3044
onne	-3045
▁ang	-3046
▁bie	-3047
▁dau	-3048
▁dor	-3049
▁elt	-3050
▁fau	-3051
▁füt	-3052
▁häu	-3053
▁kla	-3054
▁not	-3055
benen	-3056
ittel	-3057
onstr	-3058
rücke	-3059
statt	-3060
äsern	-3061
▁brot	-3062
▁deut	-3063
▁oper	-3064
▁rast	-3065
▁serv	-3066
gerüst	-3067
strand	-3068
tasche	-3069
▁folgt	-3070
▁gräbt	-3071
▁jagen	-3072
▁kamel	-3073
▁müllt	-3074
▁schub	-3075
▁segel	-3076
▁tromp	-3077
▁ballon	-3078
▁fahrer	-3079
▁fläche	-3080
▁kalten	-3081
▁ketten	-3082
▁koffer	-3083
▁körper	-3084
▁lassen	-3085
▁namens	-3086
▁schiff	-3087
▁schwer	-3088
▁soldat	-3089
▁stapel	-3090
▁violet	-3091
▁angelru	-3092
▁braunes	-3093
▁offenem	-3094
▁speisen	-3095
▁werbung	-3096
▁beschäft	-3097
▁demonstr	-3098
▁entgegen	-3099
▁freizeit	-3100
▁indische	-3101
▁jemanden	-3102
▁skulptur	-3103
legestelle	-3104
▁befestigt	-3105
▁handstand	-3106
▁hochzeits	-3107
▁studenten	-3108
▁trainiert	-3109
▁lächelndes	-3110
▁rolltreppe	-3111
▁wohnzimmer	-3112
▁gegenstände	-3113
▁afrikanische	-3114
▁geschäftigen	-3115
▁weihnachtsmann	-3116
dy	-3117
ep	-3118
ama	-3119
eck	-3120
eis	-3121
ity	-3122
mal	-3123
ole	-3124
ops	-3125
ote	-3126
▁üb	-3127
ande	-3128
bern	-3129
förm	-3130
plat	-3131
uckt	-3132
▁hau	-3133
▁min	-3134
▁oze	-3135
▁pit	-3136
▁prü	-3137
▁pär	-3138
▁sen	-3139
▁vie	-3140
affel	-3141
attoo	-3142
eutel	-3143
hüter	-3144
inden	-3145
salon	-3146
szene	-3147
▁baut	-3148
▁blue	-3149
▁gang	-3150
▁gass	-3151
▁klat	-3152
▁nied	-3153
▁topf	-3154
▁zahn	-3155
anlage	-3156
laufen	-3157
männer	-3158
wegung	-3159
▁figur	-3160
▁füßen	-3161
▁hafen	-3162
▁hocke	-3163
▁hören	-3164
▁ihres	-3165
▁inlin	-3166
▁kegel	-3167
▁knien	-3168
▁labor	-3169
▁olymp	-3170
▁sicht	-3171
▁statt	-3172
▁weint	-3173
geboren	-3174
reichen	-3175
rutsche	-3176
spielen	-3177
▁beginn	-3178
▁bewölk	-3179
▁bushal	-3180
▁daumen	-3181
▁decken	-3182
▁eltern	-3183
▁geblüm	-3184
▁herbst	-3185
▁hinein	-3186
▁joggen	-3187
▁nähert	-3188
▁pfütze	-3189
▁plakat	-3190
▁spitze	-3191
▁arbeits	-3192
▁ballons	-3193
▁blondem	-3194
▁bringen	-3195
▁daneben	-3196
▁fischen	-3197
▁gelehnt	-3198
▁gemälde	-3199
▁pfosten	-3200
▁pärchen	-3201
▁steilen	-3202
▁trocken	-3203
▁komplett	-3204
▁mehrfarb	-3205
▁wandbild	-3206
▁werkzeug	-3207
▁begeister	-3208
▁hölzernen	-3209
▁picknickt	-3210
▁schaufelt	-3211
▁stehenden	-3212
▁bildschirm	-3213
▁streichelt	-3214
▁trägerhemd	-3215
▁jugendliche	-3216
▁kunststücke	-3217
▁kahlköpfiger	-3218
▁mountainbike	-3219
▁baseballkappe	-3220
▁sonnenbrillen	-3221
▁bushaltestelle	-3222
ym	-3223
adl	-3224
are	-3225
neh	-3226
tor	-3227
wen	-3228
woh	-3229
äng	-3230
▁mi	-3231
▁pe	-3232
anze	-3233
ates	-3234
buch	-3235
cket	-3236
dels	-3237
eier	-3238
ippt	-3239
ksam	-3240
othe	-3241
piel	-3242
pool	-3243
reme	-3244
samm	-3245
schm	-3246
seit	-3247
stür	-3248
▁bed	-3249
▁dün	-3250
▁eur	-3251
▁gri	-3252
▁har	-3253
▁ich	-3254
▁lon	-3255
▁süß	-3256
▁ton	-3257
allen	-3258
ampen	-3259
durch	-3260
erste	-3261
parkt	-3262
richt	-3263
rigen	-3264
schne	-3265
▁deck	-3266
▁fans	-3267
▁heiß	-3268
▁kart	-3269
▁lock	-3270
▁mess	-3271
▁pier	-3272
▁sprü	-3273
arbeit	-3274
dessen	-3275
eligen	-3276
stange	-3277
weißem	-3278
▁bauch	-3279
▁bespr	-3280
▁gassi	-3281
▁hürde	-3282
▁joggt	-3283
▁start	-3284
▁stier	-3285
▁zuhör	-3286
adlocks	-3287
händler	-3288
merksam	-3289
▁bewund	-3290
▁graben	-3291
▁hammer	-3292
▁heißen	-3293
▁kisten	-3294
▁schwei	-3295
▁selbst	-3296
▁socken	-3297
▁teilen	-3298
▁öffent	-3299
haarigen	-3300
▁geparkt	-3301
▁klavier	-3302
▁motorro	-3303
▁spritzt	-3304
▁treffen	-3305
▁behälter	-3306
▁goldenen	-3307
▁inlinesk	-3308
▁jüngeren	-3309
▁scheinen	-3310
▁zeichnet	-3311
instrument	-3312
volleyball	-3313
▁bahnsteig	-3314
▁graffitis	-3315
▁kletterer	-3316
▁skatepark	-3317
▁aufmerksam	-3318
▁dreadlocks	-3319
▁kopfhörern	-3320
▁steinmauer	-3321
▁videospiel	-3322
▁krankenhaus	-3323
▁motorrädern	-3324
▁restaurants	-3325
▁schmutzigen	-3326
▁schnurrbart	-3327
▁stadtstraße	-3328
▁langhaariger	-3329
▁wunderschönen	-3330
▁ausgestreckten	-3331
▁menschengruppe	-3332
▁zuschauermenge	-3333
▁einkaufszentrum	-3334
bu	-3335
ask	-3336
bem	-3337
rik	-3338
urf	-3339
ages	-3340
ativ	-3341
keit	-3342
klam	-3343
ückt	-3344
üten	-3345
▁get	-3346
▁kri	-3347
▁kör	-3348
▁mop	-3349
▁tut	-3350
▁wol	-3351
ahmen	-3352
ausch	-3353
eimer	-3354
rampe	-3355
stock	-3356
teams	-3357
trakt	-3358
useum	-3359
wanne	-3360
äften	-3361
▁aber	-3362
▁bunt	-3363
▁chor	-3364
▁dorf	-3365
▁eben	-3366
▁füße	-3367
▁gumm	-3368
▁kids	-3369
▁länd	-3370
▁neon	-3371
▁rede	-3372
▁stab	-3373
▁warn	-3374
gewöhn	-3375
reiche	-3376
statue	-3377
▁balls	-3378
▁brand	-3379
▁flüss	-3380
▁sandd	-3381
▁schle	-3382
▁seich	-3383
▁strom	-3384
▁typen	-3385
agieren	-3386
▁direkt	-3387
▁diskut	-3388
▁essens	-3389
▁nicker	-3390
▁passen	-3391
▁rudert	-3392
arbeitet	-3393
aschinen	-3394
▁bahnhof	-3395
▁brennen	-3396
▁fingern	-3397
▁geldbör	-3398
▁schwach	-3399
▁stellen	-3400
▁traktor	-3401
▁zeichen	-3402
▁älteres	-3403
▁gitarren	-3404
▁kreuzung	-3405
▁mädchens	-3406
bildschirm	-3407
▁einzelner	-3408
▁gesäumten	-3409
▁getränken	-3410
▁gitarrist	-3411
▁hinterhof	-3412
▁kunstwerk	-3413
▁orchester	-3414
▁rennwagen	-3415
▁silbernen	-3416
▁trainings	-3417
▁bekleidung	-3418
▁neugeboren	-3419
▁nickerchen	-3420
▁wettbewerb	-3421
▁zusammenge	-3422
▁beschäftigt	-3423
▁bowlingbahn	-3424
▁luftballons	-3425
▁nähmaschine	-3426
▁vorbeifährt	-3427
▁anlegestelle	-3428
▁rosafarbenem	-3429
▁schutzbrille	-3430
▁baseballmütze	-3431
▁amerikanischen	-3432
cl	-3433
ef	-3434
gi	-3435
ia	-3436
yl	-3437
bro	-3438
gro	-3439
out	-3440
tag	-3441
▁bi	-3442
▁em	-3443
ettr	-3444
gung	-3445
heir	-3446
ortr	-3447
renn	-3448
rock	-3449
stet	-3450
stüt	-3451
öpfe	-3452
▁bat	-3453
▁gür	-3454
▁hot	-3455
▁leg	-3456
▁piz	-3457
▁plü	-3458
▁tab	-3459
andet	-3460
ballt	-3461
cours	-3462
feren	-3463
ießen	-3464
kette	-3465
maske	-3466
orgen	-3467
rückt	-3468
▁fass	-3469
▁freu	-3470
▁herd	-3471
▁herz	-3472
▁span	-3473
▁wach	-3474
▁will	-3475
eitung	-3476
ettert	-3477
etzten	-3478
schutz	-3479
träger	-3480
wohner	-3481
zeuger	-3482
▁anhat	-3483
▁arena	-3484
▁blume	-3485
▁dicht	-3486
▁dinge	-3487
▁hütte	-3488
▁klapp	-3489
▁natur	-3490
▁ruder	-3491
▁stamm	-3492
heirate	-3493
steigen	-3494
steinen	-3495
uniform	-3496
▁balken	-3497
▁bauern	-3498
▁bänken	-3499
▁hochge	-3500
▁mittag	-3501
▁runter	-3502
▁rädern	-3503
▁schule	-3504
▁strick	-3505
▁wänden	-3506
luftball	-3507
▁beladen	-3508
▁flausch	-3509
▁lachend	-3510
▁outfits	-3511
▁verteid	-3512
automaten	-3513
▁berühren	-3514
▁gehalten	-3515
▁mithilfe	-3516
▁strohhut	-3517
▁trompete	-3518
▁windhund	-3519
▁amüsieren	-3520
▁angelrute	-3521
▁bedeckten	-3522
▁einkaufst	-3523
▁geblümten	-3524
▁gewässers	-3525
▁steinigen	-3526
▁violettem	-3527
▁bearbeitet	-3528
▁fotografen	-3529
▁kunststoff	-3530
▁marschiert	-3531
▁rucksäcken	-3532
▁städtische	-3533
▁verheirate	-3534
konstruktion	-3535
▁aufblasbaren	-3536
▁bowlingkugel	-3537
▁schlagzeuger	-3538
▁afrikanischer	-3539
▁baseballspiel	-3540
▁klettergerüst	-3541
▁regenschirmen	-3542
▁feuerwehrmänner	-3543
ga	-3544
jo	-3545
lo	-3546
ma	-3547
up	-3548
wä	-3549
ban	-3550
chn	-3551
gar	-3552
hou	-3553
kte	-3554
kun	-3555
mod	-3556
▁jo	-3557
ades	-3558
dium	-3559
door	-3560
grün	-3561
iten	-3562
ität	-3563
ival	-3564
oben	-3565
pack	-3566
rohr	-3567
säge	-3568
ären	-3569
▁ged	-3570
▁kür	-3571
▁mög	-3572
▁sow	-3573
▁spe	-3574
▁wür	-3575
draht	-3576
egten	-3577
eiger	-3578
jeans	-3579
kolle	-3580
kunft	-3581
kunst	-3582
leute	-3583
ohemd	-3584
othek	-3585
ucken	-3586
▁cafe	-3587
▁club	-3588
▁elef	-3589
▁heim	-3590
▁jack	-3591
▁kaut	-3592
▁kies	-3593
▁lied	-3594
▁löff	-3595
▁stol	-3596
▁stür	-3597
▁teig	-3598
▁trau	-3599
▁trib	-3600
▁trop	-3601
blades	-3602
chtung	-3603
hängen	-3604
kamera	-3605
outfit	-3606
seitig	-3607
treppe	-3608
vollen	-3609
ziehen	-3610
▁angeb	-3611
▁eisen	-3612
▁fahrt	-3613
▁füllt	-3614
▁glatz	-3615
▁maler	-3616
▁moped	-3617
▁noten	-3618
▁parkt	-3619
▁richt	-3620
▁stift	-3621
▁sucht	-3622
▁super	-3623
▁tafel	-3624
izieren	-3625
richten	-3626
schmuck	-3627
▁becken	-3628
▁gepark	-3629
▁größer	-3630
▁kerzen	-3631
▁lippen	-3632
▁nieder	-3633
▁setzen	-3634
▁silhou	-3635
▁steckt	-3636
sammlung	-3637
▁flachen	-3638
▁grillen	-3639
▁jüngere	-3640
▁kleider	-3641
▁outdoor	-3642
▁richtet	-3643
▁riesige	-3644
▁schlitt	-3645
ettrennen	-3646
▁freiluft	-3647
▁gespräch	-3648
▁konferen	-3649
▁kopfüber	-3650
▁offenbar	-3651
▁plastikt	-3652
▁rennauto	-3653
▁schirmen	-3654
▁schotter	-3655
▁schubkar	-3656
▁schwenkt	-3657
▁bluejeans	-3658
▁bordstein	-3659
▁geschmink	-3660
▁kariertem	-3661
▁operation	-3662
▁plattform	-3663
▁wasserski	-3664
issenschaft	-3665
▁abendessen	-3666
▁bestehende	-3667
▁sandstrand	-3668
▁schwimmbad	-3669
▁flüssigkeit	-3670
▁fußballfeld	-3671
▁gegenseitig	-3672
▁schlafanzug	-3673
▁zeitschrift	-3674
▁dunkelblauen	-3675
▁heißluftball	-3676
▁mannschaften	-3677
▁rollerblades	-3678
▁beigefarbenen	-3679
▁picknicktisch	-3680
▁straßenhändler	-3681
kä	-3682
pt	-3683
aff	-3684
bli	-3685
dog	-3686
een	-3687
fri	-3688
hau	-3689
ian	-3690
ieß	-3691
igh	-3692
ika	-3693
kul	-3694
pel	-3695
rok	-3696
une	-3697
utt	-3698
way	-3699
▁ra	-3700
burg	-3701
kopf	-3702
riff	-3703
seur	-3704
sitz	-3705
spar	-3706
spre	-3707
trie	-3708
äser	-3709
▁akt	-3710
▁app	-3711
▁ast	-3712
▁kom	-3713
▁lim	-3714
▁mat	-3715
▁pel	-3716
▁pin	-3717
▁red	-3718
▁tal	-3719
▁ähn	-3720
essel	-3721
itter	-3722
recht	-3723
schwe	-3724
waren	-3725
ämmer	-3726
üssel	-3727
▁dazu	-3728
▁esel	-3729
▁fegt	-3730
▁hart	-3731
▁high	-3732
▁indi	-3733
▁kalb	-3734
▁noch	-3735
▁puck	-3736
▁quad	-3737
▁robe	-3738
▁show	-3739
brücke	-3740
werfer	-3741
▁beißt	-3742
▁bogen	-3743
▁erleu	-3744
▁fahne	-3745
▁hilfe	-3746
▁malen	-3747
▁produ	-3748
▁rauch	-3749
▁vorne	-3750
artigen	-3751
ationen	-3752
konzert	-3753
köpfige	-3754
richtet	-3755
urtstag	-3756
▁altmod	-3757
▁bunter	-3758
▁dudels	-3759
▁feiert	-3760
▁fertig	-3761
▁findet	-3762
▁gepunk	-3763
▁herren	-3764
▁kreide	-3765
▁lehrer	-3766
▁london	-3767
▁palmen	-3768
▁röcken	-3769
▁schlen	-3770
▁sommer	-3771
▁tauben	-3772
▁tricks	-3773
▁umhang	-3774
skulptur	-3775
springen	-3776
▁absperr	-3777
▁ballett	-3778
▁füttert	-3779
▁paddeln	-3780
▁rauchen	-3781
▁schwert	-3782
▁wandern	-3783
▁brandung	-3784
▁grimasse	-3785
▁interess	-3786
▁planscht	-3787
▁reinigen	-3788
▁sanddüne	-3789
▁schweißt	-3790
▁sängerin	-3791
▁turnerin	-3792
▁ungewöhn	-3793
▁bewölkten	-3794
▁geldbörse	-3795
▁schreiben	-3796
▁surfboard	-3797
▁verkäufer	-3798
instrumente	-3799
▁entspannen	-3800
▁geburtstag	-3801
▁geschäften	-3802
▁grasfläche	-3803
▁jeansjacke	-3804
▁sportwagen	-3805
▁trainieren	-3806
▁waschsalon	-3807
▁wettrennen	-3808
mannschaften	-3809
▁begutachtet	-3810
▁marschieren	-3811
▁süßigkeiten	-3812
▁untersuchen	-3813
▁farbenfroher	-3814
▁wissenschaft	-3815
▁feuerwehrmann	-3816
▁spielkleidung	-3817
▁wasserflasche	-3818
▁dunkelhaariger	-3819
▁frisbeescheibe	-3820
▁ä	-3821
amb	-3822
ble	-3823
ign	-3824
nch	-3825
nem	-3826
ott	-3827
stö	-3828
üff	-3829
▁ör	-3830
bein	-3831
bert	-3832
dler	-3833
eise	-3834
foto	-3835
heim	-3836
hten	-3837
izin	-3838
kurs	-3839
trag	-3840
voll	-3841
wurf	-3842
zelt	-3843
zern	-3844
äuft	-3845
▁pat	-3846
▁rie	-3847
▁spü	-3848
alung	-3849
etzte	-3850
feuer	-3851
figur	-3852
flekt	-3853
genen	-3854
kreuz	-3855
mitgl	-3856
olgen	-3857
usses	-3858
▁bass	-3859
▁eisc	-3860
▁floß	-3861
▁flur	-3862
▁glat	-3863
▁insp	-3864
▁näht	-3865
▁prob	-3866
▁punk	-3867
▁steu	-3868
braune	-3869
gebrei	-3870
henden	-3871
nehmer	-3872
sammen	-3873
studio	-3874
ternen	-3875
ussell	-3876
zenden	-3877
▁aufzu	-3878
▁beine	-3879
▁bückt	-3880
▁engen	-3881
▁europ	-3882
▁flach	-3883
▁graue	-3884
▁kompl	-3885
▁kugel	-3886
▁ohren	-3887
▁piste	-3888
▁stufe	-3889
▁säugl	-3890
▁viell	-3891
▁vögel	-3892
agessen	-3893
▁bandan	-3894
▁baumes	-3895
▁dritte	-3896
▁einrad	-3897
▁faulen	-3898
▁fernse	-3899
▁indian	-3900
▁jubeln	-3901
▁kapuze	-3902
▁kontro	-3903
▁köpfen	-3904
▁marine	-3905
▁messer	-3906
▁moment	-3907
▁obdach	-3908
▁podium	-3909
▁reklam	-3910
▁saiten	-3911
▁schulk	-3912
▁seilen	-3913
▁treibt	-3914
▁welpen	-3915
▁wischt	-3916
bemalung	-3917
flugzeug	-3918
geworfen	-3919
▁akustik	-3920
▁bewegen	-3921
▁büschen	-3922
▁gefüllt	-3923
▁kricket	-3924
▁medizin	-3925
▁sammelt	-3926
▁schmuck	-3927
▁stangen	-3928
▁theater	-3929
▁violine	-3930
▁waldweg	-3931
▁befahren	-3932
▁bekommen	-3933
▁festhält	-3934
▁flaschen	-3935
▁gleichen	-3936
▁maulkorb	-3937
▁stehende	-3938
▁torhüter	-3939
▁verlässt	-3940
▁ausgebrei	-3941
▁badewanne	-3942
▁beisammen	-3943
▁bespritzt	-3944
▁bewundert	-3945
▁elefanten	-3946
▁scheinbar	-3947
▁schildern	-3948
▁überprüft	-3949
▁herunterge	-3950
▁motorräder	-3951
▁regenbogen	-3952
▁schubkarre	-3953
▁silhouette	-3954
▁straßenmus	-3955
▁vielleicht	-3956
▁zahlreiche	-3957
▁aufgestellt	-3958
▁diskutieren	-3959
▁klassenraum	-3960
▁mittagessen	-3961
▁motorroller	-3962
▁verkleidete	-3963
▁ziegelmauer	-3964
▁übergewicht	-3965
▁blumenmuster	-3966
▁eingezäunten	-3967
▁fahrgeschäft	-3968
▁orangefarbene	-3969
▁sportkleidung	-3970
▁teenageralter	-3971
▁afroamerikaner	-3972
▁basketballspiel	-3973
hm	-3974
ail	-3975
akd	-3976
ari	-3977
bas	-3978
dig	-3979
han	-3980
ial	-3981
jek	-3982
kal	-3983
ola	-3984
stä	-3985
urm	-3986
ven	-3987
wir	-3988
ymn	-3989
zin	-3990
äne	-3991
▁mu	-3992
anke	-3993
arzt	-3994
back	-3995
bare	-3996
biet	-3997
eile	-3998
eist	-3999
ernt	-4000
flie	-4001
hlet	-4002
höri	-4003
ielt	-4004
ikul	-4005
kann	-4006
putz	-4007
ufer	-4008
wich	-4009
zten	-4010
▁ans	-4011
▁dah	-4012
▁fal	-4013
▁fit	-4014
▁umr	-4015
▁web	-4016
abrik	-4017
ainer	-4018
block	-4019
boten	-4020
decke	-4021
dress	-4022
essen	-4023
ieben	-4024
kante	-4025
karte	-4026
mitar	-4027
nimmt	-4028
ommen	-4029
orter	-4030
ossen	-4031
▁bike	-4032
▁bill	-4033
▁camp	-4034
▁fein	-4035
▁gymn	-4036
▁hier	-4037
▁irok	-4038
▁kran	-4039
▁neue	-4040
▁rohr	-4041
▁töpf	-4042
▁türk	-4043
▁webt	-4044
▁zuge	-4045
apelle	-4046
balltr	-4047
ession	-4048
iertes	-4049
schaut	-4050
wäsche	-4051
zeitig	-4052
▁bevor	-4053
▁bibli	-4054
▁boots	-4055
▁colle	-4056
▁kiste	-4057
▁köche	-4058
▁leger	-4059
▁pfadf	-4060
▁profi	-4061
▁rande	-4062
▁rosar	-4063
einwand	-4064
▁achter	-4065
▁breakd	-4066
▁bühnen	-4067
▁clowns	-4068
▁geschw	-4069
▁hotdog	-4070
▁landet	-4071
▁locken	-4072
▁löffel	-4073
▁museum	-4074
▁poster	-4075
▁ringer	-4076
▁wendet	-4077
▁zöpfen	-4078
förmigen	-4079
gebäudes	-4080
gelassen	-4081
geländer	-4082
kostümen	-4083
mitarbei	-4084
ämmerung	-4085
▁attrakt	-4086
▁bandana	-4087
▁beginnt	-4088
▁drinnen	-4089
▁gehende	-4090
▁greifen	-4091
▁gymnast	-4092
▁häusern	-4093
▁kameras	-4094
▁maschen	-4095
▁reflekt	-4096
▁ruhigen	-4097
▁starren	-4098
▁tablett	-4099
spielerin	-4100
spielzeug	-4101
▁aussicht	-4102
▁ballerin	-4103
▁blättern	-4104
▁einsamer	-4105
▁elektron	-4106
▁fahrrads	-4107
▁farbigen	-4108
▁fernglas	-4109
▁gestikul	-4110
▁hindurch	-4111
▁irokesen	-4112
▁lockigen	-4113
▁nächsten	-4114
▁schieben	-4115
▁streifen	-4116
▁trommeln	-4117
▁verdeckt	-4118
▁dudelsack	-4119
▁gewändern	-4120
▁grimassen	-4121
▁indischer	-4122
▁radrennen	-4123
▁schaufeln	-4124
▁stehender	-4125
▁stirnband	-4126
▁teilweise	-4127
geschnitten	-4128
▁asiatinnen	-4129
▁aufführung	-4130
▁bibliothek	-4131
▁innenstadt	-4132
▁ländlichen	-4133
▁marktplatz	-4134
▁mitglieder	-4135
▁vorbeigeht	-4136
▁zubereitet	-4137
▁aussehenden	-4138
▁entlanggeht	-4139
▁gestreiftes	-4140
▁rosafarbene	-4141
▁rothaariges	-4142
▁gleichzeitig	-4143
▁maschendraht	-4144
▁neugeborenes	-4145
▁sonnenschirm	-4146
▁glatzköpfiger	-4147
▁khakifarbenen	-4148
▁akustikgitarre	-4149
▁reifenschaukel	-4150
▁rettungswesten	-4151
▁snowboardfahrer	-4152
▁tennisspielerin	-4153
fo	-4154
go	-4155
pa	-4156
pl	-4157
öt	-4158
ami	-4159
ane	-4160
flü	-4161
hes	-4162
irl	-4163
itr	-4164
ool	-4165
weh	-4166
wel	-4167
wie	-4168
▁ba	-4169
▁mc	-4170
▁py	-4171
▁sw	-4172
▁sy	-4173
abel	-4174
bett	-4175
biss	-4176
blät	-4177
ersp	-4178
etze	-4179
gest	-4180
jung	-4181
line	-4182
länd	-4183
mern	-4184
ofon	-4185
otiv	-4186
ustr	-4187
äste	-4188
▁ble	-4189
▁dri	-4190
▁erh	-4191
▁erw	-4192
▁ess	-4193
▁pil	-4194
▁trü	-4195
anner	-4196
gebil	-4197
haube	-4198
ichte	-4199
ivers	-4200
küche	-4201
loser	-4202
onnen	-4203
orden	-4204
racht	-4205
spark	-4206
sseln	-4207
stuch	-4208
werke	-4209
▁burg	-4210
▁cell	-4211
▁fack	-4212
▁krab	-4213
▁rund	-4214
▁sack	-4215
▁sort	-4216
▁unge	-4217
▁verd	-4218
▁wake	-4219
etafel	-4220
fangen	-4221
führen	-4222
grauen	-4223
hockey	-4224
istole	-4225
kasten	-4226
lichem	-4227
liegen	-4228
menade	-4229
orange	-4230
orträt	-4231
shorts	-4232
stisch	-4233
▁asien	-4234
▁auszu	-4235
▁feder	-4236
▁flöte	-4237
▁hotel	-4238
▁karte	-4239
▁leckt	-4240
▁ozean	-4241
▁sowie	-4242
▁szene	-4243
▁trock	-4244
▁wange	-4245
fahrrad	-4246
schauen	-4247
▁abends	-4248
▁bilden	-4249
▁brauen	-4250
▁bällen	-4251
▁fallen	-4252
▁jubelt	-4253
▁kindes	-4254
▁labork	-4255
▁liefer	-4256
▁manche	-4257
▁mützen	-4258
▁rechte	-4259
▁sauber	-4260
▁stofft	-4261
▁stühle	-4262
▁tattoo	-4263
▁turban	-4264
klettern	-4265
lichkeit	-4266
streifen	-4267
▁college	-4268
▁friseur	-4269
▁händler	-4270
▁papiere	-4271
▁pitcher	-4272
▁stehend	-4273
▁trainer	-4274
▁tribüne	-4275
▁vortrag	-4276
▁wasserm	-4277
▁eingesch	-4278
▁gemuster	-4279
▁golfball	-4280
▁halstuch	-4281
▁händchen	-4282
▁klatscht	-4283
▁pflaster	-4284
▁schilder	-4285
▁streicht	-4286
▁verkehrs	-4287
▁wassersp	-4288
rennfahrer	-4289
wettbewerb	-4290
▁barfüßige	-4291
▁geparkten	-4292
▁gewickelt	-4293
▁gymnastik	-4294
▁handschuh	-4295
▁mülltonne	-4296
▁schaukeln	-4297
▁werkstatt	-4298
mitarbeiter	-4299
▁achterbahn	-4300
▁badezimmer	-4301
▁kettensäge	-4302
▁luftballon	-4303
▁pferdeschw	-4304
▁radfahrern	-4305
▁ausgestellt	-4306
▁bauarbeiten	-4307
▁beleuchtung	-4308
▁langhaarige	-4309
▁olympischen	-4310
▁plastiktüte	-4311
▁strickmütze	-4312
▁versammlung	-4313
▁vorbereitet	-4314
▁gestikuliert	-4315
▁inlineskates	-4316
▁rosafarbener	-4317
▁unbefestigte	-4318
▁verheiratetes	-4319
▁marathonläufer	-4320
bh	-4321
bü	-4322
fä	-4323
ra	-4324
äg	-4325
bal	-4326
häu	-4327
krä	-4328
oga	-4329
org	-4330
reg	-4331
rob	-4332
sau	-4333
sse	-4334
urn	-4335
▁dj	-4336
▁sl	-4337
aush	-4338
elbe	-4339
emon	-4340
eten	-4341
ital	-4342
peri	-4343
rauß	-4344
rill	-4345
tens	-4346
ungl	-4347
weis	-4348
▁ant	-4349
▁asp	-4350
▁bam	-4351
▁bro	-4352
▁erz	-4353
▁kie	-4354
▁kit	-4355
▁los	-4356
▁mün	-4357
▁rik	-4358
▁san	-4359
▁uhr	-4360
▁usa	-4361
▁wen	-4362
ambur	-4363
anien	-4364
arter	-4365
donal	-4366
enken	-4367
falls	-4368
feier	-4369
llern	-4370
läuft	-4371
nisse	-4372
ummel	-4373
unken	-4374
unnel	-4375
▁bohr	-4376
▁eisw	-4377
▁film	-4378
▁glän	-4379
▁hüte	-4380
▁kell	-4381
▁knei	-4382
▁lass	-4383
▁post	-4384
▁rost	-4385
▁tank	-4386
▁ungl	-4387
▁wahr	-4388
▁yoga	-4389
balken	-4390
blauem	-4391
eignis	-4392
hammer	-4393
ienten	-4394
igiert	-4395
indern	-4396
iziert	-4397
kelten	-4398
kuchen	-4399
reiter	-4400
stüten	-4401
wehrau	-4402
üffelt	-4403
▁akrob	-4404
▁altes	-4405
▁banjo	-4406
▁beach	-4407
▁bräun	-4408
▁bälle	-4409
▁cello	-4410
▁draht	-4411
▁engel	-4412
▁kette	-4413
▁köpfe	-4414
▁legen	-4415
▁lernt	-4416
▁linie	-4417
▁möbel	-4418
▁nebel	-4419
▁packt	-4420
▁prüft	-4421
▁pudel	-4422
▁snack	-4423
▁türen	-4424
▁watet	-4425
▁welpe	-4426
brocken	-4427
eingang	-4428
hobenen	-4429
ständer	-4430
öffnung	-4431
▁anweis	-4432
▁bahngl	-4433
▁bambus	-4434
▁besitz	-4435
▁besuch	-4436
▁blasen	-4437
▁booten	-4438
▁fabrik	-4439
▁fänger	-4440
▁hellro	-4441
▁hocker	-4442
▁inform	-4443
▁inline	-4444
▁katzen	-4445
▁passag	-4446
▁putzen	-4447
▁riksch	-4448
▁schafe	-4449
▁schuss	-4450
▁suchen	-4451
▁säulen	-4452
▁türkis	-4453
▁verste	-4454
▁werfer	-4455
angehöri	-4456
bereiten	-4457
gebunden	-4458
gestreif	-4459
schlauch	-4460
wegungen	-4461
▁ansieht	-4462
▁asphalt	-4463
▁bedruck	-4464
▁cowboys	-4465
▁dreirad	-4466
▁dunklem	-4467
▁einheim	-4468
▁fliesen	-4469
▁gebeugt	-4470
▁geräten	-4471
▁haltung	-4472
▁heraush	-4473
▁jackett	-4474
▁kellner	-4475
▁knöpfen	-4476
▁kümmert	-4477
▁mcdonal	-4478
▁treiben	-4479
▁violett	-4480
▁waschen	-4481
▁wirbelt	-4482
bedeckten	-4483
gungspark	-4484
schriften	-4485
▁anhänger	-4486
▁aufgerei	-4487
▁aufnahme	-4488
▁autobahn	-4489
▁bemalten	-4490
▁bewegung	-4491
▁fischern	-4492
▁freundin	-4493
▁produkte	-4494
▁sandigen	-4495
▁sandwich	-4496
▁schleife	-4497
▁schnitzt	-4498
▁tänzerin	-4499
basketball	-4500
sellschaft	-4501
▁angeboten	-4502
▁bandmitgl	-4503
▁begleitet	-4504
▁betonwand	-4505
▁computern	-4506
▁einkäufer	-4507
▁konferenz	-4508
▁rückwärts	-4509
▁schwingen	-4510
▁schüsseln	-4511
▁wassermel	-4512
▁aneinander	-4513
▁breakdance	-4514
▁gesichtern	-4515
▁geöffneten	-4516
▁glänzenden	-4517
▁kunstwerke	-4518
▁männliches	-4519
▁pfadfinder	-4520
instrumenten	-4521
▁badeanzügen	-4522
▁gepunkteten	-4523
▁gestreifter	-4524
▁hellhäutige	-4525
▁herumstehen	-4526
▁lieferwagen	-4527
▁mitarbeiter	-4528
▁schneeanzug	-4529
▁spaziergang	-4530
▁spielerisch	-4531
▁sprungbrett	-4532
▁treppenhaus	-4533
▁tätowierung	-4534
▁verschneite	-4535
▁waschbecken	-4536
▁schwimmweste	-4537
▁tarnkleidung	-4538
▁mountainbiker	-4539
▁treppenstufen	-4540
▁tätowierungen	-4541
▁feuerwehrleute	-4542
▁heißluftballon	-4543
▁schwarzhaarige	-4544
▁traditionellen	-4545
▁trainingsanzug	-4546
▁vergnügungspark	-4547
ca	-4548
io	-4549
ks	-4550
vr	-4551
ys	-4552
za	-4553
aal	-4554
ace	-4555
als	-4556
bie	-4557
how	-4558
ims	-4559
iss	-4560
kör	-4561
opf	-4562
ous	-4563
ppt	-4564
ube	-4565
uth	-4566
vie	-4567
▁lu	-4568
▁nu	-4569
▁wi	-4570
▁zy	-4571
elig	-4572
ennt	-4573
fers	-4574
fert	-4575
ffiz	-4576
heke	-4577
iers	-4578
itor	-4579
llig	-4580
lten	-4581
lust	-4582
lzen	-4583
ring	-4584
show	-4585
stap	-4586
uder	-4587
vent	-4588
vers	-4589
weil	-4590
zune	-4591
ächt	-4592
ände	-4593
▁boo	-4594
▁con	-4595
▁del	-4596
▁ern	-4597
▁lau	-4598
▁mal	-4599
▁ord	-4600
▁pon	-4601
▁sat	-4602
▁spä	-4603
▁sub	-4604
▁tee	-4605
▁vol	-4606
agger	-4607
allow	-4608
annen	-4609
blick	-4610
iefel	-4611
inten	-4612
mäher	-4613
stimm	-4614
ächer	-4615
ücken	-4616
▁arzt	-4617
▁auge	-4618
▁beam	-4619
▁city	-4620
▁dock	-4621
▁halt	-4622
▁hohe	-4623
▁home	-4624
▁horn	-4625
▁john	-4626
▁kast	-4627
▁klar	-4628
▁krat	-4629
▁krie	-4630
▁legg	-4631
▁live	-4632
▁ofen	-4633
▁papp	-4634
▁pelz	-4635
▁smok	-4636
▁soll	-4637
▁spär	-4638
▁verm	-4639
▁warm	-4640
▁weil	-4641
▁woll	-4642
▁zebr	-4643
graben	-4644
imming	-4645
klippe	-4646
linder	-4647
objekt	-4648
rücken	-4649
spannt	-4650
weißes	-4651
werker	-4652
▁apfel	-4653
▁babys	-4654
▁biker	-4655
▁einzu	-4656
▁fecht	-4657
▁gesen	-4658
▁helme	-4659
▁hoher	-4660
▁indem	-4661
▁inner	-4662
▁jeder	-4663
▁kante	-4664
▁kerle	-4665
▁knall	-4666
▁liege	-4667
▁netze	-4668
▁objek	-4669
▁paare	-4670
▁ruhen	-4671
▁stahl	-4672
▁stolz	-4673
▁stunt	-4674
▁stößt	-4675
▁tiere	-4676
▁urein	-4677
▁waffe	-4678
▁wette	-4679
▁ziell	-4680
▁übers	-4681
bändern	-4682
fußball	-4683
ierende	-4684
projekt	-4685
springt	-4686
▁banner	-4687
▁bietet	-4688
▁drückt	-4689
▁erzeug	-4690
▁freude	-4691
▁gürtel	-4692
▁karton	-4693
▁kragen	-4694
▁kürbis	-4695
▁muster	-4696
▁oberen	-4697
▁perlen	-4698
▁rahmen	-4699
▁redner	-4700
▁rudern	-4701
▁schaum	-4702
▁shirts	-4703
▁stöcke	-4704
▁surfen	-4705
▁töpfer	-4706
▁zucker	-4707
behälter	-4708
farbigen	-4709
genommen	-4710
kollegen	-4711
periment	-4712
spielern	-4713
sprecher	-4714
unkelten	-4715
wehrauto	-4716
zunehmen	-4717
▁besteht	-4718
▁blocken	-4719
▁einsatz	-4720
▁felsvor	-4721
▁früchte	-4722
▁gemacht	-4723
▁gläsern	-4724
▁kaffeet	-4725
▁laptops	-4726
▁löschen	-4727
▁nachbar	-4728
▁oranger	-4729
▁plüscht	-4730
▁porträt	-4731
▁sammeln	-4732
▁scheibe	-4733
▁schnapp	-4734
▁schwebt	-4735
▁stammes	-4736
▁strumpf	-4737
▁unorden	-4738
▁überall	-4739
andschaft	-4740
arterback	-4741
schwimmen	-4742
wettkampf	-4743
▁eiscreme	-4744
▁gehender	-4745
▁holzbank	-4746
▁jüngerer	-4747
▁picknick	-4748
▁rutschen	-4749
▁schminkt	-4750
▁serviert	-4751
▁spärlich	-4752
▁säugling	-4753
▁verteilt	-4754
▁webstuhl	-4755
▁zylinder	-4756
ansammlung	-4757
balltrikot	-4758
immingpool	-4759
▁ballerina	-4760
▁bekleidet	-4761
▁eisenbahn	-4762
▁erklimmen	-4763
▁gefüllten	-4764
▁karussell	-4765
▁kastanien	-4766
▁kleineren	-4767
▁möglicher	-4768
▁obststand	-4769
▁passenden	-4770
▁rollschuh	-4771
▁schütteln	-4772
▁seltsamen	-4773
▁verwenden	-4774
▁örtlichen	-4775
ausstellung	-4776
▁abgestellt	-4777
▁abgeworfen	-4778
▁bekleidete	-4779
▁brettspiel	-4780
▁fußgängern	-4781
▁gesprungen	-4782
▁männlichen	-4783
▁schlagmann	-4784
▁teilnehmen	-4785
▁teilnehmer	-4786
▁türöffnung	-4787
▁untergrund	-4788
▁bekleideter	-4789
▁flauschiger	-4790
▁geschnitten	-4791
▁japanischen	-4792
▁kleinkinder	-4793
▁laborkittel	-4794
▁leuchtenden	-4795
▁mittelalter	-4796
▁präsentiert	-4797
▁turnschuhen	-4798
▁ureinwohner	-4799
▁vorderseite	-4800
▁wasserspren	-4801
▁fußballdress	-4802
▁gegenständen	-4803
▁geländewagen	-4804
▁jugendlichen	-4805
▁krankenschwe	-4806
▁pinkfarbener	-4807
▁wunderschöne	-4808
▁braunhaariger	-4809
▁langärmeligen	-4810
▁lebensmitteln	-4811
▁orientalische	-4812
▁pferdeschwanz	-4813
▁transportiert	-4814
▁wasserrutsche	-4815
▁einkaufstasche	-4816
▁möglicherweise	-4817
▁silberfarbenen	-4818
▁beachvolleyball	-4819
kn	-4820
zw	-4821
zz	-4822
bür	-4823
ffe	-4824
fig	-4825
ike	-4826
oss	-4827
pla	-4828
por	-4829
ump	-4830
wol	-4831
äte	-4832
▁lä	-4833
▁är	-4834
ache	-4835
alde	-4836
atet	-4837
elte	-4838
esse	-4839
flip	-4840
gabe	-4841
getr	-4842
iene	-4843
ierc	-4844
isse	-4845
legt	-4846
llie	-4847
mitt	-4848
mpft	-4849
nchr	-4850
netz	-4851
odie	-4852
pfad	-4853
raft	-4854
reis	-4855
rift	-4856
saal	-4857
stor	-4858
ücke	-4859
▁aqu	-4860
▁bon	-4861
▁bün	-4862
▁end	-4863
▁fle	-4864
▁hab	-4865
▁haw	-4866
▁hor	-4867
▁lin	-4868
▁mod	-4869
▁pir	-4870
▁tie	-4871
▁tim	-4872
▁uns	-4873
asken	-4874
bchen	-4875
derby	-4876
digen	-4877
front	-4878
hause	-4879
heben	-4880
hoben	-4881
iften	-4882
ilden	-4883
ister	-4884
istor	-4885
kisen	-4886
lafen	-4887
lampe	-4888
mmern	-4889
motiv	-4890
pferd	-4891
puppe	-4892
raten	-4893
schil	-4894
ssaal	-4895
wandt	-4896
▁aufw	-4897
▁bull	-4898
▁eier	-4899
▁einf	-4900
▁ente	-4901
▁font	-4902
▁grin	-4903
▁jeep	-4904
▁kauf	-4905
▁kick	-4906
▁kilt	-4907
▁kühl	-4908
▁lich	-4909
▁matr	-4910
▁pull	-4911
▁rode	-4912
▁röhr	-4913
▁sieg	-4914
▁skil	-4915
▁tenn	-4916
▁toil	-4917
▁trot	-4918
▁turm	-4919
▁verh	-4920
alerie	-4921
becher	-4922
beinen	-4923
blickt	-4924
bürste	-4925
crosse	-4926
emonie	-4927
feuert	-4928
garten	-4929
gelegt	-4930
gitter	-4931
iedens	-4932
ierung	-4933
ischem	-4934
jacken	-4935
kräfte	-4936
rechen	-4937
reicht	-4938
sauger	-4939
schiff	-4940
trikot	-4941
wander	-4942
äumten	-4943
üchern	-4944
▁block	-4945
▁board	-4946
▁deren	-4947
▁drink	-4948
▁filmt	-4949
▁formt	-4950
▁gehör	-4951
▁geste	-4952
▁gummi	-4953
▁herrn	-4954
▁kanad	-4955
▁kasse	-4956
▁kurze	-4957
▁lasso	-4958
▁ließt	-4959
▁pfeil	-4960
▁puppe	-4961
▁relig	-4962
▁sprüh	-4963
▁stern	-4964
▁sumpf	-4965
▁säule	-4966
ckenden	-4967
gläsern	-4968
steiger	-4969
trägern	-4970
viertel	-4971
▁aufzug	-4972
▁bootes	-4973
▁bruder	-4974
▁eimern	-4975
▁erhält	-4976
▁fischt	-4977
▁frisur	-4978
▁hallen	-4979
▁histor	-4980
▁hochzu	-4981
▁jeweil	-4982
▁kauert	-4983
▁klasse	-4984
▁kratzt	-4985
▁kurzem	-4986
▁körben	-4987
▁lampen	-4988
▁leucht	-4989
▁mischt	-4990
▁morgen	-4991
▁nasser	-4992
▁partie	-4993
▁regner	-4994
▁rollen	-4995
▁schutt	-4996
▁synchr	-4997
▁tracht	-4998
▁trifft	-4999
▁unfall	-5000
▁wieder	-5001
▁wolken	-5002
gebildet	-5003
schlagen	-5004
schüssel	-5005
springer	-5006
▁akrobat	-5007
▁bewalde	-5008
▁bildern	-5009
▁fremden	-5010
▁gefolgt	-5011
▁gesehen	-5012
▁gleisen	-5013
▁kostüme	-5014
▁meisten	-5015
▁pflanze	-5016
▁rikscha	-5017
▁schneit	-5018
▁schrift	-5019
▁stelzen	-5020
▁strands	-5021
▁stöcken	-5022
▁tomaten	-5023
uniformen	-5024
zeichnung	-5025
▁amüsiert	-5026
▁erdhügel	-5027
▁friedens	-5028
▁fröhlich	-5029
▁größeren	-5030
▁herkunft	-5031
▁holzzaun	-5032
▁lachende	-5033
▁lacrosse	-5034
▁laternen	-5035
▁leggings	-5036
▁leinwand	-5037
▁overalls	-5038
▁rücksitz	-5039
▁strecken	-5040
▁vergnügt	-5041
landschaft	-5042
▁aufgeregt	-5043
▁bestellen	-5044
▁burgunder	-5045
▁dämmerung	-5046
▁ebenfalls	-5047
▁einkaufen	-5048
▁erreichen	-5049
▁halskette	-5050
▁holzboden	-5051
▁kleidungs	-5052
▁liegenden	-5053
▁maschinen	-5054
▁mülleimer	-5055
▁niedrigen	-5056
▁rückseite	-5057
▁schaulust	-5058
▁schmetter	-5059
▁staubigen	-5060
▁streichen	-5061
▁verbunden	-5062
▁zeremonie	-5063
▁ziellinie	-5064
▁abgebildet	-5065
▁angebracht	-5066
▁aufgereiht	-5067
▁entfernung	-5068
▁fliegenden	-5069
▁handschuhe	-5070
▁klappstuhl	-5071
▁lagerfeuer	-5072
▁landstraße	-5073
▁lächelnden	-5074
▁motorhaube	-5075
▁richtungen	-5076
▁stromschne	-5077
▁ziegelwand	-5078
▁ausstellung	-5079
▁bergsteiger	-5080
▁erzeugnisse	-5081
▁essensstand	-5082
▁fahrradhelm	-5083
▁gitarristen	-5084
▁obdachloser	-5085
▁schulkinder	-5086
▁unterwäsche	-5087
▁vorrichtung	-5088
▁blondhaarige	-5089
▁festgebunden	-5090
▁freizeitpark	-5091
▁präsentation	-5092
▁reflektieren	-5093
▁regnerischen	-5094
▁schlauchboot	-5095
▁swimmingpool	-5096
▁unterrichtet	-5097
▁afrikanischen	-5098
▁eingeschlafen	-5099
▁schneeschuhen	-5100
▁ziegelsteinen	-5101
▁schutzkleidung	-5102
▁ungewöhnlichen	-5103
▁unordentlichen	-5104
▁öffentlichkeit	-5105
▁übergewichtiger	-5106
iö	-5107
nä	-5108
vi	-5109
ata	-5110
car	-5111
cre	-5112
enk	-5113
frü	-5114
ieb	-5115
inz	-5116
ish	-5117
kas	-5118
kla	-5119
kle	-5120
les	-5121
mon	-5122
mpf	-5123
osk	-5124
rig	-5125
rot	-5126
set	-5127
tür	-5128
uhr	-5129
öst	-5130
üge	-5131
▁go	-5132
▁hy	-5133
anen	-5134
arty	-5135
chan	-5136
club	-5137
cont	-5138
dent	-5139
dose	-5140
dukt	-5141
eman	-5142
enen	-5143
ersk	-5144
ffel	-5145
fält	-5146
hack	-5147
hirt	-5148
hoch	-5149
holz	-5150
horn	-5151
ipfl	-5152
kmal	-5153
laub	-5154
malt	-5155
mart	-5156
okol	-5157
olen	-5158
paar	-5159
schr	-5160
▁bud	-5161
▁bzw	-5162
▁dig	-5163
▁elm	-5164
▁eng	-5165
▁fas	-5166
▁gla	-5167
▁lei	-5168
▁mel	-5169
▁pop	-5170
▁sal	-5171
▁tem	-5172
▁top	-5173
adung	-5174
affen	-5175
ammen	-5176
armon	-5177
auten	-5178
bbelt	-5179
blase	-5180
bühne	-5181
chsen	-5182
dreht	-5183
ehren	-5184
gaben	-5185
gramm	-5186
inner	-5187
izont	-5188
kohol	-5189
maler	-5190
mitte	-5191
offen	-5192
phone	-5193
schel	-5194
schür	-5195
schüt	-5196
stall	-5197
stift	-5198
süber	-5199
ärmen	-5200
ündet	-5201
▁beru	-5202
▁blas	-5203
▁chir	-5204
▁dunk	-5205
▁etwa	-5206
▁flip	-5207
▁förm	-5208
▁gedr	-5209
▁gefr	-5210
▁komm	-5211
▁lack	-5212
▁lade	-5213
▁laut	-5214
▁mäht	-5215
▁münz	-5216
▁polo	-5217
▁wart	-5218
▁wenn	-5219
▁zitr	-5220
bällen	-5221
bäumen	-5222
fernen	-5223
großen	-5224
klasse	-5225
leiter	-5226
mittag	-5227
mützen	-5228
nummer	-5229
ochten	-5230
putzer	-5231
school	-5232
tunnel	-5233
werfen	-5234
änkten	-5235
▁akten	-5236
▁ampel	-5237
▁blech	-5238
▁busch	-5239
▁china	-5240
▁daran	-5241
▁darin	-5242
▁fahrg	-5243
▁fasst	-5244
▁gabel	-5245
▁haupt	-5246
▁hawai	-5247
▁hohem	-5248
▁hohes	-5249
▁holen	-5250
▁inder	-5251
▁karto	-5252
▁kraft	-5253
▁künst	-5254
▁lampe	-5255
▁lokal	-5256
▁moder	-5257
▁notiz	-5258
▁offiz	-5259
▁peace	-5260
▁pizza	-5261
▁plate	-5262
▁pullo	-5263
▁röhre	-5264
▁schar	-5265
▁smart	-5266
▁speer	-5267
▁spinn	-5268
▁tages	-5269
▁trink	-5270
▁verbr	-5271
▁würde	-5272
▁zauns	-5273
anzeige	-5274
bietung	-5275
dachten	-5276
ipflops	-5277
isplatz	-5278
schluss	-5279
verkehr	-5280
werbung	-5281
▁bildes	-5282
▁bindet	-5283
▁diesen	-5284
▁fische	-5285
▁folgen	-5286
▁füllen	-5287
▁hallow	-5288
▁hambur	-5289
▁heller	-5290
▁hervor	-5291
▁hoodie	-5292
▁klaren	-5293
▁kneipe	-5294
▁muskul	-5295
▁platte	-5296
▁reihen	-5297
▁sattel	-5298
▁sessel	-5299
▁speise	-5300
▁spritz	-5301
▁stativ	-5302
▁steile	-5303
▁stürzt	-5304
▁völlig	-5305
▁warmen	-5306
▁öffnen	-5307
bewegung	-5308
festival	-5309
flaschen	-5310
klettert	-5311
kommenen	-5312
schienen	-5313
struktur	-5314
▁alkohol	-5315
▁anhaben	-5316
▁ausländ	-5317
▁besucht	-5318
▁brillen	-5319
▁camping	-5320
▁dritten	-5321
▁dritter	-5322
▁flusses	-5323
▁flügeln	-5324
▁gefleck	-5325
▁gericht	-5326
▁geöffne	-5327
▁hübsche	-5328
▁jeweils	-5329
▁kartons	-5330
▁pferder	-5331
▁platten	-5332
▁religiö	-5333
▁rennens	-5334
▁schokol	-5335
▁schützt	-5336
▁station	-5337
▁student	-5338
▁umringt	-5339
▁unglück	-5340
▁univers	-5341
▁unteren	-5342
▁verschr	-5343
▁ähnlich	-5344
geschäfts	-5345
handschuh	-5346
indigkeit	-5347
ähnlichen	-5348
▁bedienen	-5349
▁betreten	-5350
▁dahinter	-5351
▁dribbelt	-5352
▁eiswagen	-5353
▁familien	-5354
▁fenstern	-5355
▁forscher	-5356
▁gefallen	-5357
▁gefangen	-5358
▁gelangen	-5359
▁gespannt	-5360
▁geöffnet	-5361
▁herausge	-5362
▁horizont	-5363
▁hübschen	-5364
▁karohemd	-5365
▁langärml	-5366
▁laufbahn	-5367
▁mitglied	-5368
▁parcours	-5369
▁passiert	-5370
▁schürzen	-5371
▁schützen	-5372
▁seichten	-5373
▁spaziert	-5374
▁synchron	-5375
▁tagsüber	-5376
▁vorführt	-5377
▁weiteren	-5378
▁ärmellos	-5379
restaurant	-5380
scheinlich	-5381
▁brautjung	-5382
▁entfernen	-5383
▁erhobenen	-5384
▁fahrzeuge	-5385
▁feuerwerk	-5386
▁flipflops	-5387
▁flussufer	-5388
▁formeller	-5389
▁getroffen	-5390
▁halloween	-5391
▁hamburger	-5392
▁patienten	-5393
▁pullunder	-5394
▁schachtel	-5395
▁segelboot	-5396
▁vergnügen	-5397
▁wakeboard	-5398
▁angehalten	-5399
▁attraktive	-5400
▁ausgezogen	-5401
▁bedruckten	-5402
▁befahrenen	-5403
▁beleuchtet	-5404
▁betrachter	-5405
▁bewaldeten	-5406
▁darbietung	-5407
▁hindernisp	-5408
▁oberfläche	-5409
▁plüschtier	-5410
▁schlendert	-5411
▁tanzfläche	-5412
▁tätowierte	-5413
▁verzierten	-5414
▁wildwasser	-5415
▁überprüfen	-5416
▁angezogener	-5417
▁aussehendes	-5418
▁bauernmarkt	-5419
▁chinesische	-5420
▁felsbrocken	-5421
▁fischernetz	-5422
▁gegnerische	-5423
▁hockeyspiel	-5424
▁kopfschmuck	-5425
▁musikgruppe	-5426
▁nachrichten	-5427
▁protestiert	-5428
▁rasenfläche	-5429
▁regenmantel	-5430
▁schlammigen	-5431
▁skateboards	-5432
▁steintreppe	-5433
▁tennisplatz	-5434
▁verteidiger	-5435
▁ausgestreckt	-5436
▁außenbereich	-5437
▁begeisterung	-5438
▁elektrischen	-5439
▁erleuchteten	-5440
▁heraushängen	-5441
▁hinterbeinen	-5442
▁konstruktion	-5443
▁namensschild	-5444
▁orientalisch	-5445
▁reklametafel	-5446
▁scheinwerfer	-5447
▁straßenseite	-5448
▁telefonieren	-5449
▁uniformierte	-5450
▁wasserbecken	-5451
▁wasserfläche	-5452
▁einkaufstüten	-5453
▁felsvorsprung	-5454
▁feuerwehrauto	-5455
▁fußballtrikot	-5456
▁kampfsportler	-5457
▁nachbarschaft	-5458
▁uniformierter	-5459
▁verkaufsstand	-5460
▁zeitschriften	-5461
▁amerikanischer	-5462
▁orangefarbenes	-5463
▁schneebedeckte	-5464
▁straßenmusiker	-5465
▁stromschnellen	-5466
▁geschwindigkeit	-5467
▁irokesenschnitt	-5468
▁kapuzenpullover	-5469
▁schneebedecktes	-5470
▁straßenarbeiter	-5471
ib	-5472
if	-5473
nt	-5474
oo	-5475
üb	-5476
alb	-5477
bär	-5478
ddy	-5479
dti	-5480
eug	-5481
fol	-5482
hel	-5483
hte	-5484
ice	-5485
ins	-5486
ipe	-5487
ips	-5488
itu	-5489
kee	-5490
kol	-5491
mor	-5492
ogo	-5493
oly	-5494
pos	-5495
sem	-5496
ski	-5497
urz	-5498
was	-5499
yer	-5500
ärb	-5501
▁ad	-5502
▁fu	-5503
▁hä	-5504
▁ip	-5505
▁is	-5506
▁no	-5507
▁of	-5508
▁op	-5509
▁sä	-5510
adel	-5511
frau	-5512
gibt	-5513
ging	-5514
girl	-5515
hebt	-5516
iken	-5517
inge	-5518
krem	-5519
ktem	-5520
kund	-5521
loch	-5522
lose	-5523
ollt	-5524
orch	-5525
osau	-5526
ppel	-5527
pper	-5528
seil	-5529
stab	-5530
stil	-5531
strü	-5532
vern	-5533
zone	-5534
ßelt	-5535
ätte	-5536
öser	-5537
üllt	-5538
ünen	-5539
▁bla	-5540
▁blu	-5541
▁blü	-5542
▁bur	-5543
▁car	-5544
▁cro	-5545
▁fro	-5546
▁jen	-5547
▁jet	-5548
▁loh	-5549
▁sar	-5550
▁squ	-5551
apier	-5552
auber	-5553
bluse	-5554
diert	-5555
eider	-5556
erten	-5557
farbe	-5558
flops	-5559
geben	-5560
hunde	-5561
ilien	-5562
kommt	-5563
losen	-5564
mpfer	-5565
onder	-5566
opoly	-5567
orten	-5568
persp	-5569
pfahl	-5570
punkt	-5571
ragen	-5572
stens	-5573
terne	-5574
tromm	-5575
ubsch	-5576
wolke	-5577
zelle	-5578
▁amer	-5579
▁arch	-5580
▁ausz	-5581
▁blut	-5582
▁chef	-5583
▁elmo	-5584
▁erle	-5585
▁ethn	-5586
▁fang	-5587
▁früh	-5588
▁garn	-5589
▁gurt	-5590
▁haut	-5591
▁hüpf	-5592
▁konf	-5593
▁lust	-5594
▁mach	-5595
▁mais	-5596
▁mopp	-5597
▁raus	-5598
▁reis	-5599
▁stüt	-5600
▁sägt	-5601
▁them	-5602
ammert	-5603
athlet	-5604
aturen	-5605
blauer	-5606
dtimer	-5607
ektive	-5608
espiel	-5609
führer	-5610
gelber	-5611
ierend	-5612
karren	-5613
karten	-5614
nungen	-5615
platte	-5616
rahmen	-5617
rauber	-5618
scheln	-5619
staben	-5620
stellt	-5621
strauß	-5622
teilen	-5623
tennis	-5624
tragen	-5625
ummern	-5626
utscht	-5627
wommen	-5628
▁absol	-5629
▁aktiv	-5630
▁aller	-5631
▁armee	-5632
▁beten	-5633
▁betet	-5634
▁blask	-5635
▁breit	-5636
▁domin	-5637
▁grund	-5638
▁halle	-5639
▁hause	-5640
▁hüfte	-5641
▁nadel	-5642
▁nagel	-5643
▁nahen	-5644
▁osten	-5645
▁paras	-5646
▁passt	-5647
▁pilot	-5648
▁rosen	-5649
▁ruhig	-5650
▁rührt	-5651
▁saugt	-5652
▁späht	-5653
▁stach	-5654
▁taube	-5655
▁techn	-5656
▁teddy	-5657
▁times	-5658
▁toten	-5659
▁tüten	-5660
dranten	-5661
flügeln	-5662
gematte	-5663
geräten	-5664
gruppen	-5665
mmertag	-5666
pfosten	-5667
sichtig	-5668
stellen	-5669
stellte	-5670
stiften	-5671
streckt	-5672
verkauf	-5673
ylophon	-5674
▁absatz	-5675
▁anzahl	-5676
▁aufges	-5677
▁bagger	-5678
▁batman	-5679
▁befind	-5680
▁beißen	-5681
▁beteil	-5682
▁blockt	-5683
▁busses	-5684
▁bäcker	-5685
▁bündel	-5686
▁dicken	-5687
▁eingew	-5688
▁europa	-5689
▁fackel	-5690
▁faszin	-5691
▁feuert	-5692
▁fitnes	-5693
▁fliege	-5694
▁fächer	-5695
▁garage	-5696
▁gießen	-5697
▁gipfel	-5698
▁glatze	-5699
▁handys	-5700
▁hocken	-5701
▁hüpfen	-5702
▁imbiss	-5703
▁indien	-5704
▁jogger	-5705
▁kommun	-5706
▁kämpft	-5707
▁küsten	-5708
▁laster	-5709
▁lecker	-5710
▁lernen	-5711
▁marmor	-5712
▁matsch	-5713
▁möchte	-5714
▁ozeans	-5715
▁parken	-5716
▁pfanne	-5717
▁puppen	-5718
▁schieß	-5719
▁schrau	-5720
▁skatet	-5721
▁soeben	-5722
▁sprüht	-5723
▁street	-5724
▁studio	-5725
▁transp	-5726
▁vögeln	-5727
▁wettei	-5728
▁wetter	-5729
▁zelten	-5730
▁ziegen	-5731
▁zuhört	-5732
armonika	-5733
erstelle	-5734
football	-5735
kreuzten	-5736
pielzeug	-5737
stiefeln	-5738
zeichnet	-5739
▁ansehen	-5740
▁auslage	-5741
▁baumstä	-5742
▁bauwerk	-5743
▁billard	-5744
▁brechen	-5745
▁breiten	-5746
▁bürstet	-5747
▁darüber	-5748
▁einiger	-5749
▁figuren	-5750
▁fontäne	-5751
▁industr	-5752
▁jockeys	-5753
▁jogging	-5754
▁kameram	-5755
▁legerer	-5756
▁meißelt	-5757
▁produkt	-5758
▁richten	-5759
▁schneem	-5760
▁schwere	-5761
▁schöner	-5762
▁smoking	-5763
▁staffel	-5764
▁steuert	-5765
▁stiefel	-5766
▁tourist	-5767
▁walmart	-5768
▁wildnis	-5769
▁zuhause	-5770
container	-5771
liegenden	-5772
▁aufgereg	-5773
▁backflip	-5774
▁dieselbe	-5775
▁erklimmt	-5776
▁esstisch	-5777
▁fotograp	-5778
▁frischem	-5779
▁gefroren	-5780
▁gehstock	-5781
▁gespielt	-5782
▁gewinnen	-5783
▁hochhack	-5784
▁intervie	-5785
▁kaufhaus	-5786
▁kontroll	-5787
▁laufband	-5788
▁läuferin	-5789
▁monopoly	-5790
▁oldtimer	-5791
▁polohemd	-5792
▁position	-5793
▁probiert	-5794
▁rollersk	-5795
▁rostigen	-5796
▁sandburg	-5797
▁schlucht	-5798
▁schmalen	-5799
▁schnappt	-5800
▁schnorch	-5801
▁silberne	-5802
▁spritzen	-5803
▁stabhoch	-5804
▁unbekann	-5805
▁vorderen	-5806
▁wachmann	-5807
▁weiterer	-5808
bewegungen	-5809
▁arbeitern	-5810
▁bestehend	-5811
▁bockenden	-5812
▁brennende	-5813
▁dekoriert	-5814
▁faulenzen	-5815
▁fernsehen	-5816
▁fernseher	-5817
▁flugzeugs	-5818
▁gelegenen	-5819
▁hochstuhl	-5820
▁kopfstein	-5821
▁projektor	-5822
▁randstein	-5823
▁rosaroten	-5824
▁sandhügel	-5825
▁schwenken	-5826
▁servieren	-5827
▁sommertag	-5828
▁stadtpark	-5829
▁steinbank	-5830
▁teenagern	-5831
▁trockenen	-5832
▁umgebenen	-5833
▁unterhemd	-5834
▁windhunde	-5835
▁wollmütze	-5836
▁ziegelbau	-5837
perspektive	-5838
ubschrauber	-5839
vorrichtung	-5840
▁angezogene	-5841
▁baumstumpf	-5842
▁begeistert	-5843
▁betonmauer	-5844
▁buchstaben	-5845
▁dunkelheit	-5846
▁fahrzeugen	-5847
▁feldhockey	-5848
▁geflochten	-5849
▁geschmückt	-5850
▁grünfläche	-5851
▁hellgrünen	-5852
▁hängematte	-5853
▁kompletter	-5854
▁ladefläche	-5855
▁mitspieler	-5856
▁muskulöser	-5857
▁passagiere	-5858
▁schachteln	-5859
▁schnüffelt	-5860
▁sporthalle	-5861
▁supermarkt	-5862
▁vorführung	-5863
▁vorsichtig	-5864
▁zahnbürste	-5865
▁anweisungen	-5866
▁aufblasbare	-5867
▁blaskapelle	-5868
▁feuerstelle	-5869
▁gesichtsaus	-5870
▁irgendeinem	-5871
▁kajakfahrer	-5872
▁quarterback	-5873
▁rothaariger	-5874
▁seifenblase	-5875
▁sonnenlicht	-5876
▁spiegelbild	-5877
▁spielsachen	-5878
▁staubsauger	-5879
▁straßenfest	-5880
▁strumpfhose	-5881
▁altmodischen	-5882
▁baseballfeld	-5883
▁eingewickelt	-5884
▁gepflasterte	-5885
▁hosenträgern	-5886
▁mehrfarbigen	-5887
▁metallstange	-5888
▁rugbyspieler	-5889
▁schlafzimmer	-5890
▁straßenszene	-5891
▁telefonzelle	-5892
▁unterhaltung	-5893
▁verschwommen	-5894
▁vorbeifahren	-5895
orangefarbenen	-5896
▁demonstranten	-5897
▁footballspiel	-5898
▁geldautomaten	-5899
▁gleichgewicht	-5900
▁straßenrennen	-5901
▁verschränkten	-5902
▁waschmaschine	-5903
▁ziegelgebäude	-5904
▁ausgeschnitten	-5905
▁backsteinmauer	-5906
▁elektronischen	-5907
▁orientalischer	-5908
▁wassersprenger	-5909
▁heraushängender	-5910
▁kopfbedeckungen	-5911
id	-5912
mö	-5913
ph	-5914
ud	-5915
aga	-5916
caf	-5917
eim	-5918
gol	-5919
hat	-5920
met	-5921
ney	-5922
ond	-5923
rid	-5924
upf	-5925
övr	-5926
▁ac	-5927
▁ap	-5928
▁bö	-5929
▁gä	-5930
alte	-5931
anzt	-5932
aste	-5933
baby	-5934
bike	-5935
book	-5936
brot	-5937
chor	-5938
cola	-5939
corn	-5940
dest	-5941
etti	-5942
fass	-5943
ford	-5944
füll	-5945
gert	-5946
gren	-5947
hedr	-5948
igol	-5949
ikel	-5950
imon	-5951
iner	-5952
inke	-5953
kost	-5954
last	-5955
ltim	-5956
nach	-5957
ogie	-5958
orgt	-5959
pult	-5960
rami	-5961
roll	-5962
spur	-5963
sstu	-5964
szug	-5965
tuch	-5966
wahl	-5967
will	-5968
wirt	-5969
wohl	-5970
ählt	-5971
öcke	-5972
üler	-5973
▁anl	-5974
▁fir	-5975
▁gek	-5976
▁gok	-5977
▁kok	-5978
▁kre	-5979
▁nav	-5980
▁sam	-5981
▁sod	-5982
▁sol	-5983
arena	-5984
arium	-5985
blatt	-5986
blaue	-5987
cktem	-5988
ckter	-5989
eindr	-5990
gress	-5991
grube	-5992
hohen	-5993
hütte	-5994
icken	-5995
ispan	-5996
kiste	-5997
lings	-5998
llung	-5999
pfeln	-6000
pierc	-6001
regal	-6002
riges	-6003
roter	-6004
schar	-6005
schun	-6006
stamm	-6007
techn	-6008
theke	-6009
trock	-6010
uktur	-6011
ungsk	-6012
unten	-6013
weder	-6014
zeria	-6015
ätzen	-6016
übung	-6017
▁besp	-6018
▁body	-6019
▁bron	-6020
▁buck	-6021
▁coca	-6022
▁dose	-6023
▁filz	-6024
▁führ	-6025
▁gefä	-6026
▁glet	-6027
▁huhn	-6028
▁kamm	-6029
▁kein	-6030
▁kinn	-6031
▁kult	-6032
▁käse	-6033
▁latz	-6034
▁leop	-6035
▁lädt	-6036
▁muss	-6037
▁neun	-6038
▁pain	-6039
▁papa	-6040
▁ping	-6041
▁pult	-6042
▁saft	-6043
▁seit	-6044
▁seni	-6045
▁sims	-6046
▁skim	-6047
▁spar	-6048
▁stil	-6049
▁säge	-6050
▁welt	-6051
abteil	-6052
affeln	-6053
askott	-6054
beutel	-6055
bläser	-6056
bricht	-6057
etzter	-6058
finden	-6059
frisur	-6060
gegend	-6061
grüner	-6062
hüpfen	-6063
iedern	-6064
inchen	-6065
itzern	-6066
itäten	-6067
jungen	-6068
keeper	-6069
ketten	-6070
körben	-6071
olster	-6072
person	-6073
storte	-6074
treten	-6075
wärtss	-6076
änzern	-6077
▁abged	-6078
▁apple	-6079
▁bades	-6080
▁bergl	-6081
▁boote	-6082
▁creme	-6083
▁denkt	-6084
▁dosen	-6085
▁enten	-6086
▁erhöh	-6087
▁event	-6088
▁genau	-6089
▁hackt	-6090
▁heran	-6091
▁jenga	-6092
▁kabel	-6093
▁kanus	-6094
▁kimon	-6095
▁kolle	-6096
▁käfig	-6097
▁linke	-6098
▁löwen	-6099
▁möwen	-6100
▁neuen	-6101
▁näher	-6102
▁palme	-6103
▁plant	-6104
▁schnu	-6105
▁sprin	-6106
▁teilt	-6107
▁tippt	-6108
▁truth	-6109
▁ufers	-6110
▁volks	-6111
▁voran	-6112
▁wanne	-6113
▁warte	-6114
▁wippe	-6115
▁ziege	-6116
▁zielt	-6117
alteten	-6118
ansicht	-6119
aterial	-6120
galerie	-6121
malerei	-6122
oreiter	-6123
schnell	-6124
schwimm	-6125
stöcken	-6126
stücken	-6127
▁albern	-6128
▁angeln	-6129
▁aufgeb	-6130
▁basken	-6131
▁beschm	-6132
▁beschn	-6133
▁besprü	-6134
▁beutel	-6135
▁binden	-6136
▁blazer	-6137
▁bleibt	-6138
▁design	-6139
▁dschun	-6140
▁dünnen	-6141
▁europä	-6142
▁ganzen	-6143
▁gefärb	-6144
▁geschr	-6145
▁gestap	-6146
▁gokart	-6147
▁habsel	-6148
▁hacken	-6149
▁herzen	-6150
▁hinweg	-6151
▁hispan	-6152
▁hübsch	-6153
▁intens	-6154
▁kabine	-6155
▁kajaks	-6156
▁kaukas	-6157
▁kehren	-6158
▁kickbo	-6159
▁labrad	-6160
▁ladens	-6161
▁langes	-6162
▁lebens	-6163
▁leitet	-6164
▁mechan	-6165
▁nassem	-6166
▁ochsen	-6167
▁pfeife	-6168
▁pinsel	-6169
▁plüsch	-6170
▁pyrami	-6171
▁regelt	-6172
▁regnet	-6173
▁reicht	-6174
▁reisen	-6175
▁riesen	-6176
▁schals	-6177
▁schnür	-6178
▁segelt	-6179
▁square	-6180
▁strahl	-6181
▁subway	-6182
▁tempel	-6183
▁trüben	-6184
▁urlaub	-6185
▁waffel	-6186
▁waffen	-6187
▁wilden	-6188
▁zweite	-6189
bebalken	-6190
einfahrt	-6191
eitungen	-6192
gelegten	-6193
ichteten	-6194
itischen	-6195
position	-6196
pullover	-6197
schlange	-6198
stürzten	-6199
▁anderem	-6200
▁angemal	-6201
▁ansicht	-6202
▁bananen	-6203
▁beeindr	-6204
▁begriff	-6205
▁bleiben	-6206
▁buckeln	-6207
▁digital	-6208
▁dinosau	-6209
▁farbige	-6210
▁fassade	-6211
▁felsens	-6212
▁fernseh	-6213
▁flammen	-6214
▁frische	-6215
▁gehüllt	-6216
▁glastür	-6217
▁kathedr	-6218
▁kümmern	-6219
▁metallt	-6220
▁nummern	-6221
▁objekte	-6222
▁pferdes	-6223
▁piraten	-6224
▁pistole	-6225
▁popcorn	-6226
▁schenkt	-6227
▁schritt	-6228
▁schwier	-6229
▁säubert	-6230
▁trottet	-6231
▁verschm	-6232
▁versuch	-6233
▁zebrast	-6234
▁zigarre	-6235
▁zurecht	-6236
fahrzeugs	-6237
promenade	-6238
schildern	-6239
schlitten	-6240
schwimmer	-6241
schützern	-6242
▁beginnen	-6243
▁broschür	-6244
▁deutsche	-6245
▁einsamen	-6246
▁entweder	-6247
▁ereignis	-6248
▁faulenzt	-6249
▁felsform	-6250
▁frischen	-6251
▁gefahren	-6252
▁gesäumte	-6253
▁getragen	-6254
▁getreide	-6255
▁hinteren	-6256
▁indianer	-6257
▁innenhof	-6258
▁irgendwo	-6259
▁krabbelt	-6260
▁pizzeria	-6261
▁rockband	-6262
▁schleift	-6263
▁seichtem	-6264
▁sortiert	-6265
▁spielern	-6266
▁spielers	-6267
▁struktur	-6268
▁torbogen	-6269
▁training	-6270
▁türkisen	-6271
▁wartungs	-6272
▁zeichnen	-6273
▁zitronen	-6274
askottchen	-6275
unterricht	-6276
▁afrikaner	-6277
▁anzusehen	-6278
▁badehosen	-6279
▁badekappe	-6280
▁barkeeper	-6281
▁beleuchte	-6282
▁dekorativ	-6283
▁dirigiert	-6284
▁dschungel	-6285
▁einfachen	-6286
▁eislaufen	-6287
▁fahrzeugs	-6288
▁fröhliche	-6289
▁gepolster	-6290
▁gletscher	-6291
▁großstadt	-6292
▁holzbrett	-6293
▁industrie	-6294
▁innenraum	-6295
▁kaninchen	-6296
▁karierter	-6297
▁kontrolle	-6298
▁mcdonalds	-6299
▁probieren	-6300
▁pullovern	-6301
▁ringkampf	-6302
▁ruderboot	-6303
▁schlafend	-6304
▁schrauben	-6305
▁staffelei	-6306
▁tauziehen	-6307
▁toiletten	-6308
▁umzäunten	-6309
▁unterstüt	-6310
▁versteckt	-6311
▁violetter	-6312
▁warnweste	-6313
▁wintertag	-6314
bahnstation	-6315
gestreiften	-6316
▁absperrung	-6317
▁angefeuert	-6318
▁barfüßiger	-6319
▁brennenden	-6320
▁eisschnell	-6321
▁felsklippe	-6322
▁fischmarkt	-6323
▁gefleckter	-6324
▁geldbeutel	-6325
▁geschlagen	-6326
▁gestreifte	-6327
▁glückliche	-6328
▁handwerker	-6329
▁highschool	-6330
▁kameramann	-6331
▁nachmittag	-6332
▁profession	-6333
▁rennfahrer	-6334
▁schneeball	-6335
▁smartphone	-6336
▁spielenden	-6337
▁stadtszene	-6338
▁startlinie	-6339
▁tankstelle	-6340
▁tropischen	-6341
▁weiblichen	-6342
▁aktentasche	-6343
▁aufeinander	-6344
▁aufgeblasen	-6345
▁aufgenommen	-6346
▁baskenmütze	-6347
▁baumstämmen	-6348
▁betonstufen	-6349
▁einrichtung	-6350
▁gemusterten	-6351
▁handtaschen	-6352
▁irgendeiner	-6353
▁jeansshorts	-6354
▁kaffeetasse	-6355
▁kostümierte	-6356
▁passagieren	-6357
▁rodeoreiter	-6358
▁schlafendes	-6359
▁schokoladen	-6360
▁vorstellung	-6361
▁wandmalerei	-6362
▁winterjacke	-6363
▁ausgebreitet	-6364
▁beeindrucken	-6365
▁bohrmaschine	-6366
▁cheerleadern	-6367
▁chinesischer	-6368
▁footballfeld	-6369
▁geflochtenen	-6370
▁gesellschaft	-6371
▁hindernispar	-6372
▁historischen	-6373
▁hochhackigen	-6374
▁interagieren	-6375
▁kunstgalerie	-6376
▁leichtathlet	-6377
▁lilafarbener	-6378
▁schlittschuh	-6379
▁wasserstraße	-6380
▁blondhaariger	-6381
▁braunhaariges	-6382
▁brautjungfern	-6383
▁cheerleaderin	-6384
▁demonstration	-6385
▁einheimischer	-6386
▁fahrradrennen	-6387
▁khakifarbener	-6388
▁müllcontainer	-6389
▁schwebebalken	-6390
▁traditionelle	-6391
▁wassermelonen	-6392
▁zebrastreifen	-6393
▁ausgebreiteten	-6394
▁basketballfeld	-6395
▁berglandschaft	-6396
▁burgunderroten	-6397
▁habseligkeiten	-6398
▁hochzuklettern	-6399
▁hundespielzeug	-6400
▁pflasterstraße	-6401
▁schlittschuhen	-6402
▁wahrscheinlich	-6403
▁backsteinstraße	-6404
▁einkaufstaschen	-6405
▁friedenszeichen	-6406
▁militärangehöri	-6407
▁motocrossfahrer	-6408
▁musikinstrument	-6409
▁reflektierenden	-6410
▁stammeskleidung	-6411
▁volleyballspiel	-6412
fz	-6413
ld	-6414
mo	-6415
so	-6416
ye	-6417
äf	-6418
üd	-6419
air	-6420
aum	-6421
flu	-6422
gür	-6423
hän	-6424
ica	-6425
ino	-6426
kie	-6427
kur	-6428
lei	-6429
lim	-6430
nev	-6431
ogr	-6432
olt	-6433
ose	-6434
pit	-6435
pon	-6436
rat	-6437
spa	-6438
ton	-6439
tra	-6440
try	-6441
upp	-6442
wür	-6443
ymb	-6444
yro	-6445
zus	-6446
▁ag	-6447
▁wh	-6448
▁öl	-6449
arat	-6450
atem	-6451
ator	-6452
atze	-6453
bade	-6454
boss	-6455
chco	-6456
crew	-6457
digt	-6458
ehen	-6459
erer	-6460
erie	-6461
eter	-6462
ffet	-6463
fiel	-6464
font	-6465
gelb	-6466
gele	-6467
gier	-6468
gurt	-6469
heel	-6470
hüte	-6471
iegs	-6472
inde	-6473
inis	-6474
isst	-6475
itte	-6476
iven	-6477
izen	-6478
jama	-6479
kart	-6480
kler	-6481
mark	-6482
nern	-6483
nähe	-6484
oliz	-6485
pipe	-6486
quem	-6487
ragt	-6488
raut	-6489
rier	-6490
rosa	-6491
rüpp	-6492
saft	-6493
ston	-6494
tion	-6495
turn	-6496
uell	-6497
wart	-6498
welt	-6499
zeln	-6500
äcke	-6501
ädig	-6502
äumt	-6503
ügel	-6504
▁amp	-6505
▁beh	-6506
▁cam	-6507
▁com	-6508
▁day	-6509
▁deu	-6510
▁dok	-6511
▁don	-6512
▁fan	-6513
▁fäu	-6514
▁gas	-6515
▁got	-6516
▁gän	-6517
▁jüd	-6518
▁kek	-6519
▁kna	-6520
▁kul	-6521
▁lat	-6522
▁lig	-6523
▁lob	-6524
▁meg	-6525
▁mer	-6526
▁org	-6527
▁pan	-6528
▁pow	-6529
▁pri	-6530
▁pus	-6531
▁sms	-6532
▁wäl	-6533
▁zom	-6534
▁zut	-6535
▁üpp	-6536
acken	-6537
acker	-6538
allye	-6539
altet	-6540
anell	-6541
arden	-6542
attle	-6543
aufel	-6544
autos	-6545
boote	-6546
bälle	-6547
elten	-6548
essor	-6549
ettel	-6550
fisch	-6551
hänge	-6552
hängt	-6553
hüten	-6554
ielen	-6555
ienst	-6556
ierer	-6557
igten	-6558
ilder	-6559
junge	-6560
klein	-6561
kröte	-6562
onern	-6563
oners	-6564
order	-6565
packt	-6566
pfang	-6567
produ	-6568
reibt	-6569
schle	-6570
spass	-6571
sters	-6572
stier	-6573
stopf	-6574
stron	-6575
sturm	-6576
ständ	-6577
tnach	-6578
untry	-6579
waffe	-6580
watte	-6581
wiese	-6582
wirft	-6583
ängst	-6584
ässer	-6585
▁allt	-6586
▁atem	-6587
▁dess	-6588
▁food	-6589
▁gehe	-6590
▁gekü	-6591
▁glät	-6592
▁ipod	-6593
▁kenn	-6594
▁krug	-6595
▁kund	-6596
▁kuss	-6597
▁lebh	-6598
▁lego	-6599
▁make	-6600
▁mini	-6601
▁open	-6602
▁patr	-6603
▁pony	-6604
▁pose	-6605
▁qual	-6606
▁ruft	-6607
▁saal	-6608
▁senk	-6609
▁sign	-6610
▁sorg	-6611
▁spag	-6612
▁steg	-6613
▁tack	-6614
▁tren	-6615
▁umkl	-6616
▁wolk	-6617
▁wäre	-6618
agiert	-6619
ailing	-6620
aufger	-6621
bernen	-6622
besitz	-6623
betrie	-6624
blaues	-6625
bligen	-6626
blumen	-6627
booten	-6628
bunten	-6629
busses	-6630
chcoat	-6631
ckigen	-6632
decker	-6633
detwas	-6634
eibeam	-6635
endung	-6636
fältig	-6637
geräte	-6638
helmen	-6639
hemden	-6640
ienung	-6641
inette	-6642
ington	-6643
kappen	-6644
koffer	-6645
kragen	-6646
lesung	-6647
minton	-6648
oshirt	-6649
ousine	-6650
papier	-6651
pfütze	-6652
schuss	-6653
splatz	-6654
steigt	-6655
steine	-6656
stücks	-6657
sänger	-6658
tattoo	-6659
teller	-6660
tresen	-6661
tänzer	-6662
urnier	-6663
ärgert	-6664
ückten	-6665
▁batik	-6666
▁baums	-6667
▁beauf	-6668
▁beför	-6669
▁bohrt	-6670
▁bulle	-6671
▁dress	-6672
▁freut	-6673
▁fried	-6674
▁funkt	-6675
▁gebir	-6676
▁gemüt	-6677
▁gleis	-6678
▁haken	-6679
▁hasen	-6680
▁helle	-6681
▁hänge	-6682
▁irgen	-6683
▁keine	-6684
▁klass	-6685
▁kunde	-6686
▁körbe	-6687
▁liebl	-6688
▁limon	-6689
▁miami	-6690
▁milch	-6691
▁minde	-6692
▁nasse	-6693
▁paket	-6694
▁pitch	-6695
▁radio	-6696
▁reise	-6697
▁salat	-6698
▁schrä	-6699
▁schär	-6700
▁spült	-6701
▁state	-6702
▁still	-6703
▁tauch	-6704
▁thema	-6705
▁tiger	-6706
▁ultim	-6707
▁verst	-6708
▁wegen	-6709
▁wenig	-6710
▁werbe	-6711
▁wheel	-6712
▁wiegt	-6713
▁wählt	-6714
▁wände	-6715
▁zelte	-6716
▁überw	-6717
▁übung	-6718
absperr	-6719
blätter	-6720
boarden	-6721
braunem	-6722
brochen	-6723
deckten	-6724
figuren	-6725
fleisch	-6726
haltung	-6727
kapelle	-6728
kulptur	-6729
meister	-6730
mädchen	-6731
ohmarkt	-6732
pistole	-6733
respiel	-6734
skuchen	-6735
sstudio	-6736
zenerie	-6737
übungen	-6738
▁aktion	-6739
▁amboss	-6740
▁athlet	-6741
▁aufhat	-6742
▁balgen	-6743
▁beamte	-6744
▁befrei	-6745
▁beigen	-6746
▁bekann	-6747
▁bequem	-6748
▁berggi	-6749
▁bleist	-6750
▁bricht	-6751
▁brünet	-6752
▁bulldo	-6753
▁buntem	-6754
▁buntes	-6755
▁bürste	-6756
▁domino	-6757
▁doppel	-6758
▁einger	-6759
▁essend	-6760
▁fußweg	-6761
▁gebaut	-6762
▁gesche	-6763
▁geschn	-6764
▁gestüt	-6765
▁hawaii	-6766
▁herein	-6767
▁häuser	-6768
▁inhalt	-6769
▁kabeln	-6770
▁karnev	-6771
▁kasten	-6772
▁kegeln	-6773
▁kicken	-6774
▁kittel	-6775
▁latein	-6776
▁leiden	-6777
▁manövr	-6778
▁massen	-6779
▁muslim	-6780
▁nackte	-6781
▁nichts	-6782
▁obwohl	-6783
▁ohrhör	-6784
▁packen	-6785
▁pinken	-6786
▁prächt	-6787
▁raufen	-6788
▁rummel	-6789
▁schale	-6790
▁schatt	-6791
▁schick	-6792
▁schält	-6793
▁stelle	-6794
▁stücke	-6795
▁tiefen	-6796
▁tinten	-6797
▁verwir	-6798
▁wirken	-6799
▁wurden	-6800
▁wüsten	-6801
▁zauber	-6802
▁zähnen	-6803
▁zündet	-6804
bewohner	-6805
blättern	-6806
erstellt	-6807
fallenen	-6808
köpfigen	-6809
mannszug	-6810
pflegten	-6811
schaufel	-6812
schlacht	-6813
spassage	-6814
sperrten	-6815
werkzeug	-6816
▁abgesch	-6817
▁armband	-6818
▁ausflug	-6819
▁auswahl	-6820
▁bastelt	-6821
▁beendet	-6822
▁bikinis	-6823
▁blument	-6824
▁cowgirl	-6825
▁dunkeln	-6826
▁eisbahn	-6827
▁empfang	-6828
▁erinner	-6829
▁fechten	-6830
▁filzhut	-6831
▁flanell	-6832
▁füttern	-6833
▁garagen	-6834
▁gehoben	-6835
▁gehwegs	-6836
▁grinsen	-6837
▁gürteln	-6838
▁haltend	-6839
▁handgel	-6840
▁hotdogs	-6841
▁hörsaal	-6842
▁kiefern	-6843
▁kirchen	-6844
▁kompliz	-6845
▁minigol	-6846
▁nachden	-6847
▁nackten	-6848
▁nackter	-6849
▁nacktes	-6850
▁notizen	-6851
▁offener	-6852
▁perücke	-6853
▁pfannen	-6854
▁pflückt	-6855
▁punkten	-6856
▁rollern	-6857
▁ruhigem	-6858
▁schiffs	-6859
▁schippt	-6860
▁schloss	-6861
▁schwanz	-6862
▁seattle	-6863
▁spitzen	-6864
▁strickt	-6865
▁stöbern	-6866
▁tackelt	-6867
▁tänzern	-6868
▁umgedre	-6869
▁umhänge	-6870
▁verlegt	-6871
▁wohnung	-6872
▁zutaten	-6873
bereitung	-6874
lastwagen	-6875
plattform	-6876
schneiden	-6877
sgeschäft	-6878
stehenden	-6879
▁angelein	-6880
▁anschaut	-6881
▁aquarium	-6882
▁aufrecht	-6883
▁ausschau	-6884
▁autositz	-6885
▁besonder	-6886
▁bestellt	-6887
▁besuchen	-6888
▁einzelne	-6889
▁erreicht	-6890
▁erwischt	-6891
▁fernrohr	-6892
▁festival	-6893
▁fingernä	-6894
▁funktion	-6895
▁gewehren	-6896
▁hochhält	-6897
▁hüpfburg	-6898
▁intensiv	-6899
▁jüngeres	-6900
▁kleinere	-6901
▁konfetti	-6902
▁liegende	-6903
▁modernen	-6904
▁musikern	-6905
▁mülltüte	-6906
▁pyramide	-6907
▁rauchend	-6908
▁schaufen	-6909
▁schienen	-6910
▁schlecht	-6911
▁schweren	-6912
▁schülern	-6913
▁seitlich	-6914
▁senioren	-6915
▁studiert	-6916
▁trocknet	-6917
▁ultimate	-6918
▁umhängen	-6919
▁unaufger	-6920
▁verkehrt	-6921
▁versehen	-6922
▁wettlauf	-6923
aufführung	-6924
gegenstand	-6925
oberfläche	-6926
schaftlich	-6927
wärtssalto	-6928
▁anschauen	-6929
▁aufschlag	-6930
▁aufwärmen	-6931
▁badminton	-6932
▁bedeckter	-6933
▁befahrene	-6934
▁begleiter	-6935
▁beschädig	-6936
▁beteiligt	-6937
▁betonbank	-6938
▁blühenden	-6939
▁deutscher	-6940
▁durchgang	-6941
▁eventuell	-6942
▁fahrenden	-6943
▁geradeaus	-6944
▁gerichtet	-6945
▁gesenktem	-6946
▁gesichter	-6947
▁golfplatz	-6948
▁hemdbluse	-6949
▁holztisch	-6950
▁hydranten	-6951
▁interview	-6952
▁kartoffel	-6953
▁khakihose	-6954
▁landkarte	-6955
▁leoparden	-6956
▁limousine	-6957
▁meeresfrü	-6958
▁mikrofone	-6959
▁motorboot	-6960
▁nachtclub	-6961
▁platziert	-6962
▁poloshirt	-6963
▁professor	-6964
▁promenade	-6965
▁radfahren	-6966
▁schnuller	-6967
▁spielerin	-6968
▁stofftier	-6969
▁strahlend	-6970
▁teilnimmt	-6971
▁untergeht	-6972
▁verfolgen	-6973
▁verteilen	-6974
▁verärgert	-6975
▁vorlesung	-6976
▁wanderweg	-6977
▁weinendes	-6978
▁wunderker	-6979
▁zeitungen	-6980
handschuhen	-6981
▁akustische	-6982
▁ausgestopf	-6983
▁beaufsicht	-6984
▁durchsucht	-6985
▁eiswaffeln	-6986
▁farbenfroh	-6987
▁fasziniert	-6988
▁fröhliches	-6989
▁geschminkt	-6990
▁geöffnetem	-6991
▁hellgelben	-6992
▁inspiziert	-6993
▁kampfkunst	-6994
▁kathedrale	-6995
▁maulkörben	-6996
▁metallzaun	-6997
▁mikrofonen	-6998
▁mindestens	-6999
▁möbelstück	-7000
▁rasenmäher	-7001
▁sackhüpfen	-7002
▁schlendern	-7003
▁schmettert	-7004
▁schnorchel	-7005
▁sorgfältig	-7006
▁spielzeuge	-7007
▁teenagerin	-7008
▁tischdecke	-7009
▁trenchcoat	-7010
▁warnwesten	-7011
▁wasserball	-7012
▁wasserfont	-7013
▁werkzeugen	-7014
▁wetteifern	-7015
▁ärmellosem	-7016
▁überblickt	-7017
▁bahngleisen	-7018
▁begutachten	-7019
▁betonplatte	-7020
▁bücherregal	-7021
▁dekorativen	-7022
▁dekorierten	-7023
▁dreiköpfige	-7024
▁einzufangen	-7025
▁entgegenges	-7026
▁essenswagen	-7027
▁farbenfrohe	-7028
▁fußballteam	-7029
▁gelbbrauner	-7030
▁geschrieben	-7031
▁geschäftige	-7032
▁glückliches	-7033
▁hochgehoben	-7034
▁hochspringt	-7035
▁inspizieren	-7036
▁irgendetwas	-7037
▁karateanzug	-7038
▁kartenspiel	-7039
▁kunstvollen	-7040
▁lippenstift	-7041
▁mannschafts	-7042
▁mehrfarbige	-7043
▁parasailing	-7044
▁polizeibeam	-7045
▁rothaarigen	-7046
▁schmutziges	-7047
▁schotterweg	-7048
▁seitenlinie	-7049
▁speisekarte	-7050
▁straßenbahn	-7051
▁tischtennis	-7052
▁tänzerinnen	-7053
▁tätowierter	-7054
▁verlassenen	-7055
▁videokamera	-7056
▁videospiele	-7057
▁weihnachten	-7058
▁zuckerwatte	-7059
▁überdachten	-7060
▁abgesperrten	-7061
▁badekleidung	-7062
▁befindlichen	-7063
▁blumenstrauß	-7064
▁bullenreiter	-7065
▁dekorationen	-7066
▁fußballteams	-7067
▁geschminkten	-7068
▁gitarrespiel	-7069
▁goldfarbenen	-7070
▁hubschrauber	-7071
▁klappstühlen	-7072
▁küchentresen	-7073
▁liegestühlen	-7074
▁marineblauen	-7075
▁sandskulptur	-7076
▁schaulustige	-7077
▁schauspieler	-7078
▁seilspringen	-7079
▁spazierstock	-7080
▁straßenmarkt	-7081
▁taucheranzug	-7082
▁umgestürzten	-7083
▁verkleideter	-7084
▁vorübergehen	-7085
▁weißhaariger	-7086
pflasterstraße	-7087
▁abgedunkelten	-7088
▁aufgeblasenen	-7089
▁digitalkamera	-7090
▁fitnessstudio	-7091
▁karateanzügen	-7092
▁nadelstreifen	-7093
▁radrennfahrer	-7094
▁schmetterling	-7095
▁schwarzweißer	-7096
▁schwimmwesten	-7097
▁softballspiel	-7098
▁spielmannszug	-7099
▁spielzeugauto	-7100
▁tennisschuhen	-7101
▁aufmerksamkeit	-7102
▁bandmitglieder	-7103
▁bikinioberteil	-7104
▁bordsteinkante	-7105
▁fußballspielen	-7106
▁hochzeitskleid	-7107
▁hochzeitstorte	-7108
▁modellflugzeug	-7109
▁schotterstraße	-7110
▁schwimmflügeln	-7111
▁skateboardpark	-7112
▁stabhochsprung	-7113
▁türkisfarbenen	-7114
▁unaufgeräumten	-7115
▁einkaufspassage	-7116
▁fußgängerbrücke	-7117
▁krankenhausbett	-7118
▁motorradfahrern	-7119
▁skateboardtrick	-7120
▁strandpromenade	-7121
▁verschiedenfarb	-7122
hy	-7123
hä	-7124
lu	-7125
öl	-7126
ön	-7127
ös	-7128
agg	-7129
ahm	-7130
any	-7131
atu	-7132
bob	-7133
bon	-7134
bün	-7135
cap	-7136
ege	-7137
eib	-7138
eif	-7139
ham	-7140
iat	-7141
iko	-7142
iot	-7143
iqu	-7144
itä	-7145
lau	-7146
mat	-7147
nam	-7148
oll	-7149
osn	-7150
ota	-7151
rer	-7152
ruh	-7153
räd	-7154
teu	-7155
ult	-7156
ure	-7157
wal	-7158
änk	-7159
ätz	-7160
ügt	-7161
▁cy	-7162
▁ed	-7163
▁li	-7164
▁si	-7165
▁sö	-7166
▁yo	-7167
adem	-7168
ader	-7169
afür	-7170
ager	-7171
ahlt	-7172
alie	-7173
anis	-7174
ards	-7175
arkt	-7176
arme	-7177
base	-7178
bude	-7179
eink	-7180
entr	-7181
eogr	-7182
esst	-7183
etch	-7184
ftet	-7185
gumm	-7186
halm	-7187
hell	-7188
ider	-7189
itze	-7190
jagt	-7191
jahr	-7192
komp	-7193
ktor	-7194
mach	-7195
ness	-7196
ockt	-7197
onge	-7198
pern	-7199
pert	-7200
rein	-7201
rote	-7202
sack	-7203
sand	-7204
sein	-7205
sich	-7206
star	-7207
stas	-7208
stat	-7209
steg	-7210
stem	-7211
uchs	-7212
uhen	-7213
umor	-7214
völk	-7215
ware	-7216
zahl	-7217
zung	-7218
änen	-7219
üsse	-7220
▁abw	-7221
▁att	-7222
▁beu	-7223
▁cap	-7224
▁cri	-7225
▁dog	-7226
▁drä	-7227
▁elf	-7228
▁flö	-7229
▁fol	-7230
▁hus	-7231
▁hüt	-7232
▁kop	-7233
▁kro	-7234
▁krü	-7235
▁lok	-7236
▁lot	-7237
▁ped	-7238
▁pul	-7239
▁ran	-7240
▁run	-7241
▁sky	-7242
▁süd	-7243
▁van	-7244
▁vis	-7245
ascar	-7246
atuen	-7247
boter	-7248
ckern	-7249
compu	-7250
fpipe	-7251
grill	-7252
gäste	-7253
herum	-7254
holen	-7255
horts	-7256
hören	-7257
igner	-7258
irmes	-7259
kegel	-7260
klapp	-7261
klich	-7262
kreis	-7263
kremp	-7264
lader	-7265
legen	-7266
leger	-7267
mobil	-7268
ochen	-7269
ocken	-7270
ohren	-7271
olfen	-7272
piste	-7273
plane	-7274
rauch	-7275
regen	-7276
reich	-7277
reise	-7278
ridor	-7279
start	-7280
strei	-7281
train	-7282
truck	-7283
ucher	-7284
uldig	-7285
unner	-7286
urgen	-7287
viert	-7288
wache	-7289
ymbol	-7290
ägers	-7291
ärten	-7292
ücher	-7293
▁arab	-7294
▁brät	-7295
▁bumm	-7296
▁chem	-7297
▁cock	-7298
▁cola	-7299
▁dart	-7300
▁dirt	-7301
▁enge	-7302
▁ents	-7303
▁euro	-7304
▁fund	-7305
▁gekr	-7306
▁grab	-7307
▁gute	-7308
▁gärt	-7309
▁head	-7310
▁hebe	-7311
▁ital	-7312
▁jung	-7313
▁lehm	-7314
▁love	-7315
▁lung	-7316
▁mass	-7317
▁mast	-7318
▁mehl	-7319
▁mich	-7320
▁müde	-7321
▁nike	-7322
▁pack	-7323
▁pfau	-7324
▁prie	-7325
▁reit	-7326
▁rest	-7327
▁sari	-7328
▁sche	-7329
▁senf	-7330
▁spir	-7331
▁spur	-7332
▁spät	-7333
▁stoß	-7334
▁stro	-7335
▁tüte	-7336
▁vieh	-7337
▁wash	-7338
▁winz	-7339
▁wort	-7340
▁zuzu	-7341
affell	-7342
blöcke	-7343
bündel	-7344
denten	-7345
eigung	-7346
eisten	-7347
esseln	-7348
ettelt	-7349
funden	-7350
gläser	-7351
grünem	-7352
grünes	-7353
hauses	-7354
ichter	-7355
ikatur	-7356
indeln	-7357
ingham	-7358
itiert	-7359
kissen	-7360
kittel	-7361
komple	-7362
kunden	-7363
lungen	-7364
masken	-7365
masten	-7366
museum	-7367
passen	-7368
plakat	-7369
puppen	-7370
ringen	-7371
röcken	-7372
schale	-7373
schulk	-7374
selben	-7375
shalle	-7376
statur	-7377
strich	-7378
stöcke	-7379
swagen	-7380
termin	-7381
utlich	-7382
voller	-7383
ztisch	-7384
äuchen	-7385
▁acker	-7386
▁anbie	-7387
▁angeg	-7388
▁anger	-7389
▁ausru	-7390
▁baden	-7391
▁bauer	-7392
▁beruh	-7393
▁bongo	-7394
▁brief	-7395
▁bären	-7396
▁chips	-7397
▁coach	-7398
▁comic	-7399
▁dafür	-7400
▁deckt	-7401
▁defen	-7402
▁derby	-7403
▁dünne	-7404
▁ebene	-7405
▁erdbe	-7406
▁erken	-7407
▁faust	-7408
▁fremd	-7409
▁front	-7410
▁frühl	-7411
▁geden	-7412
▁griff	-7413
▁gäste	-7414
▁halbw	-7415
▁harfe	-7416
▁heißt	-7417
▁hucke	-7418
▁ident	-7419
▁jahre	-7420
▁juwel	-7421
▁kamin	-7422
▁kanal	-7423
▁kaput	-7424
▁kerze	-7425
▁kites	-7426
▁leere	-7427
▁lehrt	-7428
▁lenkt	-7429
▁lobby	-7430
▁messe	-7431
▁misst	-7432
▁mönch	-7433
▁nasen	-7434
▁nippt	-7435
▁nächt	-7436
▁obama	-7437
▁paint	-7438
▁parks	-7439
▁pingu	-7440
▁plane	-7441
▁ponch	-7442
▁power	-7443
▁preis	-7444
▁probt	-7445
▁punkt	-7446
▁regal	-7447
▁rings	-7448
▁runde	-7449
▁räumt	-7450
▁schei	-7451
▁seife	-7452
▁skige	-7453
▁skist	-7454
▁stiel	-7455
▁sturm	-7456
▁sturz	-7457
▁stämm	-7458
▁wadet	-7459
▁waten	-7460
▁zehen	-7461
▁zeige	-7462
▁zupft	-7463
▁ärmel	-7464
attrakt	-7465
ausflug	-7466
brechen	-7467
emantel	-7468
emdchen	-7469
farbene	-7470
flieger	-7471
geschen	-7472
gestell	-7473
ießlich	-7474
istolen	-7475
mischer	-7476
monitor	-7477
mänteln	-7478
olizist	-7479
ongebob	-7480
orangen	-7481
platten	-7482
rutscht	-7483
schwarm	-7484
sstatue	-7485
traktor	-7486
treffen	-7487
turnier	-7488
wiegend	-7489
ächlich	-7490
ätzchen	-7491
▁abdeck	-7492
▁abfall	-7493
▁abhang	-7494
▁action	-7495
▁attack	-7496
▁aufkle	-7497
▁bahnen	-7498
▁basket	-7499
▁bevölk	-7500
▁boogie	-7501
▁bronze	-7502
▁büsche	-7503
▁collie	-7504
▁deutet	-7505
▁diadem	-7506
▁dicker	-7507
▁disney	-7508
▁einzig	-7509
▁entsch	-7510
▁federn	-7511
▁freuen	-7512
▁gebeug	-7513
▁gebück	-7514
▁geiger	-7515
▁gejagt	-7516
▁gemalt	-7517
▁graues	-7518
▁grills	-7519
▁großem	-7520
▁harten	-7521
▁hunder	-7522
▁hängeb	-7523
▁intern	-7524
▁kirmes	-7525
▁kokosn	-7526
▁kosten	-7527
▁kultur	-7528
▁ladung	-7529
▁lappen	-7530
▁masken	-7531
▁montur	-7532
▁nudeln	-7533
▁pfoten	-7534
▁pinata	-7535
▁pracht	-7536
▁pustet	-7537
▁pyjama	-7538
▁rallye	-7539
▁rampen	-7540
▁riemen	-7541
▁ruinen	-7542
▁rundes	-7543
▁rustik	-7544
▁schleu	-7545
▁spider	-7546
▁steuer	-7547
▁stoßen	-7548
▁stützt	-7549
▁tische	-7550
▁umgeki	-7551
▁vaters	-7552
▁verspr	-7553
▁wangen	-7554
▁winken	-7555
▁würden	-7556
▁zugeht	-7557
▁ärmeln	-7558
aufgaben	-7559
auftritt	-7560
computer	-7561
ertasche	-7562
fertigen	-7563
fluteten	-7564
isierten	-7565
motorrad	-7566
objektiv	-7567
pflanzen	-7568
piercing	-7569
schonern	-7570
stammung	-7571
stattung	-7572
stimmten	-7573
teiligen	-7574
umgebung	-7575
▁angriff	-7576
▁artikel	-7577
▁aufgabe	-7578
▁beenden	-7579
▁befragt	-7580
▁betrieb	-7581
▁betritt	-7582
▁bettelt	-7583
▁büchern	-7584
▁chirurg	-7585
▁denkmal	-7586
▁dessert	-7587
▁dirigen	-7588
▁drängen	-7589
▁einschl	-7590
▁endzone	-7591
▁erzählt	-7592
▁fackeln	-7593
▁felsige	-7594
▁fertigt	-7595
▁flaches	-7596
▁flieger	-7597
▁fließen	-7598
▁führung	-7599
▁gebogen	-7600
▁gemisch	-7601
▁gesprei	-7602
▁getrock	-7603
▁gewicht	-7604
▁gleiche	-7605
▁gärtner	-7606
▁hechtet	-7607
▁inneren	-7608
▁italien	-7609
▁japaner	-7610
▁kamelen	-7611
▁kulisse	-7612
▁kutsche	-7613
▁landung	-7614
▁langarm	-7615
▁letzten	-7616
▁lichter	-7617
▁läufern	-7618
▁neugier	-7619
▁offizie	-7620
▁papiert	-7621
▁partner	-7622
▁patient	-7623
▁patriot	-7624
▁pflanzt	-7625
▁poliert	-7626
▁rangeln	-7627
▁reklame	-7628
▁richtig	-7629
▁roboter	-7630
▁schanze	-7631
▁schwein	-7632
▁schweiß	-7633
▁schädel	-7634
▁sitzend	-7635
▁skilift	-7636
▁sprache	-7637
▁stecken	-7638
▁tellern	-7639
▁terrier	-7640
▁traurig	-7641
▁turnier	-7642
▁uferweg	-7643
▁vordach	-7644
▁wheelie	-7645
▁windsur	-7646
▁zuguckt	-7647
▁zuhören	-7648
▁zuhörer	-7649
▁zweiten	-7650
▁zweiter	-7651
▁übungen	-7652
affellauf	-7653
eisenbahn	-7654
fahrzeuge	-7655
maschinen	-7656
scheinend	-7657
schlossen	-7658
strümpfen	-7659
studenten	-7660
ähnliches	-7661
▁außerdem	-7662
▁balkonen	-7663
▁berghang	-7664
▁brunnens	-7665
▁bäckerei	-7666
▁einfahrt	-7667
▁erdboden	-7668
▁erhalten	-7669
▁erhöhten	-7670
▁erzielen	-7671
▁fertigen	-7672
▁freiheit	-7673
▁freiwill	-7674
▁freundes	-7675
▁friedhof	-7676
▁fußboden	-7677
▁fußtritt	-7678
▁gedrängt	-7679
▁geholfen	-7680
▁gemeinde	-7681
▁gesteckt	-7682
▁gestrüpp	-7683
▁gestützt	-7684
▁gewonnen	-7685
▁halfpipe	-7686
▁hellrosa	-7687
▁holzboot	-7688
▁hunderen	-7689
▁jemandes	-7690
▁kollegen	-7691
▁kongress	-7692
▁korridor	-7693
▁labrador	-7694
▁lackiert	-7695
▁landwirt	-7696
▁lehrerin	-7697
▁lichtern	-7698
▁material	-7699
▁matratze	-7700
▁matrosen	-7701
▁mcdonald	-7702
▁militärs	-7703
▁minigolf	-7704
▁nebligen	-7705
▁oberhemd	-7706
▁priester	-7707
▁rasieren	-7708
▁rennbahn	-7709
▁schalter	-7710
▁schminke	-7711
▁schotten	-7712
▁schreien	-7713
▁spielzug	-7714
▁stolpert	-7715
▁superman	-7716
▁teddybär	-7717
▁trommelt	-7718
▁truthahn	-7719
▁verletzt	-7720
▁verliert	-7721
▁verloren	-7722
▁verwirrt	-7723
▁verzieht	-7724
▁vornüber	-7725
▁zugucken	-7726
amerikaner	-7727
attraktion	-7728
ikanischen	-7729
kunststück	-7730
tnachricht	-7731
▁abschluss	-7732
▁angesicht	-7733
▁bauernhof	-7734
▁bedienung	-7735
▁beladenen	-7736
▁betrunken	-7737
▁bewundern	-7738
▁blattwerk	-7739
▁brünettes	-7740
▁bulldozer	-7741
▁eiswaffel	-7742
▁erledigen	-7743
▁felsblock	-7744
▁gemütlich	-7745
▁geschnitz	-7746
▁geschoben	-7747
▁gespritzt	-7748
▁holzstuhl	-7749
▁huckepack	-7750
▁irgendwel	-7751
▁karikatur	-7752
▁klatschen	-7753
▁lieblings	-7754
▁navigiert	-7755
▁plantscht	-7756
▁reagieren	-7757
▁rucksäcke	-7758
▁schaumbad	-7759
▁schwanger	-7760
▁schweißen	-7761
▁schülerin	-7762
▁selbstgeb	-7763
▁sitzendes	-7764
▁skigebiet	-7765
▁sortieren	-7766
▁spielende	-7767
▁straßenla	-7768
▁unterhalb	-7769
▁vereisten	-7770
▁vollständ	-7771
▁warenkorb	-7772
▁zeichnung	-7773
▁zugewandt	-7774
maskottchen	-7775
vorstellung	-7776
▁abstammung	-7777
▁angemaltem	-7778
▁ansammlung	-7779
▁anzuziehen	-7780
▁arbeitende	-7781
▁aufgeregte	-7782
▁außenseite	-7783
▁bademantel	-7784
▁ballbesitz	-7785
▁barfüßiges	-7786
▁befestigen	-7787
▁betonrampe	-7788
▁blaugrünen	-7789
▁buckelnden	-7790
▁durchsicht	-7791
▁elternteil	-7792
▁erleuchtet	-7793
▁garagentor	-7794
▁geschossen	-7795
▁halsketten	-7796
▁hellbraune	-7797
▁herrlichen	-7798
▁interessan	-7799
▁interviewt	-7800
▁irgendeine	-7801
▁klarinette	-7802
▁kleinstadt	-7803
▁kragenhemd	-7804
▁lastwagens	-7805
▁marktstand	-7806
▁musizieren	-7807
▁plakatwand	-7808
▁polizistin	-7809
▁rednerpult	-7810
▁schattigen	-7811
▁schmutzige	-7812
▁schneemann	-7813
▁schwertern	-7814
▁skulpturen	-7815
▁spanischer	-7816
▁stadtplatz	-7817
▁steinernen	-7818
▁straßencaf	-7819
▁streicheln	-7820
▁türeingang	-7821
▁umklammert	-7822
▁unterricht	-7823
▁verbringen	-7824
▁verlassene	-7825
▁vermutlich	-7826
▁wasserlauf	-7827
▁zerbrochen	-7828
▁zigaretten	-7829
▁zueinander	-7830
gesellschaft	-7831
▁absperrband	-7832
▁anscheinend	-7833
▁anzugreifen	-7834
▁balancieren	-7835
▁bergsteigen	-7836
▁blumenwiese	-7837
▁bräunlicher	-7838
▁dinosaurier	-7839
▁flauschigen	-7840
▁freundinnen	-7841
▁gartenstuhl	-7842
▁golfspieler	-7843
▁grauhaarige	-7844
▁haarschnitt	-7845
▁hafengebiet	-7846
▁hellbraunem	-7847
▁hängebrücke	-7848
▁kanadischen	-7849
▁kastenwagen	-7850
▁kleinigkeit	-7851
▁kletterwand	-7852
▁knallbunten	-7853
▁kopftüchern	-7854
▁ledermantel	-7855
▁lohfarbener	-7856
▁nächtlichen	-7857
▁orangensaft	-7858
▁pinkfarbene	-7859
▁politischen	-7860
▁rollstühlen	-7861
▁schlafenden	-7862
▁schlafender	-7863
▁schreiendes	-7864
▁schusswaffe	-7865
▁schwimmerin	-7866
▁spielzeugen	-7867
▁springenden	-7868
▁staffellauf	-7869
▁toreinfahrt	-7870
▁transporter	-7871
▁unglücklich	-7872
▁verbundenen	-7873
▁verteidigen	-7874
▁vierköpfige	-7875
▁vorbereiten	-7876
▁weingläsern	-7877
▁werkzeuggür	-7878
▁auszeichnung	-7879
▁babyschaukel	-7880
▁entlanggehen	-7881
▁fliesenboden	-7882
▁funktioniert	-7883
▁geschminktem	-7884
▁geschmückten	-7885
▁grauhaariger	-7886
▁hochklettert	-7887
▁inlineskater	-7888
▁kindergruppe	-7889
▁langärmligen	-7890
▁lautsprecher	-7891
▁marathonlauf	-7892
▁medizinische	-7893
▁militärische	-7894
▁pferderennen	-7895
▁protestieren	-7896
▁rollerskates	-7897
▁rosafarbenes	-7898
▁schneehaufen	-7899
▁schutzwesten	-7900
▁schwimmenden	-7901
▁seilschaukel	-7902
▁traditionell	-7903
▁verdunkelten	-7904
▁vorbeilaufen	-7905
▁wassermelone	-7906
▁wintermantel	-7907
▁überkreuzten	-7908
▁backsteinwand	-7909
▁balletttänzer	-7910
▁beaufsichtigt	-7911
▁blondhaariges	-7912
▁blätterhaufen	-7913
▁fahrradreifen	-7914
▁fensterputzer	-7915
▁geschäftsmann	-7916
▁informationen	-7917
▁interessanten	-7918
▁medizinischen	-7919
▁schaufenstern	-7920
▁schwarzweißen	-7921
▁tennisspielen	-7922
▁ausgestrecktem	-7923
▁basketballkorb	-7924
▁dunkelhaariges	-7925
▁einschließlich	-7926
▁eishockeyspiel	-7927
▁hochzeitsfeier	-7928
▁konferenztisch	-7929
▁motorradrennen	-7930
▁operationssaal	-7931
▁rückwärtssalto	-7932
▁wasserfahrzeug	-7933
▁geländefahrzeug	-7934
▁heißluftballons	-7935
▁restaurantküche	-7936
▁schwierigkeiten	-7937
▁skateboardrampe	-7938
▁spielplatzgerät	-7939
▁tauchausrüstung	-7940
▁wasserskifahrer	-7941
▁wissenschaftler	-7942
ao	-7943
bs	-7944
ky	-7945
mi	-7946
ps	-7947
ry	-7948
va	-7949
abs	-7950
aha	-7951
aid	-7952
aks	-7953
alo	-7954
bot	-7955
dil	-7956
din	-7957
ebe	-7958
edo	-7959
ele	-7960
▁	-7961
e	-7962
n	-7963
i	-7964
r	-7965
t	-7966
a	-7967
s	-7968
u	-7969
m	-7970
h	-7971
d	-7972
l	-7973
g	-7974
f	-7975
c	-7976
o	-7977
b	-7978
.	-7979
k	-7980
p	-7981
w	-7982
z	-7983
ä	-7984
v	-7985
,	-7986
ü	-7987
ß	-7988
j	-7989
-	-7990
ö	-7991
y	-7992
q	-7993
;	-7994
&	-7995
