<pad>	0
<s>	0
</s>	0
<unk>	0
in	-0
en	-1
ein	-2
▁ein	-3
er	-4
▁s	-5
ch	-6
▁.	-7
▁m	-8
au	-9
▁eine	-10
an	-11
un	-12
▁d	-13
ei	-14
▁b	-15
▁f	-16
▁h	-17
ge	-18
it	-19
▁einem	-20
▁in	-21
ie	-22
und	-23
▁au	-24
▁k	-25
te	-26
ar	-27
▁mit	-28
▁auf	-29
▁,	-30
▁und	-31
▁w	-32
▁z	-33
ann	-34
▁v	-35
▁mann	-36
sch	-37
▁sch	-38
on	-39
rau	-40
hr	-41
st	-42
▁ge	-43
▁einer	-44
▁g	-45
lt	-46
▁r	-47
em	-48
▁i	-49
▁p	-50
▁l	-51
tr	-52
as	-53
ll	-54
or	-55
▁frau	-56
ten	-57
ck	-58
▁der	-59
▁an	-60
▁sp	-61
▁j	-62
ter	-63
gen	-64
ich	-65
wei	-66
der	-67
es	-68
▁die	-69
▁mä	-70
▁gr	-71
▁zwei	-72
▁kl	-73
de	-74
am	-75
▁einen	-76
ht	-77
▁zu	-78
ben	-79
gt	-80
el	-81
▁n	-82
▁jun	-83
and	-84
chen	-85
▁t	-86
▁bl	-87
▁im	-88
▁spie	-89
▁ste	-90
itz	-91
ers	-92
ber	-93
hen	-94
▁vor	-95
ach	-96
▁sitz	-97
et	-98
ier	-99
ft	-100
▁str	-101
ot	-102
um	-103
▁schw	-104
all	-105
ner	-106
ßen	-107
▁klein	-108
rei	-109
at	-110
▁tr	-111
nen	-112
▁von	-113
▁sich	-114
ur	-115
ähr	-116
▁junge	-117
schen	-118
▁st	-119
ung	-120
▁ro	-121
dchen	-122
▁dem	-123
▁mädchen	-124
den	-125
pp	-126
▁wei	-127
ält	-128
▁hund	-129
eu	-130
▁kin	-131
arz	-132
ße	-133
▁män	-134
ad	-135
erson	-136
▁person	-137
ger	-138
sen	-139
▁schwarz	-140
▁männer	-141
ahr	-142
▁steht	-143
bei	-144
▁stra	-145
▁o	-146
ir	-147
al	-148
ppe	-149
▁blau	-150
▁den	-151
▁ho	-152
ut	-153
▁sein	-154
▁be	-155
▁sitzt	-156
▁hin	-157
über	-158
▁spiel	-159
isch	-160
fen	-161
ne	-162
ass	-163
men	-164
end	-165
▁bei	-166
▁men	-167
uppe	-168
▁über	-169
ik	-170
äu	-171
▁straße	-172
▁währ	-173
▁während	-174
unter	-175
▁spr	-176
än	-177
▁aus	-178
il	-179
▁menschen	-180
▁gruppe	-181
se	-182
▁ihr	-183
▁spielt	-184
sp	-185
▁hält	-186
emd	-187
ball	-188
▁das	-189
tet	-190
kl	-191
alt	-192
cke	-193
▁um	-194
eben	-195
▁hemd	-196
iel	-197
▁personen	-198
ür	-199
ent	-200
▁ver	-201
▁ar	-202
acht	-203
▁fahr	-204
▁drei	-205
eid	-206
ang	-207
ehr	-208
be	-209
▁ander	-210
▁gel	-211
aar	-212
▁wass	-213
eil	-214
▁eines	-215
pf	-216
▁neben	-217
▁am	-218
ingt	-219
ri	-220
lle	-221
▁gro	-222
▁kinder	-223
urch	-224
▁frauen	-225
▁stehen	-226
▁sitzen	-227
▁wasser	-228
▁hinter	-229
mm	-230
▁blauen	-231
▁durch	-232
ab	-233
ol	-234
▁kind	-235
rad	-236
▁ist	-237
gr	-238
▁schau	-239
ägt	-240
▁weißen	-241
▁roten	-242
▁ko	-243
▁spielen	-244
af	-245
▁ent	-246
ro	-247
hn	-248
arben	-249
re	-250
lich	-251
ährt	-252
▁hand	-253
fer	-254
▁geht	-255
▁leu	-256
▁unter	-257
ere	-258
▁brau	-259
la	-260
▁grü	-261
▁trägt	-262
bo	-263
icht	-264
tel	-265
▁fährt	-266
he	-267
iert	-268
▁er	-269
kt	-270
eg	-271
▁bo	-272
spiel	-273
gel	-274
cken	-275
▁her	-276
▁ober	-277
▁kleid	-278
▁kleines	-279
▁weiß	-280
imm	-281
ckt	-282
us	-283
▁macht	-284
eide	-285
▁ren	-286
▁arbei	-287
▁entl	-288
os	-289
anz	-290
▁re	-291
▁entlang	-292
▁springt	-293
▁kleiner	-294
▁ber	-295
▁schwarzen	-296
igen	-297
agen	-298
▁sie	-299
▁geb	-300
äch	-301
teil	-302
▁mehr	-303
uch	-304
ind	-305
▁fel	-306
ange	-307
ern	-308
elt	-309
▁leute	-310
qu	-311
▁fl	-312
▁gehen	-313
ige	-314
▁frei	-315
uß	-316
▁or	-317
is	-318
▁es	-319
▁schl	-320
kleide	-321
fahr	-322
▁lie	-323
ischen	-324
▁ja	-325
▁sk	-326
▁et	-327
▁fahrrad	-328
auf	-329
▁schne	-330
▁ält	-331
eln	-332
hl	-333
sh	-334
▁oberteil	-335
▁etw	-336
alten	-337
▁wir	-338
▁c	-339
▁fuß	-340
▁bau	-341
irt	-342
▁etwas	-343
ug	-344
▁mehrere	-345
▁ball	-346
eit	-347
▁seinem	-348
farben	-349
ig	-350
▁großen	-351
uft	-352
▁läu	-353
▁se	-354
ell	-355
ieren	-356
▁schnee	-357
▁vers	-358
grund	-359
rille	-360
▁gebäu	-361
▁jungen	-362
▁gekleide	-363
▁par	-364
zeu	-365
▁kam	-366
ander	-367
bt	-368
▁hoch	-369
▁son	-370
sam	-371
spieler	-372
▁fü	-373
ild	-374
ort	-375
▁luft	-376
boar	-377
▁nach	-378
▁grünen	-379
▁da	-380
era	-381
▁läch	-382
▁strand	-383
ster	-384
▁fot	-385
weg	-386
▁läuft	-387
▁sind	-388
ate	-389
▁bas	-390
bl	-391
zen	-392
▁für	-393
▁vo	-394
ze	-395
▁hintergrund	-396
▁freien	-397
shirt	-398
ör	-399
▁hat	-400
▁jacke	-401
▁kopf	-402
rü	-403
▁&	-404
aufen	-405
▁anderen	-406
▁kleidung	-407
▁schaut	-408
▁nä	-409
▁junger	-410
▁as	-411
▁renn	-412
zeug	-413
▁vorbei	-414
▁asi	-415
▁bli	-416
▁gras	-417
tem	-418
äft	-419
ett	-420
▁tisch	-421
ag	-422
to	-423
▁haar	-424
▁vier	-425
ank	-426
itar	-427
schau	-428
▁foto	-429
▁essen	-430
▁geh	-431
▁orange	-432
ack	-433
quot	-434
achen	-435
lat	-436
sten	-437
fahrer	-438
▁andere	-439
aus	-440
menge	-441
angen	-442
▁gelben	-443
▁rei	-444
ap	-445
stü	-446
▁le	-447
fon	-448
sche	-449
▁war	-450
▁wie	-451
▁gebäude	-452
▁ih	-453
▁kleine	-454
hne	-455
board	-456
umen	-457
▁hut	-458
▁ab	-459
▁bü	-460
▁hän	-461
▁un	-462
▁al	-463
▁wird	-464
eich	-465
▁fußball	-466
▁beim	-467
üt	-468
▁nähe	-469
ing	-470
▁gegen	-471
amm	-472
▁blon	-473
▁kleinen	-474
▁stad	-475
▁gesch	-476
▁kamera	-477
str	-478
▁park	-479
▁hunde	-480
▁älter	-481
iger	-482
▁schwarzer	-483
▁menschenmenge	-484
▁asiat	-485
ahn	-486
▁ros	-487
▁paar	-488
ans	-489
utz	-490
ow	-491
ische	-492
farbenen	-493
otor	-494
▁boden	-495
etter	-496
▁gitar	-497
det	-498
ste	-499
är	-500
eig	-501
ert	-502
▁kü	-503
▁schwimm	-504
sst	-505
▁bef	-506
▁skate	-507
▁sonnen	-508
op	-509
▁feld	-510
ink	-511
ion	-512
▁rennt	-513
▁zusam	-514
▁zuschau	-515
ver	-516
▁grau	-517
▁ihre	-518
▁stadt	-519
▁straßen	-520
▁je	-521
ucht	-522
▁dam	-523
ler	-524
latz	-525
fl	-526
dern	-527
▁dun	-528
▁pu	-529
▁pos	-530
▁gl	-531
▁tanz	-532
▁br	-533
▁viel	-534
▁des	-535
▁ihren	-536
▁te	-537
▁zusammen	-538
▁unterh	-539
ßer	-540
▁sand	-541
einander	-542
▁hü	-543
kleid	-544
che	-545
tes	-546
steig	-547
▁herum	-548
ho	-549
mp	-550
▁rot	-551
▁pfer	-552
▁ei	-553
▁gitarre	-554
▁a	-555
ingen	-556
▁motor	-557
kel	-558
▁wer	-559
▁älterer	-560
des	-561
▁drau	-562
▁schu	-563
geb	-564
▁so	-565
▁schn	-566
▁fahren	-567
▁draußen	-568
elm	-569
▁jeans	-570
fe	-571
▁ges	-572
lz	-573
art	-574
eigt	-575
▁bür	-576
▁bühne	-577
▁rennen	-578
kleidung	-579
▁sh	-580
ss	-581
▁ru	-582
▁befin	-583
▁gew	-584
▁brille	-585
ob	-586
▁gehweg	-587
▁skateboard	-588
deck	-589
ller	-590
▁zie	-591
▁base	-592
▁hell	-593
▁seine	-594
wach	-595
▁gest	-596
▁sehen	-597
aby	-598
wagen	-599
ade	-600
▁rau	-601
▁kletter	-602
▁hinunter	-603
ff	-604
ikro	-605
achtet	-606
wachsen	-607
cht	-608
ischer	-609
llen	-610
▁mikro	-611
▁stu	-612
▁baby	-613
▁dabei	-614
▁lächeln	-615
ock	-616
▁kur	-617
▁blickt	-618
▁seinen	-619
▁kar	-620
▁weißer	-621
▁laufen	-622
▁mar	-623
brille	-624
iz	-625
▁man	-626
▁baum	-627
▁me	-628
hrt	-629
▁holz	-630
▁braunen	-631
▁verk	-632
haar	-633
▁liegt	-634
aft	-635
▁dar	-636
▁versucht	-637
▁arbeitet	-638
llt	-639
▁bank	-640
▁tragen	-641
zug	-642
▁als	-643
nis	-644
▁wand	-645
eiten	-646
lichen	-647
▁betr	-648
lag	-649
▁tre	-650
▁mus	-651
▁schie	-652
ant	-653
reif	-654
arbei	-655
▁dame	-656
▁baseball	-657
bahn	-658
▁bel	-659
▁grün	-660
▁große	-661
▁machen	-662
per	-663
▁lächelt	-664
▁schauen	-665
ffen	-666
▁mau	-667
ko	-668
irm	-669
▁alt	-670
▁brauner	-671
ket	-672
▁versch	-673
for	-674
▁bürger	-675
eren	-676
▁ihrem	-677
ick	-678
▁wal	-679
ren	-680
ikot	-681
▁stein	-682
▁gestreif	-683
▁ältere	-684
▁arbeiten	-685
ütze	-686
▁orangefarbenen	-687
▁ihm	-688
unst	-689
assen	-690
▁braun	-691
▁junges	-692
▁bürgersteig	-693
ke	-694
bedeck	-695
▁gesicht	-696
▁motorrad	-697
▁erwachsen	-698
▁rad	-699
le	-700
▁weg	-701
▁bild	-702
▁hose	-703
ßt	-704
▁kr	-705
▁we	-706
▁zeigt	-707
▁u	-708
ikan	-709
▁sieht	-710
▁gem	-711
eitet	-712
mer	-713
▁spricht	-714
▁unterhalten	-715
uss	-716
schaft	-717
▁liest	-718
tele	-719
sehen	-720
▁auto	-721
▁boot	-722
afarben	-723
telefon	-724
fit	-725
stau	-726
▁wald	-727
fü	-728
▁ten	-729
▁halten	-730
▁trikot	-731
we	-732
ine	-733
▁gelb	-734
▁musik	-735
▁haaren	-736
gl	-737
itt	-738
▁kunst	-739
ät	-740
amp	-741
platz	-742
▁hosen	-743
▁fe	-744
rä	-745
▁rosa	-746
schu	-747
▁sur	-748
▁meer	-749
ecke	-750
▁tag	-751
▁helm	-752
▁viele	-753
par	-754
▁zum	-755
staur	-756
▁pferd	-757
▁tennis	-758
▁sonnenbrille	-759
▁ka	-760
▁band	-761
staurant	-762
▁kn	-763
liche	-764
asch	-765
orts	-766
▁beob	-767
ketball	-768
▁gekleidete	-769
ück	-770
▁bä	-771
▁bes	-772
▁seiner	-773
fel	-774
▁felsen	-775
▁la	-776
▁arm	-777
▁berg	-778
▁feu	-779
im	-780
▁fo	-781
▁co	-782
▁ta	-783
▁pol	-784
▁weißem	-785
▁restaurant	-786
▁gelän	-787
▁grauen	-788
▁singt	-789
▁geschäft	-790
▁pf	-791
▁ihnen	-792
▁blauem	-793
etz	-794
▁ha	-795
otball	-796
▁basketball	-797
nf	-798
wer	-799
▁mantel	-800
ah	-801
br	-802
llo	-803
▁fen	-804
▁dunkel	-805
▁mikrofon	-806
▁fünf	-807
▁pro	-808
▁posiert	-809
ken	-810
use	-811
▁wo	-812
▁darauf	-813
ien	-814
▁fr	-815
brau	-816
asen	-817
eite	-818
▁jem	-819
▁ange	-820
arbeiter	-821
▁versamm	-822
▁football	-823
▁klettert	-824
▁ob	-825
anzug	-826
▁führt	-827
▁jemand	-828
▁shorts	-829
▁spielzeug	-830
▁befindet	-831
ün	-832
asse	-833
▁spa	-834
uchen	-835
▁einige	-836
▁sport	-837
ja	-838
cks	-839
▁ne	-840
örper	-841
▁regen	-842
ppen	-843
▁fenster	-844
iet	-845
mit	-846
▁to	-847
llover	-848
▁blumen	-849
▁telefon	-850
ifor	-851
inkt	-852
▁flie	-853
▁sehr	-854
achten	-855
▁feuer	-856
▁wirft	-857
▁blauer	-858
▁arbeiter	-859
▁schwarzem	-860
zu	-861
aun	-862
hnt	-863
scht	-864
▁schrei	-865
iv	-866
▁gekleideter	-867
ette	-868
▁bun	-869
▁anzug	-870
aten	-871
stand	-872
▁bade	-873
änger	-874
▁raum	-875
licher	-876
▁spieler	-877
▁zw	-878
▁oder	-879
▁zeit	-880
▁ins	-881
ungen	-882
▁rotem	-883
eb	-884
ain	-885
▁po	-886
▁kon	-887
▁isst	-888
▁rosafarben	-889
▁gen	-890
gesch	-891
▁männern	-892
▁schwarze	-893
unden	-894
▁wiese	-895
▁anderer	-896
▁kindern	-897
äut	-898
becken	-899
ges	-900
hon	-901
▁teil	-902
▁roter	-903
▁langen	-904
▁wartet	-905
▁pullover	-906
▁weiße	-907
▁tanzen	-908
▁springen	-909
cher	-910
▁met	-911
▁maul	-912
haarige	-913
▁schutz	-914
▁poliz	-915
▁werden	-916
▁bar	-917
körper	-918
schirm	-919
▁fluss	-920
gang	-921
▁hal	-922
immer	-923
▁rucks	-924
▁posieren	-925
▁gestreiften	-926
gend	-927
▁bluse	-928
▁schild	-929
ekt	-930
▁dr	-931
blau	-932
ckey	-933
▁hügel	-934
▁stuhl	-935
stu	-936
zer	-937
▁sn	-938
auft	-939
zeit	-940
▁eis	-941
▁nacht	-942
▁wander	-943
▁ö	-944
ill	-945
▁buch	-946
▁beleb	-947
▁fotogr	-948
▁überqu	-949
▁dunkl	-950
▁handy	-951
▁voller	-952
▁oberkörper	-953
ieht	-954
▁umge	-955
▁bereitet	-956
her	-957
▁af	-958
▁vi	-959
▁schm	-960
▁warten	-961
▁mo	-962
▁brü	-963
▁fest	-964
▁getr	-965
▁metall	-966
ist	-967
ierten	-968
▁kleink	-969
ess	-970
ater	-971
▁eink	-972
▁zwischen	-973
▁betrachtet	-974
dem	-975
eine	-976
▁alter	-977
▁unifor	-978
▁en	-979
▁rü	-980
▁fri	-981
▁dies	-982
▁haus	-983
▁seil	-984
▁genie	-985
▁blonde	-986
äss	-987
▁he	-988
este	-989
▁fels	-990
▁oben	-991
▁spaz	-992
erikan	-993
▁bauarbeiter	-994
▁kä	-995
hren	-996
mann	-997
schl	-998
schw	-999
äger	-1000
▁bet	-1001
ieden	-1002
▁leuten	-1003
▁schläft	-1004
utzt	-1005
▁bus	-1006
▁fre	-1007
▁lil	-1008
▁stock	-1009
▁zieht	-1010
old	-1011
wand	-1012
▁rut	-1013
isten	-1014
altung	-1015
▁ch	-1016
immt	-1017
▁pap	-1018
sieht	-1019
▁mütze	-1020
häut	-1021
▁snow	-1022
▁lehnt	-1023
▁reitet	-1024
del	-1025
▁zug	-1026
ation	-1027
▁kostü	-1028
▁markt	-1029
▁händen	-1030
dr	-1031
ena	-1032
kor	-1033
▁dav	-1034
▁kleinkind	-1035
▁e	-1036
spr	-1037
ichtung	-1038
▁herunter	-1039
▁beobachtet	-1040
▁miteinander	-1041
di	-1042
▁männ	-1043
▁pink	-1044
▁bäumen	-1045
▁rucksack	-1046
ahl	-1047
▁ju	-1048
▁all	-1049
▁ihrer	-1050
▁tanzt	-1051
chten	-1052
▁land	-1053
og	-1054
▁ski	-1055
▁tur	-1056
▁mitt	-1057
▁zaun	-1058
weißer	-1059
▁radfahrer	-1060
▁-	-1061
amil	-1062
▁verschieden	-1063
feld	-1064
▁ger	-1065
aschine	-1066
sk	-1067
ul	-1068
▁see	-1069
▁vom	-1070
▁groß	-1071
▁beton	-1072
▁schein	-1073
▁schiebt	-1074
▁befinden	-1075
▁schneebedeck	-1076
ärt	-1077
▁bal	-1078
▁haben	-1079
▁gewäss	-1080
▁fotograf	-1081
▁famil	-1082
▁orangefarben	-1083
▁schwimmbecken	-1084
band	-1085
▁ben	-1086
stein	-1087
▁rücken	-1088
▁zuschauer	-1089
▁graf	-1090
▁küche	-1091
ue	-1092
ies	-1093
tern	-1094
äche	-1095
▁tür	-1096
inken	-1097
stück	-1098
▁seite	-1099
schuhen	-1100
▁einkauf	-1101
bar	-1102
hal	-1103
hlen	-1104
▁out	-1105
▁gera	-1106
▁instr	-1107
▁welle	-1108
▁arbeit	-1109
▁kurzen	-1110
▁sprung	-1111
▁umgeben	-1112
ast	-1113
att	-1114
eidet	-1115
▁schlag	-1116
▁asiatische	-1117
sbe	-1118
tos	-1119
▁na	-1120
ampe	-1121
boarder	-1122
▁treppe	-1123
▁graffit	-1124
emden	-1125
stelle	-1126
igt	-1127
mar	-1128
▁de	-1129
anst	-1130
▁tau	-1131
▁zur	-1132
utter	-1133
▁schü	-1134
▁schla	-1135
▁farben	-1136
▁papier	-1137
▁verkauft	-1138
uck	-1139
▁flag	-1140
▁gerade	-1141
▁versammelt	-1142
innen	-1143
▁star	-1144
▁offen	-1145
▁fangen	-1146
▁geträn	-1147
▁großer	-1148
▁mitten	-1149
▁trinkt	-1150
▁familie	-1151
ds	-1152
me	-1153
öpf	-1154
weißen	-1155
▁aussehen	-1156
▁cow	-1157
sport	-1158
isches	-1159
▁schreibt	-1160
▁erwachsene	-1161
▁rosafarbenen	-1162
dt	-1163
ief	-1164
mmen	-1165
▁ihn	-1166
▁tor	-1167
gruppe	-1168
▁autos	-1169
▁hängt	-1170
geschäft	-1171
anstaltung	-1172
▁schneidet	-1173
yp	-1174
boy	-1175
mmt	-1176
net	-1177
▁mü	-1178
äufer	-1179
▁sonn	-1180
stre	-1181
▁pla	-1182
mpfen	-1183
stung	-1184
unnen	-1185
zimmer	-1186
▁platz	-1187
tlichen	-1188
▁spazieren	-1189
▁telefoniert	-1190
deo	-1191
hut	-1192
▁gu	-1193
fall	-1194
weiß	-1195
▁bik	-1196
▁wagen	-1197
▁belebten	-1198
ak	-1199
mpu	-1200
alen	-1201
inter	-1202
itten	-1203
▁bahn	-1204
▁malt	-1205
enager	-1206
▁bunten	-1207
▁teenager	-1208
▁lo	-1209
chte	-1210
schri	-1211
blauen	-1212
▁nimmt	-1213
▁reihe	-1214
▁frisbe	-1215
▁schwimmt	-1216
aße	-1217
hör	-1218
▁dre	-1219
▁gar	-1220
▁stä	-1221
▁typ	-1222
immel	-1223
jacke	-1224
▁rote	-1225
▁viol	-1226
▁rasen	-1227
▁cowboy	-1228
▁lachen	-1229
▁blicken	-1230
▁gewässer	-1231
kam	-1232
lley	-1233
ogen	-1234
ässt	-1235
▁denen	-1236
▁freiem	-1237
▁vielen	-1238
▁frisbee	-1239
▁schneebedeckten	-1240
ikum	-1241
▁himmel	-1242
▁schlägt	-1243
▁zeitung	-1244
▁gekleidet	-1245
▁kopfbedeck	-1246
arb	-1247
▁bu	-1248
atte	-1249
hmen	-1250
▁kan	-1251
eigen	-1252
stuhl	-1253
▁bart	-1254
▁rock	-1255
blikum	-1256
straße	-1257
▁compu	-1258
▁hände	-1259
▁brücke	-1260
▁hinauf	-1261
▁mutter	-1262
▁gebäudes	-1263
▁sonnigen	-1264
▁fußballspieler	-1265
fest	-1266
ügen	-1267
zogen	-1268
▁lang	-1269
▁fisch	-1270
rüstung	-1271
▁fliegt	-1272
lleyball	-1273
▁geländer	-1274
▁publikum	-1275
▁ü	-1276
arm	-1277
▁ak	-1278
jekt	-1279
▁tro	-1280
markt	-1281
▁hebt	-1282
▁leben	-1283
▁shirt	-1284
▁tasche	-1285
▁kämpfen	-1286
▁richtung	-1287
▁wä	-1288
hemd	-1289
fläche	-1290
▁kampf	-1291
▁hemden	-1292
▁schult	-1293
▁dunklen	-1294
chs	-1295
ängt	-1296
▁beg	-1297
eifen	-1298
eiter	-1299
mittel	-1300
▁weste	-1301
▁öffen	-1302
▁grünem	-1303
▁orangen	-1304
▁schutzh	-1305
gew	-1306
ust	-1307
esen	-1308
▁hof	-1309
asche	-1310
inger	-1311
stler	-1312
▁hohen	-1313
▁repar	-1314
▁graffiti	-1315
rich	-1316
wehr	-1317
werk	-1318
ellen	-1319
▁augen	-1320
▁freund	-1321
▁outfit	-1322
▁weißes	-1323
▁blondes	-1324
▁uniform	-1325
▁spielplatz	-1326
▁asiatischer	-1327
▁gi	-1328
igar	-1329
ummer	-1330
▁alte	-1331
▁bier	-1332
▁hals	-1333
▁gleich	-1334
▁liegen	-1335
▁überqueren	-1336
▁kopfbedeckung	-1337
hü	-1338
pft	-1339
▁el	-1340
▁flug	-1341
▁tritt	-1342
▁zigar	-1343
▁jugend	-1344
▁mannes	-1345
▁schirm	-1346
▁winter	-1347
▁mittler	-1348
▁zuschauen	-1349
anc	-1350
aub	-1351
bank	-1352
ling	-1353
park	-1354
▁pfl	-1355
ument	-1356
▁herr	-1357
eichen	-1358
haariger	-1359
zt	-1360
ärm	-1361
atue	-1362
fern	-1363
hose	-1364
ungs	-1365
▁glas	-1366
▁nack	-1367
▁schö	-1368
▁davon	-1369
▁mensch	-1370
▁verschn	-1371
▁bereiten	-1372
▁gol	-1373
▁hör	-1374
etten	-1375
▁pool	-1376
▁verl	-1377
laster	-1378
▁ausge	-1379
▁blaue	-1380
▁blick	-1381
▁schal	-1382
▁städt	-1383
▁train	-1384
schrift	-1385
▁bereit	-1386
▁ziegel	-1387
▁genießt	-1388
▁dunkelhäut	-1389
kon	-1390
▁hil	-1391
▁kor	-1392
brett	-1393
▁dach	-1394
▁team	-1395
▁decke	-1396
▁stück	-1397
smittel	-1398
▁computer	-1399
▁hellbrau	-1400
▁mittleren	-1401
fa	-1402
▁klei	-1403
rädern	-1404
▁lacht	-1405
▁mauer	-1406
▁schür	-1407
▁sechs	-1408
▁schaukel	-1409
▁karierten	-1410
▁zuschauern	-1411
▁hö	-1412
haus	-1413
ickt	-1414
gebäu	-1415
tellt	-1416
▁gemü	-1417
▁roll	-1418
▁zelt	-1419
▁alters	-1420
▁vorder	-1421
▁benutzt	-1422
▁feuerwehr	-1423
hält	-1424
▁alten	-1425
▁menge	-1426
schwarz	-1427
▁kunststück	-1428
▁geg	-1429
elmen	-1430
▁obst	-1431
▁ries	-1432
▁sold	-1433
gänger	-1434
▁großes	-1435
amerikan	-1436
▁einigen	-1437
▁unterhält	-1438
ied	-1439
änd	-1440
bild	-1441
▁sil	-1442
▁sto	-1443
▁bein	-1444
▁mund	-1445
▁nahe	-1446
▁voll	-1447
▁fotos	-1448
▁mitte	-1449
▁zusieht	-1450
▁baseballspieler	-1451
ons	-1452
▁stü	-1453
anten	-1454
immen	-1455
kampf	-1456
▁lila	-1457
▁sofa	-1458
fahren	-1459
▁armen	-1460
▁außer	-1461
▁weihn	-1462
▁trinken	-1463
▁einkaufs	-1464
▁zuschaut	-1465
▁fußgänger	-1466
▁nebeneinander	-1467
lin	-1468
pfen	-1469
▁hei	-1470
▁verw	-1471
▁wett	-1472
▁lässt	-1473
▁nicht	-1474
▁nachts	-1475
▁zusehen	-1476
▁lebensmittel	-1477
grü	-1478
igk	-1479
ini	-1480
affe	-1481
auer	-1482
eift	-1483
geln	-1484
halb	-1485
teln	-1486
▁for	-1487
▁kap	-1488
▁kurz	-1489
▁kniet	-1490
▁schüt	-1491
▁sonne	-1492
▁gemüse	-1493
▁hockey	-1494
▁gegenstand	-1495
ition	-1496
under	-1497
▁aben	-1498
▁stre	-1499
▁ufer	-1500
▁braut	-1501
▁gelber	-1502
▁hinten	-1503
▁surfer	-1504
▁versuchen	-1505
▁zigarette	-1506
▁volleyball	-1507
vo	-1508
fro	-1509
len	-1510
▁cl	-1511
▁sa	-1512
erne	-1513
itzt	-1514
▁afr	-1515
▁fla	-1516
▁gibt	-1517
▁unbe	-1518
▁wein	-1519
▁führen	-1520
▁treten	-1521
▁scheint	-1522
▁mehreren	-1523
▁beobachten	-1524
kr	-1525
▁pl	-1526
ause	-1527
stik	-1528
▁ker	-1529
achts	-1530
▁bett	-1531
▁pass	-1532
▁pfad	-1533
▁farbenfro	-1534
oß	-1535
rück	-1536
▁gef	-1537
▁wur	-1538
deckt	-1539
spann	-1540
▁bärt	-1541
▁beide	-1542
▁fängt	-1543
▁trick	-1544
▁flagge	-1545
▁garten	-1546
▁gegner	-1547
▁nummer	-1548
▁raucht	-1549
▁öffentlichen	-1550
ek	-1551
rt	-1552
tur	-1553
hund	-1554
iges	-1555
zert	-1556
▁bew	-1557
▁fei	-1558
▁ind	-1559
▁part	-1560
▁beleu	-1561
▁ferne	-1562
▁handt	-1563
▁stange	-1564
▁stufen	-1565
▁afrikan	-1566
▁schürze	-1567
▁trikots	-1568
▁betrachten	-1569
▁weihnachts	-1570
▁verschneiten	-1571
aben	-1572
etzt	-1573
heit	-1574
▁art	-1575
▁bow	-1576
kostü	-1577
stell	-1578
▁afro	-1579
▁krei	-1580
▁müll	-1581
▁grill	-1582
▁laden	-1583
▁reden	-1584
▁gehsteig	-1585
▁wanderer	-1586
oh	-1587
hof	-1588
üst	-1589
▁kö	-1590
alle	-1591
olgt	-1592
issen	-1593
mütze	-1594
änzer	-1595
gebung	-1596
▁diese	-1597
▁rotes	-1598
▁blonden	-1599
ausrüstung	-1600
▁erwachsener	-1601
▁veranstaltung	-1602
ka	-1603
los	-1604
vor	-1605
öff	-1606
phon	-1607
▁che	-1608
anzen	-1609
füllt	-1610
gehen	-1611
▁back	-1612
▁chin	-1613
▁geld	-1614
▁surf	-1615
▁rampe	-1616
▁unten	-1617
▁musiker	-1618
▁einander	-1619
▁außerhalb	-1620
▁tennisball	-1621
▁snowboarder	-1622
▁mö	-1623
boot	-1624
atten	-1625
gebäude	-1626
▁gemein	-1627
▁roller	-1628
▁weiter	-1629
▁plastik	-1630
untergang	-1631
▁snowboard	-1632
▁mannschaft	-1633
do	-1634
od	-1635
ub	-1636
bau	-1637
▁ku	-1638
▁dass	-1639
▁gele	-1640
▁greift	-1641
▁läufer	-1642
▁zurück	-1643
▁rutscht	-1644
▁leuchten	-1645
▁instrumen	-1646
▁männliche	-1647
▁sonnenuntergang	-1648
own	-1649
ume	-1650
▁ke	-1651
köpf	-1652
▁gep	-1653
mauer	-1654
▁kapu	-1655
▁turn	-1656
liches	-1657
▁hilft	-1658
▁hüten	-1659
▁vater	-1660
▁bikini	-1661
▁braune	-1662
▁bowling	-1663
▁brunnen	-1664
▁klassen	-1665
▁bärtiger	-1666
▁kleidern	-1667
▁skifahrer	-1668
▁aufschrift	-1669
▁fotografiert	-1670
aw	-1671
eibe	-1672
eugt	-1673
geht	-1674
ings	-1675
obil	-1676
weat	-1677
▁bem	-1678
▁bil	-1679
▁jog	-1680
▁kün	-1681
uster	-1682
schild	-1683
▁angel	-1684
▁besch	-1685
▁beste	-1686
▁damen	-1687
▁surft	-1688
▁vogel	-1689
▁beiden	-1690
▁werfen	-1691
pflaster	-1692
weatshirt	-1693
▁fahrzeug	-1694
▁polizist	-1695
▁kampfsport	-1696
▁afroamerikan	-1697
co	-1698
pu	-1699
▁y	-1700
jak	-1701
kar	-1702
ont	-1703
umm	-1704
▁ma	-1705
▁wa	-1706
▁neu	-1707
endet	-1708
▁arme	-1709
▁fall	-1710
festig	-1711
grünen	-1712
▁gelbe	-1713
▁haare	-1714
▁gelbem	-1715
▁grüner	-1716
▁leiter	-1717
▁hochzeit	-1718
▁kostümen	-1719
▁überquert	-1720
▁polizisten	-1721
▁unbefestig	-1722
akt	-1723
auto	-1724
hnen	-1725
oten	-1726
▁jün	-1727
▁kat	-1728
▁the	-1729
ockey	-1730
zentr	-1731
▁korb	-1732
▁legt	-1733
rennen	-1734
▁kajak	-1735
▁jünger	-1736
▁kostüm	-1737
▁statue	-1738
▁nacktem	-1739
skleidung	-1740
▁amerikan	-1741
▁sweatshirt	-1742
▁versammeln	-1743
▁erwachsenen	-1744
▁städtischen	-1745
kw	-1746
ase	-1747
▁pa	-1748
auch	-1749
eige	-1750
rand	-1751
▁anz	-1752
▁mil	-1753
▁weib	-1754
reifen	-1755
▁lange	-1756
▁lesen	-1757
▁nehmen	-1758
▁blonder	-1759
▁maschine	-1760
▁gemeinsam	-1761
man	-1762
top	-1763
unt	-1764
▁ir	-1765
▁tä	-1766
form	-1767
kelt	-1768
eicht	-1769
▁fern	-1770
▁kommt	-1771
▁leine	-1772
▁blaues	-1773
maschine	-1774
▁getränk	-1775
▁rutsche	-1776
▁schlamm	-1777
▁schmutz	-1778
▁lilafarben	-1779
ukt	-1780
▁do	-1781
ippe	-1782
ssen	-1783
team	-1784
▁caf	-1785
athon	-1786
boden	-1787
▁rein	-1788
▁spre	-1789
▁trad	-1790
iefeln	-1791
▁guckt	-1792
▁waren	-1793
otorrad	-1794
▁durchs	-1795
▁reifen	-1796
▁silber	-1797
▁stellt	-1798
▁westen	-1799
▁kopfhör	-1800
▁genießen	-1801
▁schlafen	-1802
▁tradition	-1803
▁regenschirm	-1804
lk	-1805
aut	-1806
äum	-1807
erle	-1808
führ	-1809
oren	-1810
stän	-1811
öcken	-1812
▁wohn	-1813
▁eimer	-1814
▁leder	-1815
▁leeren	-1816
▁pferde	-1817
▁seifen	-1818
▁singen	-1819
▁tänzer	-1820
▁wellen	-1821
▁spiegel	-1822
▁stühlen	-1823
▁verkehr	-1824
▁entspann	-1825
▁klettern	-1826
▁soldaten	-1827
▁mikrophon	-1828
▁schlagzeug	-1829
▁schutzhelm	-1830
▁asiatischen	-1831
ip	-1832
▁fä	-1833
aske	-1834
bung	-1835
ften	-1836
eiden	-1837
▁berü	-1838
▁ende	-1839
▁ohne	-1840
mitten	-1841
▁rodeo	-1842
▁wobei	-1843
▁balanc	-1844
▁kaufen	-1845
▁schüler	-1846
▁streckt	-1847
▁geländem	-1848
▁inmitten	-1849
▁sprechen	-1850
▁umgebung	-1851
▁gekleideten	-1852
▁gestreiftem	-1853
▁verschiedene	-1854
▁motorradfahrer	-1855
ser	-1856
▁hu	-1857
afen	-1858
belt	-1859
dert	-1860
ssel	-1861
▁pad	-1862
▁ras	-1863
▁säu	-1864
instr	-1865
▁kraw	-1866
blasen	-1867
▁kaffe	-1868
▁mobil	-1869
▁umarm	-1870
▁heraus	-1871
▁sicher	-1872
▁schuhen	-1873
▁wassers	-1874
▁marathon	-1875
▁riesigen	-1876
▁schwingt	-1877
▁badeanzug	-1878
esk	-1879
tow	-1880
ulp	-1881
▁pr	-1882
itär	-1883
schn	-1884
verk	-1885
▁lap	-1886
eller	-1887
halle	-1888
inder	-1889
▁ganz	-1890
▁rück	-1891
▁sohn	-1892
▁werk	-1893
kostüm	-1894
▁gegend	-1895
▁gelbes	-1896
▁grauem	-1897
▁laptop	-1898
▁parade	-1899
gestellt	-1900
▁anderes	-1901
▁konzert	-1902
▁treppen	-1903
▁älteren	-1904
▁schlagen	-1905
▁gegenüber	-1906
▁parkplatz	-1907
▁uniformen	-1908
▁instrument	-1909
▁pinkfarben	-1910
▁handschuhen	-1911
bik	-1912
euz	-1913
nah	-1914
▁ki	-1915
aden	-1916
atur	-1917
skop	-1918
eisen	-1919
räder	-1920
▁hört	-1921
▁tätow	-1922
richter	-1923
▁bergen	-1924
▁chines	-1925
▁finger	-1926
▁spring	-1927
▁starrt	-1928
▁unters	-1929
▁offenen	-1930
bewachsen	-1931
▁gebäuden	-1932
▁künstler	-1933
▁schwarzes	-1934
▁schwimmen	-1935
▁verkleide	-1936
▁kinderwagen	-1937
▁straßenecke	-1938
▁straßenrand	-1939
▁jugendlicher	-1940
by	-1941
anne	-1942
farb	-1943
korb	-1944
▁kir	-1945
▁lkw	-1946
anken	-1947
schuh	-1948
sicht	-1949
teten	-1950
▁jagt	-1951
verall	-1952
▁party	-1953
▁schoß	-1954
▁stand	-1955
▁dieser	-1956
▁umarmt	-1957
▁wunder	-1958
▁bereich	-1959
▁cheerle	-1960
▁militär	-1961
▁lächelnd	-1962
▁schatten	-1963
▁backstein	-1964
▁baustelle	-1965
▁pinkfarbenen	-1966
▁geländemotorrad	-1967
pr	-1968
bst	-1969
fuß	-1970
inn	-1971
ork	-1972
cker	-1973
ober	-1974
osen	-1975
eisch	-1976
ennen	-1977
ierte	-1978
irmen	-1979
▁alle	-1980
▁beko	-1981
▁blät	-1982
▁einz	-1983
▁gold	-1984
▁lauf	-1985
▁link	-1986
▁tour	-1987
ulptur	-1988
▁einge	-1989
▁glück	-1990
▁grüne	-1991
▁pause	-1992
▁wasch	-1993
fenster	-1994
strecke	-1995
▁jacken	-1996
▁kuchen	-1997
▁sänger	-1998
▁cheerlea	-1999
▁krawatte	-2000
▁grasbewachsen	-2001
▁dunkelhäutiger	-2002
▁orangefarbener	-2003
ive	-2004
äun	-2005
▁wü	-2006
▁gut	-2007
▁nah	-2008
▁näh	-2009
▁zer	-2010
▁ärm	-2011
aften	-2012
chter	-2013
utzen	-2014
▁abge	-2015
▁fell	-2016
▁last	-2017
▁netz	-2018
▁tier	-2019
▁clown	-2020
▁irgend	-2021
▁schnau	-2022
▁hellhäut	-2023
▁pflanzen	-2024
▁repariert	-2025
▁verkaufen	-2026
▁gepflaster	-2027
▁vordergrund	-2028
▁schreibtisch	-2029
tre	-2030
ient	-2031
iste	-2032
lage	-2033
▁was	-2034
tritt	-2035
itarre	-2036
▁putzt	-2037
▁tromm	-2038
chteten	-2039
füllten	-2040
▁kurzer	-2041
▁taschen	-2042
▁schulter	-2043
▁schlitten	-2044
▁gekleidetes	-2045
▁fußballspiel	-2046
▁gegeneinander	-2047
▁tennisspieler	-2048
ok	-2049
ve	-2050
app	-2051
leu	-2052
▁qu	-2053
erin	-2054
telt	-2055
▁anh	-2056
▁öff	-2057
alter	-2058
asser	-2059
führt	-2060
orfen	-2061
seite	-2062
gelben	-2063
westen	-2064
führung	-2065
▁baumst	-2066
▁grünes	-2067
▁kunden	-2068
fahrzeug	-2069
▁bedeckt	-2070
▁overall	-2071
dsrichter	-2072
▁jemandem	-2073
▁sandalen	-2074
▁schläger	-2075
▁angezogen	-2076
▁lächelnde	-2077
▁mikroskop	-2078
▁balanciert	-2079
▁fahrrädern	-2080
▁asiatisches	-2081
▁fahrradfahrer	-2082
atz	-2083
iff	-2084
nel	-2085
sto	-2086
amen	-2087
ankt	-2088
deon	-2089
hand	-2090
raum	-2091
sern	-2092
▁lab	-2093
ahnen	-2094
ckelt	-2095
druck	-2096
ieder	-2097
laden	-2098
nahme	-2099
ppich	-2100
weste	-2101
▁erde	-2102
▁farb	-2103
▁koch	-2104
gebiet	-2105
▁akkor	-2106
▁beugt	-2107
▁dreht	-2108
▁innen	-2109
▁kreis	-2110
▁setzt	-2111
▁winkt	-2112
▁ziehen	-2113
schläger	-2114
▁gelände	-2115
▁pferden	-2116
▁schlauch	-2117
▁stiefeln	-2118
▁weibliche	-2119
▁rothaarige	-2120
▁mobiltelefon	-2121
▁einkaufswagen	-2122
ki	-2123
est	-2124
eut	-2125
hak	-2126
oto	-2127
unk	-2128
deln	-2129
ektr	-2130
hang	-2131
luft	-2132
lung	-2133
▁jon	-2134
▁tun	-2135
▁kanu	-2136
▁khak	-2137
▁pick	-2138
▁rand	-2139
▁fällt	-2140
▁rollt	-2141
▁video	-2142
anzügen	-2143
bereich	-2144
▁küssen	-2145
▁reiten	-2146
stellung	-2147
▁kapuzen	-2148
▁felswand	-2149
▁flugzeug	-2150
▁halsband	-2151
▁akkordeon	-2152
▁surfbrett	-2153
▁klassenzimmer	-2154
▁orangefarbenem	-2155
▁schiedsrichter	-2156
▁footballspieler	-2157
om	-2158
bel	-2159
ift	-2160
pro	-2161
urs	-2162
igem	-2163
schö	-2164
wegs	-2165
▁wel	-2166
ischt	-2167
roten	-2168
▁büro	-2169
▁form	-2170
▁golf	-2171
▁höhe	-2172
▁komp	-2173
▁verf	-2174
anktop	-2175
▁außen	-2176
▁davor	-2177
gitarre	-2178
scheibe	-2179
▁dessen	-2180
▁elektr	-2181
▁frisch	-2182
▁zeigen	-2183
▁zimmer	-2184
▁belebte	-2185
▁fleisch	-2186
▁badehose	-2187
▁gesichts	-2188
▁sicherheit	-2189
▁hellbrauner	-2190
▁unbefestigten	-2191
ru	-2192
enn	-2193
ord	-2194
aler	-2195
apos	-2196
delt	-2197
nung	-2198
zaun	-2199
enden	-2200
uppen	-2201
▁bewe	-2202
▁jahr	-2203
▁redet	-2204
brunnen	-2205
▁marsch	-2206
▁schuhe	-2207
▁seines	-2208
schaften	-2209
▁braunem	-2210
▁fliegen	-2211
▁tanktop	-2212
▁aussieht	-2213
▁leuchtend	-2214
▁oberteilen	-2215
▁cheerleader	-2216
▁seifenblasen	-2217
ce	-2218
fla	-2219
irn	-2220
one	-2221
urt	-2222
ähn	-2223
lett	-2224
stad	-2225
▁fil	-2226
ängen	-2227
▁ecke	-2228
▁loch	-2229
▁spaß	-2230
▁wind	-2231
lossen	-2232
rillen	-2233
untain	-2234
▁jongl	-2235
▁khaki	-2236
▁küsst	-2237
▁tramp	-2238
brauner	-2239
▁kranken	-2240
▁tischen	-2241
▁bekleide	-2242
▁mountain	-2243
▁schlange	-2244
▁schnauze	-2245
▁asiatisch	-2246
▁wunderschö	-2247
▁skateboarder	-2248
▁verschiedenen	-2249
gn	-2250
kün	-2251
tro	-2252
▁du	-2253
▁lö	-2254
▁ol	-2255
afel	-2256
dach	-2257
igur	-2258
ment	-2259
terr	-2260
▁bis	-2261
fahrt	-2262
fährt	-2263
itzen	-2264
weiße	-2265
▁kahl	-2266
▁plat	-2267
▁schä	-2268
▁vert	-2269
shirts	-2270
strukt	-2271
▁aufge	-2272
▁bäume	-2273
▁inter	-2274
▁kopft	-2275
▁recht	-2276
▁stirn	-2277
▁teich	-2278
▁aufger	-2279
▁gerüst	-2280
▁geschm	-2281
▁karate	-2282
▁schauf	-2283
köpfiger	-2284
▁entfern	-2285
▁hindern	-2286
▁schönen	-2287
▁stadion	-2288
▁streich	-2289
▁teppich	-2290
▁tochter	-2291
▁ausgestre	-2292
▁lastwagen	-2293
▁schultern	-2294
▁spielfeld	-2295
▁landschaft	-2296
▁männlicher	-2297
▁mountainbik	-2298
▁rennstrecke	-2299
veranstaltung	-2300
▁farbenfrohen	-2301
▁lilafarbenen	-2302
▁grasbewachsenen	-2303
pe	-2304
po	-2305
cro	-2306
pen	-2307
äck	-2308
▁di	-2309
▁vö	-2310
enkt	-2311
flug	-2312
ießt	-2313
illt	-2314
zene	-2315
▁flü	-2316
▁kai	-2317
dient	-2318
eilen	-2319
kappe	-2320
öpfen	-2321
▁hula	-2322
▁laub	-2323
igkeit	-2324
▁geige	-2325
▁kocht	-2326
▁tasse	-2327
▁zeich	-2328
▁golden	-2329
▁haufen	-2330
▁kaffee	-2331
▁kirche	-2332
▁orient	-2333
schaukel	-2334
▁flasche	-2335
▁verkauf	-2336
▁luftball	-2337
▁geschäfts	-2338
▁gepflasterten	-2339
öh	-2340
üs	-2341
bad	-2342
prü	-2343
urg	-2344
▁zä	-2345
allt	-2346
alto	-2347
anda	-2348
lauf	-2349
olin	-2350
wärt	-2351
▁dir	-2352
▁nur	-2353
ammer	-2354
armen	-2355
bewer	-2356
bogen	-2357
ernen	-2358
gerät	-2359
hosen	-2360
▁eish	-2361
▁soft	-2362
halten	-2363
läufer	-2364
sprung	-2365
▁kappe	-2366
▁küste	-2367
▁schuh	-2368
▁stroh	-2369
▁balkon	-2370
▁bemalt	-2371
▁hellen	-2372
▁hunden	-2373
▁hängen	-2374
▁meeres	-2375
▁objekt	-2376
▁schnur	-2377
▁skater	-2378
▁ärmell	-2379
farbener	-2380
igkeiten	-2381
oberteil	-2382
▁bedient	-2383
▁freunde	-2384
▁schnell	-2385
▁umarmen	-2386
▁freunden	-2387
▁oriental	-2388
▁parkbank	-2389
▁schaufel	-2390
▁schaukelt	-2391
▁unterwegs	-2392
▁aussehende	-2393
▁geschlossen	-2394
▁gegnerischen	-2395
arn	-2396
bus	-2397
hei	-2398
aren	-2399
ehrt	-2400
ffer	-2401
iern	-2402
mmer	-2403
test	-2404
unge	-2405
▁ruh	-2406
▁stö	-2407
indet	-2408
licht	-2409
stadt	-2410
▁eins	-2411
▁hang	-2412
▁mahl	-2413
sstand	-2414
▁abend	-2415
▁blatt	-2416
▁damit	-2417
▁gasse	-2418
▁gespr	-2419
▁katze	-2420
▁namen	-2421
▁pickn	-2422
▁staub	-2423
zeichen	-2424
▁einzel	-2425
▁grauer	-2426
▁helmen	-2427
▁sachen	-2428
▁sieben	-2429
▁steine	-2430
▁flaggen	-2431
schwarzer	-2432
▁schüssel	-2433
▁entspannt	-2434
▁gegenstän	-2435
▁kapuzenpu	-2436
▁touristen	-2437
▁trampolin	-2438
▁violetten	-2439
▁beleuchteten	-2440
▁schutzhelmen	-2441
▁schwimmbrille	-2442
gs	-2443
err	-2444
pan	-2445
örm	-2446
land	-2447
tert	-2448
▁bad	-2449
▁kau	-2450
▁new	-2451
▁ohr	-2452
tisch	-2453
▁holt	-2454
▁plan	-2455
▁stap	-2456
▁terr	-2457
▁tran	-2458
bewerb	-2459
hälter	-2460
ierter	-2461
zeugen	-2462
ändern	-2463
▁berge	-2464
▁hinab	-2465
▁hüpft	-2466
▁kreuz	-2467
▁maske	-2468
▁vergn	-2469
▁befest	-2470
▁bullen	-2471
▁fahnen	-2472
▁langem	-2473
▁schlaf	-2474
▁seiten	-2475
▁skiern	-2476
▁steigt	-2477
▁turner	-2478
▁feldweg	-2479
▁gezogen	-2480
▁strecke	-2481
▁jongliert	-2482
▁kopfhörer	-2483
▁verwendet	-2484
▁springbrunnen	-2485
du	-2486
wo	-2487
▁;	-2488
age	-2489
ale	-2490
ard	-2491
bis	-2492
dio	-2493
ipp	-2494
irr	-2495
kat	-2496
lli	-2497
orn	-2498
pfl	-2499
zie	-2500
äst	-2501
üne	-2502
üte	-2503
▁at	-2504
arbe	-2505
hoop	-2506
inen	-2507
sell	-2508
umpf	-2509
zäun	-2510
äten	-2511
▁tri	-2512
lagen	-2513
maten	-2514
osten	-2515
stern	-2516
▁brün	-2517
▁prof	-2518
▁rett	-2519
▁couch	-2520
▁dekor	-2521
▁kauft	-2522
▁licht	-2523
▁links	-2524
▁schil	-2525
▁umzug	-2526
▁barfuß	-2527
▁bilder	-2528
▁einsam	-2529
▁klippe	-2530
▁mittel	-2531
▁rechts	-2532
▁studen	-2533
künstler	-2534
richtung	-2535
▁dunkler	-2536
▁protest	-2537
▁schießt	-2538
▁softball	-2539
▁eishockey	-2540
▁fallschirm	-2541
▁lächelnder	-2542
▁reparieren	-2543
▁schaufenster	-2544
▁fotografieren	-2545
äl	-2546
gem	-2547
▁sü	-2548
blas	-2549
helm	-2550
vier	-2551
ürde	-2552
▁erd	-2553
▁hel	-2554
baren	-2555
chern	-2556
gegen	-2557
hügel	-2558
ienen	-2559
ophon	-2560
weise	-2561
zeigt	-2562
▁gebl	-2563
▁gefl	-2564
▁grim	-2565
▁ruht	-2566
▁wurf	-2567
▁zahl	-2568
eister	-2569
ichtet	-2570
muster	-2571
stücke	-2572
utsche	-2573
▁bläst	-2574
▁brett	-2575
▁geöff	-2576
▁heben	-2577
▁hockt	-2578
▁stoff	-2579
▁wüste	-2580
stühlen	-2581
▁asiate	-2582
▁bücher	-2583
▁gesäum	-2584
▁grillt	-2585
▁ringen	-2586
▁schach	-2587
▁teller	-2588
▁anzügen	-2589
▁bekommt	-2590
▁berührt	-2591
▁geschen	-2592
▁projekt	-2593
▁veranda	-2594
▁wandert	-2595
▁kopftuch	-2596
▁sitzende	-2597
▁verfolgt	-2598
▁cowboyhut	-2599
▁schüttelt	-2600
▁hellblauen	-2601
▁aussehender	-2602
▁braunhaarige	-2603
▁instrumenten	-2604
▁dunkelhäutige	-2605
aht	-2606
hil	-2607
och	-2608
▁sm	-2609
elle	-2610
gelt	-2611
▁dis	-2612
▁kal	-2613
▁per	-2614
▁reg	-2615
ckten	-2616
eiben	-2617
▁nase	-2618
▁samm	-2619
▁tief	-2620
fallen	-2621
iertem	-2622
schlag	-2623
schuhe	-2624
wasser	-2625
▁schaf	-2626
▁spitz	-2627
▁bedeck	-2628
▁beinen	-2629
▁linken	-2630
▁reiter	-2631
aufnahme	-2632
▁gitarri	-2633
▁reinigt	-2634
▁vorüber	-2635
verkäufer	-2636
▁bestehen	-2637
▁mahlzeit	-2638
▁sportler	-2639
▁wettkampf	-2640
▁handtasche	-2641
▁instrumente	-2642
▁sicherheits	-2643
▁überfüllten	-2644
▁geschlossenen	-2645
▁personengruppe	-2646
ed	-2647
ku	-2648
kü	-2649
üm	-2650
don	-2651
fft	-2652
▁ur	-2653
alon	-2654
baum	-2655
glas	-2656
sent	-2657
▁frü	-2658
▁hüb	-2659
▁kön	-2660
▁med	-2661
▁prä	-2662
endes	-2663
eskop	-2664
etzen	-2665
sperr	-2666
▁amüs	-2667
▁auch	-2668
▁bach	-2669
▁erkl	-2670
▁weit	-2671
▁york	-2672
▁ziel	-2673
▁üben	-2674
unifor	-2675
▁bauen	-2676
▁gerät	-2677
▁japan	-2678
▁salto	-2679
▁umher	-2680
▁zähne	-2681
flasche	-2682
zentrum	-2683
▁diesem	-2684
▁gebiet	-2685
▁gucken	-2686
▁hauses	-2687
▁öffnet	-2688
arbeiten	-2689
schirmen	-2690
teleskop	-2691
▁asiaten	-2692
▁asiatin	-2693
▁fischer	-2694
▁steigen	-2695
instrumen	-2696
▁felsigen	-2697
▁getränke	-2698
▁untersch	-2699
mannschaft	-2700
▁wasserfall	-2701
▁vorbeigehen	-2702
▁pinkfarbenem	-2703
▁traditioneller	-2704
ay	-2705
bä	-2706
feu	-2707
fte	-2708
füß	-2709
hle	-2710
hlt	-2711
äge	-2712
beln	-2713
iker	-2714
onen	-2715
▁bre	-2716
▁din	-2717
▁ort	-2718
▁sau	-2719
ement	-2720
hafen	-2721
opren	-2722
scher	-2723
▁fast	-2724
▁fert	-2725
▁fröh	-2726
▁halb	-2727
▁kann	-2728
▁kerl	-2729
▁knie	-2730
▁näch	-2731
▁wild	-2732
achter	-2733
mantel	-2734
stehen	-2735
yboard	-2736
▁beige	-2737
▁brust	-2738
brillen	-2739
▁dieses	-2740
▁gewehr	-2741
▁küchen	-2742
▁taucht	-2743
▁tunnel	-2744
▁wäsche	-2745
▁wäscht	-2746
bereitet	-2747
▁aufblas	-2748
▁blätter	-2749
▁langärm	-2750
▁nachdem	-2751
▁neopren	-2752
▁steinen	-2753
schwarzen	-2754
struktion	-2755
▁auftritt	-2756
▁fahrräder	-2757
▁schneiden	-2758
▁verlassen	-2759
▁lederjacke	-2760
▁untersucht	-2761
▁winterkleidung	-2762
hol	-2763
isp	-2764
män	-2765
sur	-2766
ölk	-2767
▁bm	-2768
bart	-2769
eibt	-2770
eife	-2771
halt	-2772
händ	-2773
stag	-2774
▁kuh	-2775
▁mon	-2776
▁pal	-2777
▁übt	-2778
icker	-2779
ippen	-2780
linie	-2781
wärts	-2782
zeich	-2783
zeuge	-2784
äcken	-2785
änden	-2786
ützen	-2787
▁drit	-2788
▁mode	-2789
▁ring	-2790
▁sees	-2791
▁tarn	-2792
▁tuch	-2793
aschen	-2794
ickelt	-2795
kommen	-2796
schein	-2797
▁blond	-2798
▁bunte	-2799
▁geldb	-2800
▁gießt	-2801
▁kamer	-2802
▁kickt	-2803
▁kurve	-2804
▁schot	-2805
▁schul	-2806
▁stark	-2807
▁teams	-2808
▁wurde	-2809
▁zunge	-2810
braunen	-2811
fahrern	-2812
station	-2813
▁allein	-2814
▁barfüß	-2815
▁gelegt	-2816
▁gewand	-2817
▁kissen	-2818
▁kommen	-2819
▁vollen	-2820
▁eingang	-2821
▁gruppen	-2822
▁taucher	-2823
▁weitere	-2824
▁darunter	-2825
▁schießen	-2826
▁terrasse	-2827
bekleidung	-2828
▁baumstamm	-2829
▁jahrmarkt	-2830
▁passanten	-2831
▁sitzender	-2832
▁beieinander	-2833
▁hellbraunen	-2834
▁amerikanische	-2835
▁dunkelhaarige	-2836
▁fußgängerüber	-2837
egt	-2838
nes	-2839
rem	-2840
sel	-2841
äbt	-2842
▁rä	-2843
atto	-2844
eilt	-2845
igam	-2846
keln	-2847
pfel	-2848
pfer	-2849
ugby	-2850
wett	-2851
ütte	-2852
▁ban	-2853
▁dan	-2854
▁heu	-2855
cross	-2856
stoff	-2857
▁bord	-2858
▁hölz	-2859
▁verz	-2860
▁vorn	-2861
ichten	-2862
nitten	-2863
stufen	-2864
▁bräut	-2865
▁lager	-2866
▁mitgl	-2867
▁rugby	-2868
▁becher	-2869
▁bringt	-2870
▁gepäck	-2871
▁gesich	-2872
▁helfen	-2873
▁hinaus	-2874
▁können	-2875
▁nassen	-2876
▁träger	-2877
testelle	-2878
▁gezeigt	-2879
▁polizei	-2880
▁rasiert	-2881
▁brünette	-2882
▁geschenk	-2883
▁geworfen	-2884
▁konzentr	-2885
▁teleskop	-2886
▁bräutigam	-2887
▁hindernis	-2888
▁hinterher	-2889
▁rollstuhl	-2890
▁schwimmer	-2891
▁vollführt	-2892
▁ausrüstung	-2893
▁unterschied	-2894
▁hockeyspieler	-2895
▁straßenkünstler	-2896
fr	-2897
ic	-2898
mä	-2899
sa	-2900
bes	-2901
dre	-2902
erv	-2903
hem	-2904
ymp	-2905
iere	-2906
lege	-2907
unde	-2908
▁abs	-2909
▁grö	-2910
▁kab	-2911
▁sel	-2912
aktor	-2913
hilfe	-2914
kugel	-2915
mmert	-2916
änder	-2917
▁acht	-2918
▁begl	-2919
▁brei	-2920
▁gesp	-2921
▁lehr	-2922
▁schr	-2923
ettern	-2924
haufen	-2925
▁akust	-2926
▁begut	-2927
▁besen	-2928
▁dreck	-2929
▁geben	-2930
▁matte	-2931
gewicht	-2932
▁angelt	-2933
▁feiern	-2934
▁karren	-2935
▁karten	-2936
▁kochen	-2937
▁schöne	-2938
▁zement	-2939
▁drachen	-2940
▁gleitet	-2941
▁paddelt	-2942
▁präsent	-2943
▁rolltre	-2944
▁schnurr	-2945
▁schreit	-2946
▁schäfer	-2947
▁überprü	-2948
▁benutzen	-2949
▁geschirr	-2950
▁keyboard	-2951
▁rettungs	-2952
▁tätowier	-2953
▁glücklich	-2954
▁sitzenden	-2955
▁transport	-2956
▁waldgebiet	-2957
▁hellhäutiger	-2958
▁neoprenanzug	-2959
▁arbeitskleidung	-2960
hö	-2961
kan	-2962
mus	-2963
öhn	-2964
▁fa	-2965
▁su	-2966
▁us	-2967
ance	-2968
asst	-2969
kten	-2970
ocks	-2971
unkt	-2972
älde	-2973
▁blo	-2974
▁mei	-2975
anger	-2976
chtet	-2977
neten	-2978
tform	-2979
trick	-2980
änken	-2981
▁abzu	-2982
▁anzu	-2983
▁aufs	-2984
▁disk	-2985
▁moto	-2986
▁nass	-2987
▁selt	-2988
▁verb	-2989
nehmen	-2990
▁farbe	-2991
▁feier	-2992
▁herab	-2993
▁jungs	-2994
▁kehrt	-2995
▁schwe	-2996
▁theke	-2997
chester	-2998
schnitt	-2999
zäunten	-3000
▁berges	-3001
▁bewegt	-3002
▁hundes	-3003
▁jockey	-3004
▁lehnen	-3005
▁leicht	-3006
▁modell	-3007
▁runden	-3008
▁spiels	-3009
▁vergnü	-3010
▁alleine	-3011
▁mänteln	-3012
▁rechten	-3013
▁seltsam	-3014
▁spazier	-3015
▁trommel	-3016
▁entfernt	-3017
▁handtuch	-3018
▁flughafen	-3019
▁irgendein	-3020
▁motocross	-3021
▁turnhalle	-3022
▁verkleidet	-3023
▁ärmellosen	-3024
▁nahaufnahme	-3025
▁schäferhund	-3026
▁chinesischen	-3027
▁kapuzenpulli	-3028
▁konzentriert	-3029
▁tennisschläger	-3030
▁weihnachtsbaum	-3031
ai	-3032
je	-3033
mt	-3034
ete	-3035
ker	-3036
lie	-3037
min	-3038
öte	-3039
▁rö	-3040
▁ze	-3041
grau	-3042
inie	-3043
lern	-3044
onne	-3045
▁ang	-3046
▁bie	-3047
▁dau	-3048
▁dor	-3049
▁elt	-3050
▁fau	-3051
▁füt	-3052
▁häu	-3053
▁kla	-3054
▁not	-3055
benen	-3056
ittel	-3057
onstr	-3058
rücke	-3059
statt	-3060
äsern	-3061
▁brot	-3062
▁deut	-3063
▁oper	-3064
▁rast	-3065
▁serv	-3066
gerüst	-3067
strand	-3068
tasche	-3069
▁folgt	-3070
▁gräbt	-3071
▁jagen	-3072
▁kamel	-3073
▁müllt	-3074
▁schub	-3075
▁segel	-3076
▁tromp	-3077
▁ballon	-3078
▁fahrer	-3079
▁fläche	-3080
▁kalten	-3081
▁ketten	-3082
▁koffer	-3083
▁körper	-3084
▁lassen	-3085
▁namens	-3086
▁schiff	-3087
▁schwer	-3088
▁soldat	-3089
▁stapel	-3090
▁violet	-3091
▁angelru	-3092
▁braunes	-3093
▁offenem	-3094
▁speisen	-3095
▁werbung	-3096
▁beschäft	-3097
▁demonstr	-3098
▁entgegen	-3099
▁freizeit	-3100
▁indische	-3101
▁jemanden	-3102
▁skulptur	-3103
legestelle	-3104
▁befestigt	-3105
▁handstand	-3106
▁hochzeits	-3107
▁studenten	-3108
▁trainiert	-3109
▁lächelndes	-3110
▁rolltreppe	-3111
▁wohnzimmer	-3112
▁gegenstände	-3113
▁afrikanische	-3114
▁geschäftigen	-3115
▁weihnachtsmann	-3116
dy	-3117
ep	-3118
ama	-3119
eck	-3120
eis	-3121
ity	-3122
mal	-3123
ole	-3124
ops	-3125
ote	-3126
▁üb	-3127
ande	-3128
bern	-3129
förm	-3130
plat	-3131
uckt	-3132
▁hau	-3133
▁min	-3134
▁oze	-3135
▁pit	-3136
▁prü	-3137
▁pär	-3138
▁sen	-3139
▁vie	-3140
affel	-3141
attoo	-3142
eutel	-3143
hüter	-3144
inden	-3145
salon	-3146
szene	-3147
▁baut	-3148
▁blue	-3149
▁gang	-3150
▁gass	-3151
▁klat	-3152
▁nied	-3153
▁topf	-3154
▁zahn	-3155
anlage	-3156
laufen	-3157
männer	-3158
wegung	-3159
▁figur	-3160
▁füßen	-3161
▁hafen	-3162
▁hocke	-3163
▁hören	-3164
▁ihres	-3165
▁inlin	-3166
▁kegel	-3167
▁knien	-3168
▁labor	-3169
▁olymp	-3170
▁sicht	-3171
▁statt	-3172
▁weint	-3173
geboren	-3174
reichen	-3175
rutsche	-3176
spielen	-3177
▁beginn	-3178
▁bewölk	-3179
▁bushal	-3180
▁daumen	-3181
▁decken	-3182
▁eltern	-3183
▁geblüm	-3184
▁herbst	-3185
▁hinein	-3186
▁joggen	-3187
▁nähert	-3188
▁pfütze	-3189
▁plakat	-3190
▁spitze	-3191
▁arbeits	-3192
▁ballons	-3193
▁blondem	-3194
▁bringen	-3195
▁daneben	-3196
▁fischen	-3197
▁gelehnt	-3198
▁gemälde	-3199
▁pfosten	-3200
▁pärchen	-3201
▁steilen	-3202
▁trocken	-3203
▁komplett	-3204
▁mehrfarb	-3205
▁wandbild	-3206
▁werkzeug	-3207
▁begeister	-3208
▁hölzernen	-3209
▁picknickt	-3210
▁schaufelt	-3211
▁stehenden	-3212
▁bildschirm	-3213
▁streichelt	-3214
▁trägerhemd	-3215
▁jugendliche	-3216
▁kunststücke	-3217
▁kahlköpfiger	-3218
▁mountainbike	-3219
▁baseballkappe	-3220
▁sonnenbrillen	-3221
▁bushaltestelle	-3222
ym	-3223
adl	-3224
are	-3225
neh	-3226
tor	-3227
wen	-3228
woh	-3229
äng	-3230
▁mi	-3231
▁pe	-3232
anze	-3233
ates	-3234
buch	-3235
cket	-3236
dels	-3237
eier	-3238
ippt	-3239
ksam	-3240
othe	-3241
piel	-3242
pool	-3243
reme	-3244
samm	-3245
schm	-3246
seit	-3247
stür	-3248
▁bed	-3249
▁dün	-3250
▁eur	-3251
▁gri	-3252
▁har	-3253
▁ich	-3254
▁lon	-3255
▁süß	-3256
▁ton	-3257
allen	-3258
ampen	-3259
durch	-3260
erste	-3261
parkt	-3262
richt	-3263
rigen	-3264
schne	-3265
▁deck	-3266
▁fans	-3267
▁heiß	-3268
▁kart	-3269
▁lock	-3270
▁mess	-3271
▁pier	-3272
▁sprü	-3273
arbeit	-3274
dessen	-3275
eligen	-3276
stange	-3277
weißem	-3278
▁bauch	-3279
▁bespr	-3280
▁gassi	-3281
▁hürde	-3282
▁joggt	-3283
▁start	-3284
▁stier	-3285
▁zuhör	-3286
adlocks	-3287
händler	-3288
merksam	-3289
▁bewund	-3290
▁graben	-3291
▁hammer	-3292
▁heißen	-3293
▁kisten	-3294
▁schwei	-3295
▁selbst	-3296
▁socken	-3297
▁teilen	-3298
▁öffent	-3299
haarigen	-3300
▁geparkt	-3301
▁klavier	-3302
▁motorro	-3303
▁spritzt	-3304
▁treffen	-3305
▁behälter	-3306
▁goldenen	-3307
▁inlinesk	-3308
▁jüngeren	-3309
▁scheinen	-3310
▁zeichnet	-3311
instrument	-3312
volleyball	-3313
▁bahnsteig	-3314
▁graffitis	-3315
▁kletterer	-3316
▁skatepark	-3317
▁aufmerksam	-3318
▁dreadlocks	-3319
▁kopfhörern	-3320
▁steinmauer	-3321
▁videospiel	-3322
▁krankenhaus	-3323
▁motorrädern	-3324
▁restaurants	-3325
▁schmutzigen	-3326
▁schnurrbart	-3327
▁stadtstraße	-3328
▁langhaariger	-3329
▁wunderschönen	-3330
▁ausgestreckten	-3331
▁menschengruppe	-3332
▁zuschauermenge	-3333
▁einkaufszentrum	-3334
bu	-3335
ask	-3336
bem	-3337
rik	-3338
urf	-3339
ages	-3340
ativ	-3341
keit	-3342
klam	-3343
ückt	-3344
üten	-3345
▁get	-3346
▁kri	-3347
▁kör	-3348
▁mop	-3349
▁tut	-3350
▁wol	-3351
ahmen	-3352
ausch	-3353
eimer	-3354
rampe	-3355
stock	-3356
teams	-3357
trakt	-3358
useum	-3359
wanne	-3360
äften	-3361
▁aber	-3362
▁bunt	-3363
▁chor	-3364
▁dorf	-3365
▁eben	-3366
▁füße	-3367
▁gumm	-3368
▁kids	-3369
▁länd	-3370
▁neon	-3371
▁rede	-3372
▁stab	-3373
▁warn	-3374
gewöhn	-3375
reiche	-3376
statue	-3377
▁balls	-3378
▁brand	-3379
▁flüss	-3380
▁sandd	-3381
▁schle	-3382
▁seich	-3383
▁strom	-3384
▁typen	-3385
agieren	-3386
▁direkt	-3387
▁diskut	-3388
▁essens	-3389
▁nicker	-3390
▁passen	-3391
▁rudert	-3392
arbeitet	-3393
aschinen	-3394
▁bahnhof	-3395
▁brennen	-3396
▁fingern	-3397
▁geldbör	-3398
▁schwach	-3399
▁stellen	-3400
▁traktor	-3401
▁zeichen	-3402
▁älteres	-3403
▁gitarren	-3404
▁kreuzung	-3405
▁mädchens	-3406
bildschirm	-3407
▁einzelner	-3408
▁gesäumten	-3409
▁getränken	-3410
▁gitarrist	-3411
▁hinterhof	-3412
▁kunstwerk	-3413
▁orchester	-3414
▁rennwagen	-3415
▁silbernen	-3416
▁trainings	-3417
▁bekleidung	-3418
▁neugeboren	-3419
▁nickerchen	-3420
▁wettbewerb	-3421
▁zusammenge	-3422
▁beschäftigt	-3423
▁bowlingbahn	-3424
▁luftballons	-3425
▁nähmaschine	-3426
▁vorbeifährt	-3427
▁anlegestelle	-3428
▁rosafarbenem	-3429
▁schutzbrille	-3430
▁baseballmütze	-3431
▁amerikanischen	-3432
cl	-3433
ef	-3434
gi	-3435
ia	-3436
yl	-3437
bro	-3438
gro	-3439
out	-3440
tag	-3441
▁bi	-3442
▁em	-3443
ettr	-3444
gung	-3445
heir	-3446
ortr	-3447
renn	-3448
rock	-3449
stet	-3450
stüt	-3451
öpfe	-3452
▁bat	-3453
▁gür	-3454
▁hot	-3455
▁leg	-3456
▁piz	-3457
▁plü	-3458
▁tab	-3459
andet	-3460
ballt	-3461
cours	-3462
feren	-3463
ießen	-3464
kette	-3465
maske	-3466
orgen	-3467
rückt	-3468
▁fass	-3469
▁freu	-3470
▁herd	-3471
▁herz	-3472
▁span	-3473
▁wach	-3474
▁will	-3475
eitung	-3476
ettert	-3477
etzten	-3478
schutz	-3479
träger	-3480
wohner	-3481
zeuger	-3482
▁anhat	-3483
▁arena	-3484
▁blume	-3485
▁dicht	-3486
▁dinge	-3487
▁hütte	-3488
▁klapp	-3489
▁natur	-3490
▁ruder	-3491
▁stamm	-3492
heirate	-3493
steigen	-3494
steinen	-3495
uniform	-3496
▁balken	-3497
▁bauern	-3498
▁bänken	-3499
▁hochge	-3500
▁mittag	-3501
▁runter	-3502
▁rädern	-3503
▁schule	-3504
▁strick	-3505
▁wänden	-3506
luftball	-3507
▁beladen	-3508
▁flausch	-3509
▁lachend	-3510
▁outfits	-3511
▁verteid	-3512
automaten	-3513
▁berühren	-3514
▁gehalten	-3515
▁mithilfe	-3516
▁strohhut	-3517
▁trompete	-3518
▁windhund	-3519
▁amüsieren	-3520
▁angelrute	-3521
▁bedeckten	-3522
▁einkaufst	-3523
▁geblümten	-3524
▁gewässers	-3525
▁steinigen	-3526
▁violettem	-3527
▁bearbeitet	-3528
▁fotografen	-3529
▁kunststoff	-3530
▁marschiert	-3531
▁rucksäcken	-3532
▁städtische	-3533
▁verheirate	-3534
konstruktion	-3535
▁aufblasbaren	-3536
▁bowlingkugel	-3537
▁schlagzeuger	-3538
▁afrikanischer	-3539
▁baseballspiel	-3540
▁klettergerüst	-3541
▁regenschirmen	-3542
▁feuerwehrmänner	-3543
ga	-3544
jo	-3545
lo	-3546
ma	-3547
up	-3548
wä	-3549
ban	-3550
chn	-3551
gar	-3552
hou	-3553
kte	-3554
kun	-3555
mod	-3556
▁jo	-3557
ades	-3558
dium	-3559
door	-3560
grün	-3561
iten	-3562
ität	-3563
ival	-3564
oben	-3565
pack	-3566
rohr	-3567
säge	-3568
ären	-3569
▁ged	-3570
▁kür	-3571
▁mög	-3572
▁sow	-3573
▁spe	-3574
▁wür	-3575
draht	-3576
egten	-3577
eiger	-3578
jeans	-3579
kolle	-3580
kunft	-3581
kunst	-3582
leute	-3583
ohemd	-3584
othek	-3585
ucken	-3586
▁cafe	-3587
▁club	-3588
▁elef	-3589
▁heim	-3590
▁jack	-3591
▁kaut	-3592
▁kies	-3593
▁lied	-3594
▁löff	-3595
▁stol	-3596
▁stür	-3597
▁teig	-3598
▁trau	-3599
▁trib	-3600
▁trop	-3601
blades	-3602
chtung	-3603
hängen	-3604
kamera	-3605
outfit	-3606
seitig	-3607
treppe	-3608
vollen	-3609
ziehen	-3610
▁angeb	-3611
▁eisen	-3612
▁fahrt	-3613
▁füllt	-3614
▁glatz	-3615
▁maler	-3616
▁moped	-3617
▁noten	-3618
▁parkt	-3619
▁richt	-3620
▁stift	-3621
▁sucht	-3622
▁super	-3623
▁tafel	-3624
izieren	-3625
richten	-3626
schmuck	-3627
▁becken	-3628
▁gepark	-3629
▁größer	-3630
▁kerzen	-3631
▁lippen	-3632
▁nieder	-3633
▁setzen	-3634
▁silhou	-3635
▁steckt	-3636
sammlung	-3637
▁flachen	-3638
▁grillen	-3639
▁jüngere	-3640
▁kleider	-3641
▁outdoor	-3642
▁richtet	-3643
▁riesige	-3644
▁schlitt	-3645
ettrennen	-3646
▁freiluft	-3647
▁gespräch	-3648
▁konferen	-3649
▁kopfüber	-3650
▁offenbar	-3651
▁plastikt	-3652
▁rennauto	-3653
▁schirmen	-3654
▁schotter	-3655
▁schubkar	-3656
▁schwenkt	-3657
▁bluejeans	-3658
▁bordstein	-3659
▁geschmink	-3660
▁kariertem	-3661
▁operation	-3662
▁plattform	-3663
▁wasserski	-3664
issenschaft	-3665
▁abendessen	-3666
▁bestehende	-3667
▁sandstrand	-3668
▁schwimmbad	-3669
▁flüssigkeit	-3670
▁fußballfeld	-3671
▁gegenseitig	-3672
▁schlafanzug	-3673
▁zeitschrift	-3674
▁dunkelblauen	-3675
▁heißluftball	-3676
▁mannschaften	-3677
▁rollerblades	-3678
▁beigefarbenen	-3679
▁picknicktisch	-3680
▁straßenhändler	-3681
kä	-3682
pt	-3683
aff	-3684
bli	-3685
dog	-3686
een	-3687
fri	-3688
hau	-3689
ian	-3690
ieß	-3691
igh	-3692
ika	-3693
kul	-3694
pel	-3695
rok	-3696
une	-3697
utt	-3698
way	-3699
▁ra	-3700
burg	-3701
kopf	-3702
riff	-3703
seur	-3704
sitz	-3705
spar	-3706
spre	-3707
trie	-3708
äser	-3709
▁akt	-3710
▁app	-3711
▁ast	-3712
▁kom	-3713
▁lim	-3714
▁mat	-3715
▁pel	-3716
▁pin	-3717
▁red	-3718
▁tal	-3719
▁ähn	-3720
essel	-3721
itter	-3722
recht	-3723
schwe	-3724
waren	-3725
ämmer	-3726
üssel	-3727
▁dazu	-3728
▁esel	-3729
▁fegt	-3730
▁hart	-3731
▁high	-3732
▁indi	-3733
▁kalb	-3734
▁noch	-3735
▁puck	-3736
▁quad	-3737
▁robe	-3738
▁show	-3739
brücke	-3740
werfer	-3741
▁beißt	-3742
▁bogen	-3743
▁erleu	-3744
▁fahne	-3745
▁hilfe	-3746
▁malen	-3747
▁produ	-3748
▁rauch	-3749
▁vorne	-3750
artigen	-3751
ationen	-3752
konzert	-3753
köpfige	-3754
richtet	-3755
urtstag	-3756
▁altmod	-3757
▁bunter	-3758
▁dudels	-3759
▁feiert	-3760
▁fertig	-3761
▁findet	-3762
▁gepunk	-3763
▁herren	-3764
▁kreide	-3765
▁lehrer	-3766
▁london	-3767
▁palmen	-3768
▁röcken	-3769
▁schlen	-3770
▁sommer	-3771
▁tauben	-3772
▁tricks	-3773
▁umhang	-3774
skulptur	-3775
springen	-3776
▁absperr	-3777
▁ballett	-3778
▁füttert	-3779
▁paddeln	-3780
▁rauchen	-3781
▁schwert	-3782
▁wandern	-3783
▁brandung	-3784
▁grimasse	-3785
▁interess	-3786
▁planscht	-3787
▁reinigen	-3788
▁sanddüne	-3789
▁schweißt	-3790
▁sängerin	-3791
▁turnerin	-3792
▁ungewöhn	-3793
▁bewölkten	-3794
▁geldbörse	-3795
▁schreiben	-3796
▁surfboard	-3797
▁verkäufer	-3798
instrumente	-3799
▁entspannen	-3800
▁geburtstag	-3801
▁geschäften	-3802
▁grasfläche	-3803
▁jeansjacke	-3804
▁sportwagen	-3805
▁trainieren	-3806
▁waschsalon	-3807
▁wettrennen	-3808
mannschaften	-3809
▁begutachtet	-3810
▁marschieren	-3811
▁süßigkeiten	-3812
▁untersuchen	-3813
▁farbenfroher	-3814
▁wissenschaft	-3815
▁feuerwehrmann	-3816
▁spielkleidung	-3817
▁wasserflasche	-3818
▁dunkelhaariger	-3819
▁frisbeescheibe	-3820
▁ä	-3821
amb	-3822
ble	-3823
ign	-3824
nch	-3825
nem	-3826
ott	-3827
stö	-3828
üff	-3829
▁ör	-3830
bein	-3831
bert	-3832
dler	-3833
eise	-3834
foto	-3835
heim	-3836
hten	-3837
izin	-3838
kurs	-3839
trag	-3840
voll	-3841
wurf	-3842
zelt	-3843
zern	-3844
äuft	-3845
▁pat	-3846
▁rie	-3847
▁spü	-3848
alung	-3849
etzte	-3850
feuer	-3851
figur	-3852
flekt	-3853
genen	-3854
kreuz	-3855
mitgl	-3856
olgen	-3857
usses	-3858
▁bass	-3859
▁eisc	-3860
▁floß	-3861
▁flur	-3862
▁glat	-3863
▁insp	-3864
▁näht	-3865
▁prob	-3866
▁punk	-3867
▁steu	-3868
braune	-3869
gebrei	-3870
henden	-3871
nehmer	-3872
sammen	-3873
studio	-3874
ternen	-3875
ussell	-3876
zenden	-3877
▁aufzu	-3878
▁beine	-3879
▁bückt	-3880
▁engen	-3881
▁europ	-3882
▁flach	-3883
▁graue	-3884
▁kompl	-3885
▁kugel	-3886
▁ohren	-3887
▁piste	-3888
▁stufe	-3889
▁säugl	-3890
▁viell	-3891
▁vögel	-3892
agessen	-3893
▁bandan	-3894
▁baumes	-3895
▁dritte	-3896
▁einrad	-3897
▁faulen	-3898
▁fernse	-3899
▁indian	-3900
▁jubeln	-3901
▁kapuze	-3902
▁kontro	-3903
▁köpfen	-3904
▁marine	-3905
▁messer	-3906
▁moment	-3907
▁obdach	-3908
▁podium	-3909
▁reklam	-3910
▁saiten	-3911
▁schulk	-3912
▁seilen	-3913
▁treibt	-3914
▁welpen	-3915
▁wischt	-3916
bemalung	-3917
flugzeug	-3918
geworfen	-3919
▁akustik	-3920
▁bewegen	-3921
▁büschen	-3922
▁gefüllt	-3923
▁kricket	-3924
▁medizin	-3925
▁sammelt	-3926
▁schmuck	-3927
▁stangen	-3928
▁theater	-3929
▁violine	-3930
▁waldweg	-3931
▁befahren	-3932
▁bekommen	-3933
▁festhält	-3934
▁flaschen	-3935
▁gleichen	-3936
▁maulkorb	-3937
▁stehende	-3938
▁torhüter	-3939
▁verlässt	-3940
▁ausgebrei	-3941
▁badewanne	-3942
▁beisammen	-3943
▁bespritzt	-3944
▁bewundert	-3945
▁elefanten	-3946
▁scheinbar	-3947
▁schildern	-3948
▁überprüft	-3949
▁herunterge	-3950
▁motorräder	-3951
▁regenbogen	-3952
▁schubkarre	-3953
▁silhouette	-3954
▁straßenmus	-3955
▁vielleicht	-3956
▁zahlreiche	-3957
▁aufgestellt	-3958
▁diskutieren	-3959
▁klassenraum	-3960
▁mittagessen	-3961
▁motorroller	-3962
▁verkleidete	-3963
▁ziegelmauer	-3964
▁übergewicht	-3965
▁blumenmuster	-3966
▁eingezäunten	-3967
▁fahrgeschäft	-3968
▁orangefarbene	-3969
▁sportkleidung	-3970
▁teenageralter	-3971
▁afroamerikaner	-3972
▁basketballspiel	-3973
hm	-3974
ail	-3975
akd	-3976
ari	-3977
bas	-3978
dig	-3979
han	-3980
ial	-3981
jek	-3982
kal	-3983
ola	-3984
stä	-3985
urm	-3986
ven	-3987
wir	-3988
ymn	-3989
zin	-3990
äne	-3991
▁mu	-3992
anke	-3993
arzt	-3994
back	-3995
bare	-3996
biet	-3997
eile	-3998
eist	-3999
ernt	-4000
flie	-4001
hlet	-4002
höri	-4003
ielt	-4004
ikul	-4005
kann	-4006
putz	-4007
ufer	-4008
wich	-4009
zten	-4010
▁ans	-4011
▁dah	-4012
▁fal	-4013
▁fit	-4014
▁umr	-4015
▁web	-4016
abrik	-4017
ainer	-4018
block	-4019
boten	-4020
decke	-4021
dress	-4022
essen	-4023
ieben	-4024
kante	-4025
karte	-4026
mitar	-4027
nimmt	-4028
ommen	-4029
orter	-4030
ossen	-4031
▁bike	-4032
▁bill	-4033
▁camp	-4034
▁fein	-4035
▁gymn	-4036
▁hier	-4037
▁irok	-4038
▁kran	-4039
▁neue	-4040
▁rohr	-4041
▁töpf	-4042
▁türk	-4043
▁webt	-4044
▁zuge	-4045
apelle	-4046
balltr	-4047
ession	-4048
iertes	-4049
schaut	-4050
wäsche	-4051
zeitig	-4052
▁bevor	-4053
▁bibli	-4054
▁boots	-4055
▁colle	-4056
▁kiste	-4057
▁köche	-4058
▁leger	-4059
▁pfadf	-4060
▁profi	-4061
▁rande	-4062
▁rosar	-4063
einwand	-4064
▁achter	-4065
▁breakd	-4066
▁bühnen	-4067
▁clowns	-4068
▁geschw	-4069
▁hotdog	-4070
▁landet	-4071
▁locken	-4072
▁löffel	-4073
▁museum	-4074
▁poster	-4075
▁ringer	-4076
▁wendet	-4077
▁zöpfen	-4078
förmigen	-4079
gebäudes	-4080
gelassen	-4081
geländer	-4082
kostümen	-4083
mitarbei	-4084
ämmerung	-4085
▁attrakt	-4086
▁bandana	-4087
▁beginnt	-4088
▁drinnen	-4089
▁gehende	-4090
▁greifen	-4091
▁gymnast	-4092
▁häusern	-4093
▁kameras	-4094
▁maschen	-4095
▁reflekt	-4096
▁ruhigen	-4097
▁starren	-4098
▁tablett	-4099
spielerin	-4100
spielzeug	-4101
▁aussicht	-4102
▁ballerin	-4103
▁blättern	-4104
▁einsamer	-4105
▁elektron	-4106
▁fahrrads	-4107
▁farbigen	-4108
▁fernglas	-4109
▁gestikul	-4110
▁hindurch	-4111
▁irokesen	-4112
▁lockigen	-4113
▁nächsten	-4114
▁schieben	-4115
▁streifen	-4116
▁trommeln	-4117
▁verdeckt	-4118
▁dudelsack	-4119
▁gewändern	-4120
▁grimassen	-4121
▁indischer	-4122
▁radrennen	-4123
▁schaufeln	-4124
▁stehender	-4125
▁stirnband	-4126
▁teilweise	-4127
geschnitten	-4128
▁asiatinnen	-4129
▁aufführung	-4130
▁bibliothek	-4131
▁innenstadt	-4132
▁ländlichen	-4133
▁marktplatz	-4134
▁mitglieder	-4135
▁vorbeigeht	-4136
▁zubereitet	-4137
▁aussehenden	-4138
▁entlanggeht	-4139
▁gestreiftes	-4140
▁rosafarbene	-4141
▁rothaariges	-4142
▁gleichzeitig	-4143
▁maschendraht	-4144
▁neugeborenes	-4145
▁sonnenschirm	-4146
▁glatzköpfiger	-4147
▁khakifarbenen	-4148
▁akustikgitarre	-4149
▁reifenschaukel	-4150
▁rettungswesten	-4151
▁snowboardfahrer	-4152
▁tennisspielerin	-4153
fo	-4154
go	-4155
pa	-4156
pl	-4157
öt	-4158
ami	-4159
ane	-4160
flü	-4161
hes	-4162
irl	-4163
itr	-4164
ool	-4165
weh	-4166
wel	-4167
wie	-4168
▁ba	-4169
▁mc	-4170
▁py	-4171
▁sw	-4172
▁sy	-4173
abel	-4174
bett	-4175
biss	-4176
blät	-4177
ersp	-4178
etze	-4179
gest	-4180
jung	-4181
line	-4182
länd	-4183
mern	-4184
ofon	-4185
otiv	-4186
ustr	-4187
äste	-4188
▁ble	-4189
▁dri	-4190
▁erh	-4191
▁erw	-4192
▁ess	-4193
▁pil	-4194
▁trü	-4195
anner	-4196
gebil	-4197
haube	-4198
ichte	-4199
ivers	-4200
küche	-4201
loser	-4202
onnen	-4203
orden	-4204
racht	-4205
spark	-4206
sseln	-4207
stuch	-4208
werke	-4209
▁burg	-4210
▁cell	-4211
▁fack	-4212
▁krab	-4213
▁rund	-4214
▁sack	-4215
▁sort	-4216
▁unge	-4217
▁verd	-4218
▁wake	-4219
etafel	-4220
fangen	-4221
führen	-4222
grauen	-4223
hockey	-4224
istole	-4225
kasten	-4226
lichem	-4227
liegen	-4228
menade	-4229
orange	-4230
orträt	-4231
shorts	-4232
stisch	-4233
▁asien	-4234
▁auszu	-4235
▁feder	-4236
▁flöte	-4237
▁hotel	-4238
▁karte	-4239
▁leckt	-4240
▁ozean	-4241
▁sowie	-4242
▁szene	-4243
▁trock	-4244
▁wange	-4245
fahrrad	-4246
schauen	-4247
▁abends	-4248
▁bilden	-4249
▁brauen	-4250
▁bällen	-4251
▁fallen	-4252
▁jubelt	-4253
▁kindes	-4254
▁labork	-4255
▁liefer	-4256
▁manche	-4257
▁mützen	-4258
▁rechte	-4259
▁sauber	-4260
▁stofft	-4261
▁stühle	-4262
▁tattoo	-4263
▁turban	-4264
klettern	-4265
lichkeit	-4266
streifen	-4267
▁college	-4268
▁friseur	-4269
▁händler	-4270
▁papiere	-4271
▁pitcher	-4272
▁stehend	-4273
▁trainer	-4274
▁tribüne	-4275
▁vortrag	-4276
▁wasserm	-4277
▁eingesch	-4278
▁gemuster	-4279
▁golfball	-4280
▁halstuch	-4281
▁händchen	-4282
▁klatscht	-4283
▁pflaster	-4284
▁schilder	-4285
▁streicht	-4286
▁verkehrs	-4287
▁wassersp	-4288
rennfahrer	-4289
wettbewerb	-4290
▁barfüßige	-4291
▁geparkten	-4292
▁gewickelt	-4293
▁gymnastik	-4294
▁handschuh	-4295
▁mülltonne	-4296
▁schaukeln	-4297
▁werkstatt	-4298
mitarbeiter	-4299
▁achterbahn	-4300
▁badezimmer	-4301
▁kettensäge	-4302
▁luftballon	-4303
▁pferdeschw	-4304
▁radfahrern	-4305
▁ausgestellt	-4306
▁bauarbeiten	-4307
▁beleuchtung	-4308
▁langhaarige	-4309
▁olympischen	-4310
▁plastiktüte	-4311
▁strickmütze	-4312
▁versammlung	-4313
▁vorbereitet	-4314
▁gestikuliert	-4315
▁inlineskates	-4316
▁rosafarbener	-4317
▁unbefestigte	-4318
▁verheiratetes	-4319
▁marathonläufer	-4320
bh	-4321
bü	-4322
fä	-4323
ra	-4324
äg	-4325
bal	-4326
häu	-4327
krä	-4328
oga	-4329
org	-4330
reg	-4331
rob	-4332
sau	-4333
sse	-4334
urn	-4335
▁dj	-4336
▁sl	-4337
aush	-4338
elbe	-4339
emon	-4340
eten	-4341
ital	-4342
peri	-4343
rauß	-4344
rill	-4345
tens	-4346
ungl	-4347
weis	-4348
▁ant	-4349
▁asp	-4350
▁bam	-4351
▁bro	-4352
▁erz	-4353
▁kie	-4354
▁kit	-4355
▁los	-4356
▁mün	-4357
▁rik	-4358
▁san	-4359
▁uhr	-4360
▁usa	-4361
▁wen	-4362
ambur	-4363
anien	-4364
arter	-4365
donal	-4366
enken	-4367
falls	-4368
feier	-4369
llern	-4370
läuft	-4371
nisse	-4372
ummel	-4373
unken	-4374
unnel	-4375
▁bohr	-4376
▁eisw	-4377
▁film	-4378
▁glän	-4379
▁hüte	-4380
▁kell	-4381
▁knei	-4382
▁lass	-4383
▁post	-4384
▁rost	-4385
▁tank	-4386
▁ungl	-4387
▁wahr	-4388
▁yoga	-4389
balken	-4390
blauem	-4391
eignis	-4392
hammer	-4393
ienten	-4394
igiert	-4395
indern	-4396
iziert	-4397
kelten	-4398
kuchen	-4399
reiter	-4400
stüten	-4401
wehrau	-4402
üffelt	-4403
▁akrob	-4404
▁altes	-4405
▁banjo	-4406
▁beach	-4407
▁bräun	-4408
▁bälle	-4409
▁cello	-4410
▁draht	-4411
▁engel	-4412
▁kette	-4413
▁köpfe	-4414
▁legen	-4415
▁lernt	-4416
▁linie	-4417
▁möbel	-4418
▁nebel	-4419
▁packt	-4420
▁prüft	-4421
▁pudel	-4422
▁snack	-4423
▁türen	-4424
▁watet	-4425
▁welpe	-4426
brocken	-4427
eingang	-4428
hobenen	-4429
ständer	-4430
öffnung	-4431
▁anweis	-4432
▁bahngl	-4433
▁bambus	-4434
▁besitz	-4435
▁besuch	-4436
▁blasen	-4437
▁booten	-4438
▁fabrik	-4439
▁fänger	-4440
▁hellro	-4441
▁hocker	-4442
▁inform	-4443
▁inline	-4444
▁katzen	-4445
▁passag	-4446
▁putzen	-4447
▁riksch	-4448
▁schafe	-4449
▁schuss	-4450
▁suchen	-4451
▁säulen	-4452
▁türkis	-4453
▁verste	-4454
▁werfer	-4455
angehöri	-4456
bereiten	-4457
gebunden	-4458
gestreif	-4459
schlauch	-4460
wegungen	-4461
▁ansieht	-4462
▁asphalt	-4463
▁bedruck	-4464
▁cowboys	-4465
▁dreirad	-4466
▁dunklem	-4467
▁einheim	-4468
▁fliesen	-4469
▁gebeugt	-4470
▁geräten	-4471
▁haltung	-4472
▁heraush	-4473
▁jackett	-4474
▁kellner	-4475
▁knöpfen	-4476
▁kümmert	-4477
▁mcdonal	-4478
▁treiben	-4479
▁violett	-4480
▁waschen	-4481
▁wirbelt	-4482
bedeckten	-4483
gungspark	-4484
schriften	-4485
▁anhänger	-4486
▁aufgerei	-4487
▁aufnahme	-4488
▁autobahn	-4489
▁bemalten	-4490
▁bewegung	-4491
▁fischern	-4492
▁freundin	-4493
▁produkte	-4494
▁sandigen	-4495
▁sandwich	-4496
▁schleife	-4497
▁schnitzt	-4498
▁tänzerin	-4499
basketball	-4500
sellschaft	-4501
▁angeboten	-4502
▁bandmitgl	-4503
▁begleitet	-4504
▁betonwand	-4505
▁computern	-4506
▁einkäufer	-4507
▁konferenz	-4508
▁rückwärts	-4509
▁schwingen	-4510
▁schüsseln	-4511
▁wassermel	-4512
▁aneinander	-4513
▁breakdance	-4514
▁gesichtern	-4515
▁geöffneten	-4516
▁glänzenden	-4517
▁kunstwerke	-4518
▁männliches	-4519
▁pfadfinder	-4520
instrumenten	-4521
▁badeanzügen	-4522
▁gepunkteten	-4523
▁gestreifter	-4524
▁hellhäutige	-4525
▁herumstehen	-4526
▁lieferwagen	-4527
▁mitarbeiter	-4528
▁schneeanzug	-4529
▁spaziergang	-4530
▁spielerisch	-4531
▁sprungbrett	-4532
▁treppenhaus	-4533
▁tätowierung	-4534
▁verschneite	-4535
▁waschbecken	-4536
▁schwimmweste	-4537
▁tarnkleidung	-4538
▁mountainbiker	-4539
▁treppenstufen	-4540
▁tätowierungen	-4541
▁feuerwehrleute	-4542
▁heißluftballon	-4543
▁schwarzhaarige	-4544
▁traditionellen	-4545
▁trainingsanzug	-4546
▁vergnügungspark	-4547
ca	-4548
io	-4549
ks	-4550
vr	-4551
ys	-4552
za	-4553
aal	-4554
ace	-4555
als	-4556
bie	-4557
how	-4558
ims	-4559
iss	-4560
kör	-4561
opf	-4562
ous	-4563
ppt	-4564
ube	-4565
uth	-4566
vie	-4567
▁lu	-4568
▁nu	-4569
▁wi	-4570
▁zy	-4571
elig	-4572
ennt	-4573
fers	-4574
fert	-4575
ffiz	-4576
heke	-4577
iers	-4578
itor	-4579
llig	-4580
lten	-4581
lust	-4582
lzen	-4583
ring	-4584
show	-4585
stap	-4586
uder	-4587
vent	-4588
vers	-4589
weil	-4590
zune	-4591
ächt	-4592
ände	-4593
▁boo	-4594
▁con	-4595
▁del	-4596
▁ern	-4597
▁lau	-4598
▁mal	-4599
▁ord	-4600
▁pon	-4601
▁sat	-4602
▁spä	-4603
▁sub	-4604
▁tee	-4605
▁vol	-4606
agger	-4607
allow	-4608
annen	-4609
blick	-4610
iefel	-4611
inten	-4612
mäher	-4613
stimm	-4614
ächer	-4615
ücken	-4616
▁arzt	-4617
▁auge	-4618
▁beam	-4619
▁city	-4620
▁dock	-4621
▁halt	-4622
▁hohe	-4623
▁home	-4624
▁horn	-4625
▁john	-4626
▁kast	-4627
▁klar	-4628
▁krat	-4629
▁krie	-4630
▁legg	-4631
▁live	-4632
▁ofen	-4633
▁papp	-4634
▁pelz	-4635
▁smok	-4636
▁soll	-4637
▁spär	-4638
▁verm	-4639
▁warm	-4640
▁weil	-4641
▁woll	-4642
▁zebr	-4643
graben	-4644
imming	-4645
klippe	-4646
linder	-4647
objekt	-4648
rücken	-4649
spannt	-4650
weißes	-4651
werker	-4652
▁apfel	-4653
▁babys	-4654
▁biker	-4655
▁einzu	-4656
▁fecht	-4657
▁gesen	-4658
▁helme	-4659
▁hoher	-4660
▁indem	-4661
▁inner	-4662
▁jeder	-4663
▁kante	-4664
▁kerle	-4665
▁knall	-4666
▁liege	-4667
▁netze	-4668
▁objek	-4669
▁paare	-4670
▁ruhen	-4671
▁stahl	-4672
▁stolz	-4673
▁stunt	-4674
▁stößt	-4675
▁tiere	-4676
▁urein	-4677
▁waffe	-4678
▁wette	-4679
▁ziell	-4680
▁übers	-4681
bändern	-4682
fußball	-4683
ierende	-4684
projekt	-4685
springt	-4686
▁banner	-4687
▁bietet	-4688
▁drückt	-4689
▁erzeug	-4690
▁freude	-4691
▁gürtel	-4692
▁karton	-4693
▁kragen	-4694
▁kürbis	-4695
▁muster	-4696
▁oberen	-4697
▁perlen	-4698
▁rahmen	-4699
▁redner	-4700
▁rudern	-4701
▁schaum	-4702
▁shirts	-4703
▁stöcke	-4704
▁surfen	-4705
▁töpfer	-4706
▁zucker	-4707
behälter	-4708
farbigen	-4709
genommen	-4710
kollegen	-4711
periment	-4712
spielern	-4713
sprecher	-4714
unkelten	-4715
wehrauto	-4716
zunehmen	-4717
▁besteht	-4718
▁blocken	-4719
▁einsatz	-4720
▁felsvor	-4721
▁früchte	-4722
▁gemacht	-4723
▁gläsern	-4724
▁kaffeet	-4725
▁laptops	-4726
▁löschen	-4727
▁nachbar	-4728
▁oranger	-4729
▁plüscht	-4730
▁porträt	-4731
▁sammeln	-4732
▁scheibe	-4733
▁schnapp	-4734
▁schwebt	-4735
▁stammes	-4736
▁strumpf	-4737
▁unorden	-4738
▁überall	-4739
andschaft	-4740
arterback	-4741
schwimmen	-4742
wettkampf	-4743
▁eiscreme	-4744
▁gehender	-4745
▁holzbank	-4746
▁jüngerer	-4747
▁picknick	-4748
▁rutschen	-4749
▁schminkt	-4750
▁serviert	-4751
▁spärlich	-4752
▁säugling	-4753
▁verteilt	-4754
▁webstuhl	-4755
▁zylinder	-4756
ansammlung	-4757
balltrikot	-4758
immingpool	-4759
▁ballerina	-4760
▁bekleidet	-4761
▁eisenbahn	-4762
▁erklimmen	-4763
▁gefüllten	-4764
▁karussell	-4765
▁kastanien	-4766
▁kleineren	-4767
▁möglicher	-4768
▁obststand	-4769
▁passenden	-4770
▁rollschuh	-4771
▁schütteln	-4772
▁seltsamen	-4773
▁verwenden	-4774
▁örtlichen	-4775
ausstellung	-4776
▁abgestellt	-4777
▁abgeworfen	-4778
▁bekleidete	-4779
▁brettspiel	-4780
▁fußgängern	-4781
▁gesprungen	-4782
▁männlichen	-4783
▁schlagmann	-4784
▁teilnehmen	-4785
▁teilnehmer	-4786
▁türöffnung	-4787
▁untergrund	-4788
▁bekleideter	-4789
▁flauschiger	-4790
▁geschnitten	-4791
▁japanischen	-4792
▁kleinkinder	-4793
▁laborkittel	-4794
▁leuchtenden	-4795
▁mittelalter	-4796
▁präsentiert	-4797
▁turnschuhen	-4798
▁ureinwohner	-4799
▁vorderseite	-4800
▁wasserspren	-4801
▁fußballdress	-4802
▁gegenständen	-4803
▁geländewagen	-4804
▁jugendlichen	-4805
▁krankenschwe	-4806
▁pinkfarbener	-4807
▁wunderschöne	-4808
▁braunhaariger	-4809
▁langärmeligen	-4810
▁lebensmitteln	-4811
▁orientalische	-4812
▁pferdeschwanz	-4813
▁transportiert	-4814
▁wasserrutsche	-4815
▁einkaufstasche	-4816
▁möglicherweise	-4817
▁silberfarbenen	-4818
▁beachvolleyball	-4819
kn	-4820
zw	-4821
zz	-4822
bür	-4823
ffe	-4824
fig	-4825
ike	-4826
oss	-4827
pla	-4828
por	-4829
ump	-4830
wol	-4831
äte	-4832
▁lä	-4833
▁är	-4834
ache	-4835
alde	-4836
atet	-4837
elte	-4838
esse	-4839
flip	-4840
gabe	-4841
getr	-4842
iene	-4843
ierc	-4844
isse	-4845
legt	-4846
llie	-4847
mitt	-4848
mpft	-4849
nchr	-4850
netz	-4851
odie	-4852
pfad	-4853
raft	-4854
reis	-4855
rift	-4856
saal	-4857
stor	-4858
ücke	-4859
▁aqu	-4860
▁bon	-4861
▁bün	-4862
▁end	-4863
▁fle	-4864
▁hab	-4865
▁haw	-4866
▁hor	-4867
▁lin	-4868
▁mod	-4869
▁pir	-4870
▁tie	-4871
▁tim	-4872
▁uns	-4873
asken	-4874
bchen	-4875
derby	-4876
digen	-4877
front	-4878
hause	-4879
heben	-4880
hoben	-4881
iften	-4882
ilden	-4883
ister	-4884
istor	-4885
kisen	-4886
lafen	-4887
lampe	-4888
mmern	-4889
motiv	-4890
pferd	-4891
puppe	-4892
raten	-4893
schil	-4894
ssaal	-4895
wandt	-4896
▁aufw	-4897
▁bull	-4898
▁eier	-4899
▁einf	-4900
▁ente	-4901
▁font	-4902
▁grin	-4903
▁jeep	-4904
▁kauf	-4905
▁kick	-4906
▁kilt	-4907
▁kühl	-4908
▁lich	-4909
▁matr	-4910
▁pull	-4911
▁rode	-4912
▁röhr	-4913
▁sieg	-4914
▁skil	-4915
▁tenn	-4916
▁toil	-4917
▁trot	-4918
▁turm	-4919
▁verh	-4920
alerie	-4921
becher	-4922
beinen	-4923
blickt	-4924
bürste	-4925
crosse	-4926
emonie	-4927
feuert	-4928
garten	-4929
gelegt	-4930
gitter	-4931
iedens	-4932
ierung	-4933
ischem	-4934
jacken	-4935
kräfte	-4936
rechen	-4937
reicht	-4938
sauger	-4939
schiff	-4940
trikot	-4941
wander	-4942
äumten	-4943
üchern	-4944
▁block	-4945
▁board	-4946
▁deren	-4947
▁drink	-4948
▁filmt	-4949
▁formt	-4950
▁gehör	-4951
▁geste	-4952
▁gummi	-4953
▁herrn	-4954
▁kanad	-4955
▁kasse	-4956
▁kurze	-4957
▁lasso	-4958
▁ließt	-4959
▁pfeil	-4960
▁puppe	-4961
▁relig	-4962
▁sprüh	-4963
▁stern	-4964
▁sumpf	-4965
▁säule	-4966
ckenden	-4967
gläsern	-4968
steiger	-4969
trägern	-4970
viertel	-4971
▁aufzug	-4972
▁bootes	-4973
▁bruder	-4974
▁eimern	-4975
▁erhält	-4976
▁fischt	-4977
▁frisur	-4978
▁hallen	-4979
▁histor	-4980
▁hochzu	-4981
▁jeweil	-4982
▁kauert	-4983
▁klasse	-4984
▁kratzt	-4985
▁kurzem	-4986
▁körben	-4987
▁lampen	-4988
▁leucht	-4989
▁mischt	-4990
▁morgen	-4991
▁nasser	-4992
▁partie	-4993
▁regner	-4994
▁rollen	-4995
▁schutt	-4996
▁synchr	-4997
▁tracht	-4998
▁trifft	-4999
▁unfall	-5000
▁wieder	-5001
▁wolken	-5002
gebildet	-5003
schlagen	-5004
schüssel	-5005
springer	-5006
▁akrobat	-5007
▁bewalde	-5008
▁bildern	-5009
▁fremden	-5010
▁gefolgt	-5011
▁gesehen	-5012
▁gleisen	-5013
▁kostüme	-5014
▁meisten	-5015
▁pflanze	-5016
▁rikscha	-5017
▁schneit	-5018
▁schrift	-5019
▁stelzen	-5020
▁strands	-5021
▁stöcken	-5022
▁tomaten	-5023
uniformen	-5024
zeichnung	-5025
▁amüsiert	-5026
▁erdhügel	-5027
▁friedens	-5028
▁fröhlich	-5029
▁größeren	-5030
▁herkunft	-5031
▁holzzaun	-5032
▁lachende	-5033
▁lacrosse	-5034
▁laternen	-5035
▁leggings	-5036
▁leinwand	-5037
▁overalls	-5038
▁rücksitz	-5039
▁strecken	-5040
▁vergnügt	-5041
landschaft	-5042
▁aufgeregt	-5043
▁bestellen	-5044
▁burgunder	-5045
▁dämmerung	-5046
▁ebenfalls	-5047
▁einkaufen	-5048
▁erreichen	-5049
▁halskette	-5050
▁holzboden	-5051
▁kleidungs	-5052
▁liegenden	-5053
▁maschinen	-5054
▁mülleimer	-5055
▁niedrigen	-5056
▁rückseite	-5057
▁schaulust	-5058
▁schmetter	-5059
▁staubigen	-5060
▁streichen	-5061
▁verbunden	-5062
▁zeremonie	-5063
▁ziellinie	-5064
▁abgebildet	-5065
▁angebracht	-5066
▁aufgereiht	-5067
▁entfernung	-5068
▁fliegenden	-5069
▁handschuhe	-5070
▁klappstuhl	-5071
▁lagerfeuer	-5072
▁landstraße	-5073
▁lächelnden	-5074
▁motorhaube	-5075
▁richtungen	-5076
▁stromschne	-5077
▁ziegelwand	-5078
▁ausstellung	-5079
▁bergsteiger	-5080
▁erzeugnisse	-5081
▁essensstand	-5082
▁fahrradhelm	-5083
▁gitarristen	-5084
▁obdachloser	-5085
▁schulkinder	-5086
▁unterwäsche	-5087
▁vorrichtung	-5088
▁blondhaarige	-5089
▁festgebunden	-5090
▁freizeitpark	-5091
▁präsentation	-5092
▁reflektieren	-5093
▁regnerischen	-5094
▁schlauchboot	-5095
▁swimmingpool	-5096
▁unterrichtet	-5097
▁afrikanischen	-5098
▁eingeschlafen	-5099
▁schneeschuhen	-5100
▁ziegelsteinen	-5101
▁schutzkleidung	-5102
▁ungewöhnlichen	-5103
▁unordentlichen	-5104
▁öffentlichkeit	-5105
▁übergewichtiger	-5106
iö	-5107
nä	-5108
vi	-5109
ata	-5110
car	-5111
cre	-5112
enk	-5113
frü	-5114
ieb	-5115
inz	-5116
ish	-5117
kas	-5118
kla	-5119
kle	-5120
les	-5121
mon	-5122
mpf	-5123
osk	-5124
rig	-5125
rot	-5126
set	-5127
tür	-5128
uhr	-5129
öst	-5130
üge	-5131
▁go	-5132
▁hy	-5133
anen	-5134
arty	-5135
chan	-5136
club	-5137
cont	-5138
dent	-5139
dose	-5140
dukt	-5141
eman	-5142
enen	-5143
ersk	-5144
ffel	-5145
fält	-5146
hack	-5147
hirt	-5148
hoch	-5149
holz	-5150
horn	-5151
ipfl	-5152
kmal	-5153
laub	-5154
malt	-5155
mart	-5156
okol	-5157
olen	-5158
paar	-5159
schr	-5160
▁bud	-5161
▁bzw	-5162
▁dig	-5163
▁elm	-5164
▁eng	-5165
▁fas	-5166
▁gla	-5167
▁lei	-5168
▁mel	-5169
▁pop	-5170
▁sal	-5171
▁tem	-5172
▁top	-5173
adung	-5174
affen	-5175
ammen	-5176
armon	-5177
auten	-5178
bbelt	-5179
blase	-5180
bühne	-5181
chsen	-5182
dreht	-5183
ehren	-5184
gaben	-5185
gramm	-5186
inner	-5187
izont	-5188
kohol	-5189
maler	-5190
mitte	-5191
offen	-5192
phone	-5193
schel	-5194
schür	-5195
schüt	-5196
stall	-5197
stift	-5198
süber	-5199
ärmen	-5200
ündet	-5201
▁beru	-5202
▁blas	-5203
▁chir	-5204
▁dunk	-5205
▁etwa	-5206
▁flip	-5207
▁förm	-5208
▁gedr	-5209
▁gefr	-5210
▁komm	-5211
▁lack	-5212
▁lade	-5213
▁laut	-5214
▁mäht	-5215
▁münz	-5216
▁polo	-5217
▁wart	-5218
▁wenn	-5219
▁zitr	-5220
bällen	-5221
bäumen	-5222
fernen	-5223
großen	-5224
klasse	-5225
leiter	-5226
mittag	-5227
mützen	-5228
nummer	-5229
ochten	-5230
putzer	-5231
school	-5232
tunnel	-5233
werfen	-5234
änkten	-5235
▁akten	-5236
▁ampel	-5237
▁blech	-5238
▁busch	-5239
▁china	-5240
▁daran	-5241
▁darin	-5242
▁fahrg	-5243
▁fasst	-5244
▁gabel	-5245
▁haupt	-5246
▁hawai	-5247
▁hohem	-5248
▁hohes	-5249
▁holen	-5250
▁inder	-5251
▁karto	-5252
▁kraft	-5253
▁künst	-5254
▁lampe	-5255
▁lokal	-5256
▁moder	-5257
▁notiz	-5258
▁offiz	-5259
▁peace	-5260
▁pizza	-5261
▁plate	-5262
▁pullo	-5263
▁röhre	-5264
▁schar	-5265
▁smart	-5266
▁speer	-5267
▁spinn	-5268
▁tages	-5269
▁trink	-5270
▁verbr	-5271
▁würde	-5272
▁zauns	-5273
anzeige	-5274
bietung	-5275
dachten	-5276
ipflops	-5277
isplatz	-5278
schluss	-5279
verkehr	-5280
werbung	-5281
▁bildes	-5282
▁bindet	-5283
▁diesen	-5284
▁fische	-5285
▁folgen	-5286
▁füllen	-5287
▁hallow	-5288
▁hambur	-5289
▁heller	-5290
▁hervor	-5291
▁hoodie	-5292
▁klaren	-5293
▁kneipe	-5294
▁muskul	-5295
▁platte	-5296
▁reihen	-5297
▁sattel	-5298
▁sessel	-5299
▁speise	-5300
▁spritz	-5301
▁stativ	-5302
▁steile	-5303
▁stürzt	-5304
▁völlig	-5305
▁warmen	-5306
▁öffnen	-5307
bewegung	-5308
festival	-5309
flaschen	-5310
klettert	-5311
kommenen	-5312
schienen	-5313
struktur	-5314
▁alkohol	-5315
▁anhaben	-5316
▁ausländ	-5317
▁besucht	-5318
▁brillen	-5319
▁camping	-5320
▁dritten	-5321
▁dritter	-5322
▁flusses	-5323
▁flügeln	-5324
▁gefleck	-5325
▁gericht	-5326
▁geöffne	-5327
▁hübsche	-5328
▁jeweils	-5329
▁kartons	-5330
▁pferder	-5331
▁platten	-5332
▁religiö	-5333
▁rennens	-5334
▁schokol	-5335
▁schützt	-5336
▁station	-5337
▁student	-5338
▁umringt	-5339
▁unglück	-5340
▁univers	-5341
▁unteren	-5342
▁verschr	-5343
▁ähnlich	-5344
geschäfts	-5345
handschuh	-5346
indigkeit	-5347
ähnlichen	-5348
▁bedienen	-5349
▁betreten	-5350
▁dahinter	-5351
▁dribbelt	-5352
▁eiswagen	-5353
▁familien	-5354
▁fenstern	-5355
▁forscher	-5356
▁gefallen	-5357
▁gefangen	-5358
▁gelangen	-5359
▁gespannt	-5360
▁geöffnet	-5361
▁herausge	-5362
▁horizont	-5363
▁hübschen	-5364
▁karohemd	-5365
▁langärml	-5366
▁laufbahn	-5367
▁mitglied	-5368
▁parcours	-5369
▁passiert	-5370
▁schürzen	-5371
▁schützen	-5372
▁seichten	-5373
▁spaziert	-5374
▁synchron	-5375
▁tagsüber	-5376
▁vorführt	-5377
▁weiteren	-5378
▁ärmellos	-5379
restaurant	-5380
scheinlich	-5381
▁brautjung	-5382
▁entfernen	-5383
▁erhobenen	-5384
▁fahrzeuge	-5385
▁feuerwerk	-5386
▁flipflops	-5387
▁flussufer	-5388
▁formeller	-5389
▁getroffen	-5390
▁halloween	-5391
▁hamburger	-5392
▁patienten	-5393
▁pullunder	-5394
▁schachtel	-5395
▁segelboot	-5396
▁vergnügen	-5397
▁wakeboard	-5398
▁angehalten	-5399
▁attraktive	-5400
▁ausgezogen	-5401
▁bedruckten	-5402
▁befahrenen	-5403
▁beleuchtet	-5404
▁betrachter	-5405
▁bewaldeten	-5406
▁darbietung	-5407
▁hindernisp	-5408
▁oberfläche	-5409
▁plüschtier	-5410
▁schlendert	-5411
▁tanzfläche	-5412
▁tätowierte	-5413
▁verzierten	-5414
▁wildwasser	-5415
▁überprüfen	-5416
▁angezogener	-5417
▁aussehendes	-5418
▁bauernmarkt	-5419
▁chinesische	-5420
▁felsbrocken	-5421
▁fischernetz	-5422
▁gegnerische	-5423
▁hockeyspiel	-5424
▁kopfschmuck	-5425
▁musikgruppe	-5426
▁nachrichten	-5427
▁protestiert	-5428
▁rasenfläche	-5429
▁regenmantel	-5430
▁schlammigen	-5431
▁skateboards	-5432
▁steintreppe	-5433
▁tennisplatz	-5434
▁verteidiger	-5435
▁ausgestreckt	-5436
▁außenbereich	-5437
▁begeisterung	-5438
▁elektrischen	-5439
▁erleuchteten	-5440
▁heraushängen	-5441
▁hinterbeinen	-5442
▁konstruktion	-5443
▁namensschild	-5444
▁orientalisch	-5445
▁reklametafel	-5446
▁scheinwerfer	-5447
▁straßenseite	-5448
▁telefonieren	-5449
▁uniformierte	-5450
▁wasserbecken	-5451
▁wasserfläche	-5452
▁einkaufstüten	-5453
▁felsvorsprung	-5454
▁feuerwehrauto	-5455
▁fußballtrikot	-5456
▁kampfsportler	-5457
▁nachbarschaft	-5458
▁uniformierter	-5459
▁verkaufsstand	-5460
▁zeitschriften	-5461
▁amerikanischer	-5462
▁orangefarbenes	-5463
▁schneebedeckte	-5464
▁straßenmusiker	-5465
▁stromschnellen	-5466
▁geschwindigkeit	-5467
▁irokesenschnitt	-5468
▁kapuzenpullover	-5469
▁schneebedecktes	-5470
▁straßenarbeiter	-5471
ib	-5472
if	-5473
nt	-5474
oo	-5475
üb	-5476
alb	-5477
bär	-5478
ddy	-5479
dti	-5480
eug	-5481
fol	-5482
hel	-5483
hte	-5484
ice	-5485
ins	-5486
ipe	-5487
ips	-5488
itu	-5489
kee	-5490
kol	-5491
mor	-5492
ogo	-5493
oly	-5494
pos	-5495
sem	-5496
ski	-5497
urz	-5498
was	-5499
yer	-5500
ärb	-5501
▁ad	-5502
▁fu	-5503
▁hä	-5504
▁ip	-5505
▁is	-5506
▁no	-5507
▁of	-5508
▁op	-5509
▁sä	-5510
adel	-5511
frau	-5512
gibt	-5513
ging	-5514
girl	-5515
hebt	-5516
iken	-5517
inge	-5518
krem	-5519
ktem	-5520
kund	-5521
loch	-5522
lose	-5523
ollt	-5524
orch	-5525
osau	-5526
ppel	-5527
pper	-5528
seil	-5529
stab	-5530
stil	-5531
strü	-5532
vern	-5533
zone	-5534
ßelt	-5535
ätte	-5536
öser	-5537
üllt	-5538
ünen	-5539
▁bla	-5540
▁blu	-5541
▁blü	-5542
▁bur	-5543
▁car	-5544
▁cro	-5545
▁fro	-5546
▁jen	-5547
▁jet	-5548
▁loh	-5549
▁sar	-5550
▁squ	-5551
apier	-5552
auber	-5553
bluse	-5554
diert	-5555
eider	-5556
erten	-5557
farbe	-5558
flops	-5559
geben	-5560
hunde	-5561
ilien	-5562
kommt	-5563
losen	-5564
mpfer	-5565
onder	-5566
opoly	-5567
orten	-5568
persp	-5569
pfahl	-5570
punkt	-5571
ragen	-5572
stens	-5573
terne	-5574
tromm	-5575
ubsch	-5576
wolke	-5577
zelle	-5578
▁amer	-5579
▁arch	-5580
▁ausz	-5581
▁blut	-5582
▁chef	-5583
▁elmo	-5584
▁erle	-5585
▁ethn	-5586
▁fang	-5587
▁früh	-5588
▁garn	-5589
▁gurt	-5590
▁haut	-5591
▁hüpf	-5592
▁konf	-5593
▁lust	-5594
▁mach	-5595
▁mais	-5596
▁mopp	-5597
▁raus	-5598
▁reis	-5599
▁stüt	-5600
▁sägt	-5601
▁them	-5602
ammert	-5603
athlet	-5604
aturen	-5605
blauer	-5606
dtimer	-5607
ektive	-5608
espiel	-5609
führer	-5610
gelber	-5611
ierend	-5612
karren	-5613
karten	-5614
nungen	-5615
platte	-5616
rahmen	-5617
rauber	-5618
scheln	-5619
staben	-5620
stellt	-5621
strauß	-5622
teilen	-5623
tennis	-5624
tragen	-5625
ummern	-5626
utscht	-5627
wommen	-5628
▁absol	-5629
▁aktiv	-5630
▁aller	-5631
▁armee	-5632
▁beten	-5633
▁betet	-5634
▁blask	-5635
▁breit	-5636
▁domin	-5637
▁grund	-5638
▁halle	-5639
▁hause	-5640
▁hüfte	-5641
▁nadel	-5642
▁nagel	-5643
▁nahen	-5644
▁osten	-5645
▁paras	-5646
▁passt	-5647
▁pilot	-5648
▁rosen	-5649
▁ruhig	-5650
▁rührt	-5651
▁saugt	-5652
▁späht	-5653
▁stach	-5654
▁taube	-5655
▁techn	-5656
▁teddy	-5657
▁times	-5658
▁toten	-5659
▁tüten	-5660
dranten	-5661
flügeln	-5662
gematte	-5663
geräten	-5664
gruppen	-5665
mmertag	-5666
pfosten	-5667
sichtig	-5668
stellen	-5669
stellte	-5670
stiften	-5671
streckt	-5672
verkauf	-5673
ylophon	-5674
▁absatz	-5675
▁anzahl	-5676
▁aufges	-5677
▁bagger	-5678
▁batman	-5679
▁befind	-5680
▁beißen	-5681
▁beteil	-5682
▁blockt	-5683
▁busses	-5684
▁bäcker	-5685
▁bündel	-5686
▁dicken	-5687
▁eingew	-5688
▁europa	-5689
▁fackel	-5690
▁faszin	-5691
▁feuert	-5692
▁fitnes	-5693
▁fliege	-5694
▁fächer	-5695
▁garage	-5696
▁gießen	-5697
▁gipfel	-5698
▁glatze	-5699
▁handys	-5700
▁hocken	-5701
▁hüpfen	-5702
▁imbiss	-5703
▁indien	-5704
▁jogger	-5705
▁kommun	-5706
▁kämpft	-5707
▁küsten	-5708
▁laster	-5709
▁lecker	-5710
▁lernen	-5711
▁marmor	-5712
▁matsch	-5713
▁möchte	-5714
▁ozeans	-5715
▁parken	-5716
▁pfanne	-5717
▁puppen	-5718
▁schieß	-5719
▁schrau	-5720
▁skatet	-5721
▁soeben	-5722
▁sprüht	-5723
▁street	-5724
▁studio	-5725
▁transp	-5726
▁vögeln	-5727
▁wettei	-5728
▁wetter	-5729
▁zelten	-5730
▁ziegen	-5731
▁zuhört	-5732
armonika	-5733
erstelle	-5734
football	-5735
kreuzten	-5736
pielzeug	-5737
stiefeln	-5738
zeichnet	-5739
▁ansehen	-5740
▁auslage	-5741
▁baumstä	-5742
▁bauwerk	-5743
▁billard	-5744
▁brechen	-5745
▁breiten	-5746
▁bürstet	-5747
▁darüber	-5748
▁einiger	-5749
▁figuren	-5750
▁fontäne	-5751
▁industr	-5752
▁jockeys	-5753
▁jogging	-5754
▁kameram	-5755
▁legerer	-5756
▁meißelt	-5757
▁produkt	-5758
▁richten	-5759
▁schneem	-5760
▁schwere	-5761
▁schöner	-5762
▁smoking	-5763
▁staffel	-5764
▁steuert	-5765
▁stiefel	-5766
▁tourist	-5767
▁walmart	-5768
▁wildnis	-5769
▁zuhause	-5770
container	-5771
liegenden	-5772
▁aufgereg	-5773
▁backflip	-5774
▁dieselbe	-5775
▁erklimmt	-5776
▁esstisch	-5777
▁fotograp	-5778
▁frischem	-5779
▁gefroren	-5780
▁gehstock	-5781
▁gespielt	-5782
▁gewinnen	-5783
▁hochhack	-5784
▁intervie	-5785
▁kaufhaus	-5786
▁kontroll	-5787
▁laufband	-5788
▁läuferin	-5789
▁monopoly	-5790
▁oldtimer	-5791
▁polohemd	-5792
▁position	-5793
▁probiert	-5794
▁rollersk	-5795
▁rostigen	-5796
▁sandburg	-5797
▁schlucht	-5798
▁schmalen	-5799
▁schnappt	-5800
▁schnorch	-5801
▁silberne	-5802
▁spritzen	-5803
▁stabhoch	-5804
▁unbekann	-5805
▁vorderen	-5806
▁wachmann	-5807
▁weiterer	-5808
bewegungen	-5809
▁arbeitern	-5810
▁bestehend	-5811
▁bockenden	-5812
▁brennende	-5813
▁dekoriert	-5814
▁faulenzen	-5815
▁fernsehen	-5816
▁fernseher	-5817
▁flugzeugs	-5818
▁gelegenen	-5819
▁hochstuhl	-5820
▁kopfstein	-5821
▁projektor	-5822
▁randstein	-5823
▁rosaroten	-5824
▁sandhügel	-5825
▁schwenken	-5826
▁servieren	-5827
▁sommertag	-5828
▁stadtpark	-5829
▁steinbank	-5830
▁teenagern	-5831
▁trockenen	-5832
▁umgebenen	-5833
▁unterhemd	-5834
▁windhunde	-5835
▁wollmütze	-5836
▁ziegelbau	-5837
perspektive	-5838
ubschrauber	-5839
vorrichtung	-5840
▁angezogene	-5841
▁baumstumpf	-5842
▁begeistert	-5843
▁betonmauer	-5844
▁buchstaben	-5845
▁dunkelheit	-5846
▁fahrzeugen	-5847
▁feldhockey	-5848
▁geflochten	-5849
▁geschmückt	-5850
▁grünfläche	-5851
▁hellgrünen	-5852
▁hängematte	-5853
▁kompletter	-5854
▁ladefläche	-5855
▁mitspieler	-5856
▁muskulöser	-5857
▁passagiere	-5858
▁schachteln	-5859
▁schnüffelt	-5860
▁sporthalle	-5861
▁supermarkt	-5862
▁vorführung	-5863
▁vorsichtig	-5864
▁zahnbürste	-5865
▁anweisungen	-5866
▁aufblasbare	-5867
▁blaskapelle	-5868
▁feuerstelle	-5869
▁gesichtsaus	-5870
▁irgendeinem	-5871
▁kajakfahrer	-5872
▁quarterback	-5873
▁rothaariger	-5874
▁seifenblase	-5875
▁sonnenlicht	-5876
▁spiegelbild	-5877
▁spielsachen	-5878
▁staubsauger	-5879
▁straßenfest	-5880
▁strumpfhose	-5881
▁altmodischen	-5882
▁baseballfeld	-5883
▁eingewickelt	-5884
▁gepflasterte	-5885
▁hosenträgern	-5886
▁mehrfarbigen	-5887
▁metallstange	-5888
▁rugbyspieler	-5889
▁schlafzimmer	-5890
▁straßenszene	-5891
▁telefonzelle	-5892
▁unterhaltung	-5893
▁verschwommen	-5894
▁vorbeifahren	-5895
orangefarbenen	-5896
▁demonstranten	-5897
▁footballspiel	-5898
▁geldautomaten	-5899
▁gleichgewicht	-5900
▁straßenrennen	-5901
▁verschränkten	-5902
▁waschmaschine	-5903
▁ziegelgebäude	-5904
▁ausgeschnitten	-5905
▁backsteinmauer	-5906
▁elektronischen	-5907
▁orientalischer	-5908
▁wassersprenger	-5909
▁heraushängender	-5910
▁kopfbedeckungen	-5911
id	-5912
mö	-5913
ph	-5914
ud	-5915
aga	-5916
caf	-5917
eim	-5918
gol	-5919
hat	-5920
met	-5921
ney	-5922
ond	-5923
rid	-5924
upf	-5925
övr	-5926
▁ac	-5927
▁ap	-5928
▁bö	-5929
▁gä	-5930
alte	-5931
anzt	-5932
aste	-5933
baby	-5934
bike	-5935
book	-5936
brot	-5937
chor	-5938
cola	-5939
corn	-5940
dest	-5941
etti	-5942
fass	-5943
ford	-5944
füll	-5945
gert	-5946
gren	-5947
hedr	-5948
igol	-5949
ikel	-5950
imon	-5951
iner	-5952
inke	-5953
kost	-5954
last	-5955
ltim	-5956
nach	-5957
ogie	-5958
orgt	-5959
pult	-5960
rami	-5961
roll	-5962
spur	-5963
sstu	-5964
szug	-5965
tuch	-5966
wahl	-5967
will	-5968
wirt	-5969
wohl	-5970
ählt	-5971
öcke	-5972
üler	-5973
▁anl	-5974
▁fir	-5975
▁gek	-5976
▁gok	-5977
▁kok	-5978
▁kre	-5979
▁nav	-5980
▁sam	-5981
▁sod	-5982
▁sol	-5983
arena	-5984
arium	-5985
blatt	-5986
blaue	-5987
cktem	-5988
ckter	-5989
eindr	-5990
gress	-5991
grube	-5992
hohen	-5993
hütte	-5994
icken	-5995
ispan	-5996
kiste	-5997
lings	-5998
llung	-5999
pfeln	-6000
pierc	-6001
regal	-6002
riges	-6003
roter	-6004
schar	-6005
schun	-6006
stamm	-6007
techn	-6008
theke	-6009
trock	-6010
uktur	-6011
ungsk	-6012
unten	-6013
weder	-6014
zeria	-6015
ätzen	-6016
übung	-6017
▁besp	-6018
▁body	-6019
▁bron	-6020
▁buck	-6021
▁coca	-6022
▁dose	-6023
▁filz	-6024
▁führ	-6025
▁gefä	-6026
▁glet	-6027
▁huhn	-6028
▁kamm	-6029
▁kein	-6030
▁kinn	-6031
▁kult	-6032
▁käse	-6033
▁latz	-6034
▁leop	-6035
▁lädt	-6036
▁muss	-6037
▁neun	-6038
▁pain	-6039
▁papa	-6040
▁ping	-6041
▁pult	-6042
▁saft	-6043
▁seit	-6044
▁seni	-6045
▁sims	-6046
▁skim	-6047
▁spar	-6048
▁stil	-6049
▁säge	-6050
▁welt	-6051
abteil	-6052
affeln	-6053
askott	-6054
beutel	-6055
bläser	-6056
bricht	-6057
etzter	-6058
finden	-6059
frisur	-6060
gegend	-6061
grüner	-6062
hüpfen	-6063
iedern	-6064
inchen	-6065
itzern	-6066
itäten	-6067
jungen	-6068
keeper	-6069
ketten	-6070
körben	-6071
olster	-6072
person	-6073
storte	-6074
treten	-6075
wärtss	-6076
änzern	-6077
▁abged	-6078
▁apple	-6079
▁bades	-6080
▁bergl	-6081
▁boote	-6082
▁creme	-6083
▁denkt	-6084
▁dosen	-6085
▁enten	-6086
▁erhöh	-6087
▁event	-6088
▁genau	-6089
▁hackt	-6090
▁heran	-6091
▁jenga	-6092
▁kabel	-6093
▁kanus	-6094
▁kimon	-6095
▁kolle	-6096
▁käfig	-6097
▁linke	-6098
▁löwen	-6099
▁möwen	-6100
▁neuen	-6101
▁näher	-6102
▁palme	-6103
▁plant	-6104
▁schnu	-6105
▁sprin	-6106
▁teilt	-6107
▁tippt	-6108
▁truth	-6109
▁ufers	-6110
▁volks	-6111
▁voran	-6112
▁wanne	-6113
▁warte	-6114
▁wippe	-6115
▁ziege	-6116
▁zielt	-6117
alteten	-6118
ansicht	-6119
aterial	-6120
galerie	-6121
malerei	-6122
oreiter	-6123
schnell	-6124
schwimm	-6125
stöcken	-6126
stücken	-6127
▁albern	-6128
▁angeln	-6129
▁aufgeb	-6130
▁basken	-6131
▁beschm	-6132
▁beschn	-6133
▁besprü	-6134
▁beutel	-6135
▁binden	-6136
▁blazer	-6137
▁bleibt	-6138
▁design	-6139
▁dschun	-6140
▁dünnen	-6141
▁europä	-6142
▁ganzen	-6143
▁gefärb	-6144
▁geschr	-6145
▁gestap	-6146
▁gokart	-6147
▁habsel	-6148
▁hacken	-6149
▁herzen	-6150
▁hinweg	-6151
▁hispan	-6152
▁hübsch	-6153
▁intens	-6154
▁kabine	-6155
▁kajaks	-6156
▁kaukas	-6157
▁kehren	-6158
▁kickbo	-6159
▁labrad	-6160
▁ladens	-6161
▁langes	-6162
▁lebens	-6163
▁leitet	-6164
▁mechan	-6165
▁nassem	-6166
▁ochsen	-6167
▁pfeife	-6168
▁pinsel	-6169
▁plüsch	-6170
▁pyrami	-6171
▁regelt	-6172
▁regnet	-6173
▁reicht	-6174
▁reisen	-6175
▁riesen	-6176
▁schals	-6177
▁schnür	-6178
▁segelt	-6179
▁square	-6180
▁strahl	-6181
▁subway	-6182
▁tempel	-6183
▁trüben	-6184
▁urlaub	-6185
▁waffel	-6186
▁waffen	-6187
▁wilden	-6188
▁zweite	-6189
bebalken	-6190
einfahrt	-6191
eitungen	-6192
gelegten	-6193
ichteten	-6194
itischen	-6195
position	-6196
pullover	-6197
schlange	-6198
stürzten	-6199
▁anderem	-6200
▁angemal	-6201
▁ansicht	-6202
▁bananen	-6203
▁beeindr	-6204
▁begriff	-6205
▁bleiben	-6206
▁buckeln	-6207
▁digital	-6208
▁dinosau	-6209
▁farbige	-6210
▁fassade	-6211
▁felsens	-6212
▁fernseh	-6213
▁flammen	-6214
▁frische	-6215
▁gehüllt	-6216
▁glastür	-6217
▁kathedr	-6218
▁kümmern	-6219
▁metallt	-6220
▁nummern	-6221
▁objekte	-6222
▁pferdes	-6223
▁piraten	-6224
▁pistole	-6225
▁popcorn	-6226
▁schenkt	-6227
▁schritt	-6228
▁schwier	-6229
▁säubert	-6230
▁trottet	-6231
▁verschm	-6232
▁versuch	-6233
▁zebrast	-6234
▁zigarre	-6235
▁zurecht	-6236
fahrzeugs	-6237
promenade	-6238
schildern	-6239
schlitten	-6240
schwimmer	-6241
schützern	-6242
▁beginnen	-6243
▁broschür	-6244
▁deutsche	-6245
▁einsamen	-6246
▁entweder	-6247
▁ereignis	-6248
▁faulenzt	-6249
▁felsform	-6250
▁frischen	-6251
▁gefahren	-6252
▁gesäumte	-6253
▁getragen	-6254
▁getreide	-6255
▁hinteren	-6256
▁indianer	-6257
▁innenhof	-6258
▁irgendwo	-6259
▁krabbelt	-6260
▁pizzeria	-6261
▁rockband	-6262
▁schleift	-6263
▁seichtem	-6264
▁sortiert	-6265
▁spielern	-6266
▁spielers	-6267
▁struktur	-6268
▁torbogen	-6269
▁training	-6270
▁türkisen	-6271
▁wartungs	-6272
▁zeichnen	-6273
▁zitronen	-6274
askottchen	-6275
unterricht	-6276
▁afrikaner	-6277
▁anzusehen	-6278
▁badehosen	-6279
▁badekappe	-6280
▁barkeeper	-6281
▁beleuchte	-6282
▁dekorativ	-6283
▁dirigiert	-6284
▁dschungel	-6285
▁einfachen	-6286
▁eislaufen	-6287
▁fahrzeugs	-6288
▁fröhliche	-6289
▁gepolster	-6290
▁gletscher	-6291
▁großstadt	-6292
▁holzbrett	-6293
▁industrie	-6294
▁innenraum	-6295
▁kaninchen	-6296
▁karierter	-6297
▁kontrolle	-6298
▁mcdonalds	-6299
▁probieren	-6300
▁pullovern	-6301
▁ringkampf	-6302
▁ruderboot	-6303
▁schlafend	-6304
▁schrauben	-6305
▁staffelei	-6306
▁tauziehen	-6307
▁toiletten	-6308
▁umzäunten	-6309
▁unterstüt	-6310
▁versteckt	-6311
▁violetter	-6312
▁warnweste	-6313
▁wintertag	-6314
bahnstation	-6315
gestreiften	-6316
▁absperrung	-6317
▁angefeuert	-6318
▁barfüßiger	-6319
▁brennenden	-6320
▁eisschnell	-6321
▁felsklippe	-6322
▁fischmarkt	-6323
▁gefleckter	-6324
▁geldbeutel	-6325
▁geschlagen	-6326
▁gestreifte	-6327
▁glückliche	-6328
▁handwerker	-6329
▁highschool	-6330
▁kameramann	-6331
▁nachmittag	-6332
▁profession	-6333
▁rennfahrer	-6334
▁schneeball	-6335
▁smartphone	-6336
▁spielenden	-6337
▁stadtszene	-6338
▁startlinie	-6339
▁tankstelle	-6340
▁tropischen	-6341
▁weiblichen	-6342
▁aktentasche	-6343
▁aufeinander	-6344
▁aufgeblasen	-6345
▁aufgenommen	-6346
▁baskenmütze	-6347
▁baumstämmen	-6348
▁betonstufen	-6349
▁einrichtung	-6350
▁gemusterten	-6351
▁handtaschen	-6352
▁irgendeiner	-6353
▁jeansshorts	-6354
▁kaffeetasse	-6355
▁kostümierte	-6356
▁passagieren	-6357
▁rodeoreiter	-6358
▁schlafendes	-6359
▁schokoladen	-6360
▁vorstellung	-6361
▁wandmalerei	-6362
▁winterjacke	-6363
▁ausgebreitet	-6364
▁beeindrucken	-6365
▁bohrmaschine	-6366
▁cheerleadern	-6367
▁chinesischer	-6368
▁footballfeld	-6369
▁geflochtenen	-6370
▁gesellschaft	-6371
▁hindernispar	-6372
▁historischen	-6373
▁hochhackigen	-6374
▁interagieren	-6375
▁kunstgalerie	-6376
▁leichtathlet	-6377
▁lilafarbener	-6378
▁schlittschuh	-6379
▁wasserstraße	-6380
▁blondhaariger	-6381
▁braunhaariges	-6382
▁brautjungfern	-6383
▁cheerleaderin	-6384
▁demonstration	-6385
▁einheimischer	-6386
▁fahrradrennen	-6387
▁khakifarbener	-6388
▁müllcontainer	-6389
▁schwebebalken	-6390
▁traditionelle	-6391
▁wassermelonen	-6392
▁zebrastreifen	-6393
▁ausgebreiteten	-6394
▁basketballfeld	-6395
▁berglandschaft	-6396
▁burgunderroten	-6397
▁habseligkeiten	-6398
▁hochzuklettern	-6399
▁hundespielzeug	-6400
▁pflasterstraße	-6401
▁schlittschuhen	-6402
▁wahrscheinlich	-6403
▁backsteinstraße	-6404
▁einkaufstaschen	-6405
▁friedenszeichen	-6406
▁militärangehöri	-6407
▁motocrossfahrer	-6408
▁musikinstrument	-6409
▁reflektierenden	-6410
▁stammeskleidung	-6411
▁volleyballspiel	-6412
fz	-6413
ld	-6414
mo	-6415
so	-6416
ye	-6417
äf	-6418
üd	-6419
air	-6420
aum	-6421
flu	-6422
gür	-6423
hän	-6424
ica	-6425
ino	-6426
kie	-6427
kur	-6428
lei	-6429
lim	-6430
nev	-6431
ogr	-6432
olt	-6433
ose	-6434
pit	-6435
pon	-6436
rat	-6437
spa	-6438
ton	-6439
tra	-6440
try	-6441
upp	-6442
wür	-6443
ymb	-6444
yro	-6445
zus	-6446
▁ag	-6447
▁wh	-6448
▁öl	-6449
arat	-6450
atem	-6451
ator	-6452
atze	-6453
bade	-6454
boss	-6455
chco	-6456
crew	-6457
digt	-6458
ehen	-6459
erer	-6460
erie	-6461
eter	-6462
ffet	-6463
fiel	-6464
font	-6465
gelb	-6466
gele	-6467
gier	-6468
gurt	-6469
heel	-6470
hüte	-6471
iegs	-6472
inde	-6473
inis	-6474
isst	-6475
itte	-6476
iven	-6477
izen	-6478
jama	-6479
kart	-6480
kler	-6481
mark	-6482
nern	-6483
nähe	-6484
oliz	-6485
pipe	-6486
quem	-6487
ragt	-6488
raut	-6489
rier	-6490
rosa	-6491
rüpp	-6492
saft	-6493
ston	-6494
tion	-6495
turn	-6496
uell	-6497
wart	-6498
welt	-6499
zeln	-6500
äcke	-6501
ädig	-6502
äumt	-6503
ügel	-6504
▁amp	-6505
▁beh	-6506
▁cam	-6507
▁com	-6508
▁day	-6509
▁deu	-6510
▁dok	-6511
▁don	-6512
▁fan	-6513
▁fäu	-6514
▁gas	-6515
▁got	-6516
▁gän	-6517
▁jüd	-6518
▁kek	-6519
▁kna	-6520
▁kul	-6521
▁lat	-6522
▁lig	-6523
▁lob	-6524
▁meg	-6525
▁mer	-6526
▁org	-6527
▁pan	-6528
▁pow	-6529
▁pri	-6530
▁pus	-6531
▁sms	-6532
▁wäl	-6533
▁zom	-6534
▁zut	-6535
▁üpp	-6536
acken	-6537
acker	-6538
allye	-6539
altet	-6540
anell	-6541
arden	-6542
attle	-6543
aufel	-6544
autos	-6545
boote	-6546
bälle	-6547
elten	-6548
essor	-6549
ettel	-6550
fisch	-6551
hänge	-6552
hängt	-6553
hüten	-6554
ielen	-6555
ienst	-6556
ierer	-6557
igten	-6558
ilder	-6559
junge	-6560
klein	-6561
kröte	-6562
onern	-6563
oners	-6564
order	-6565
packt	-6566
pfang	-6567
produ	-6568
reibt	-6569
schle	-6570
spass	-6571
sters	-6572
stier	-6573
stopf	-6574
stron	-6575
sturm	-6576
ständ	-6577
tnach	-6578
untry	-6579
waffe	-6580
watte	-6581
wiese	-6582
wirft	-6583
ängst	-6584
ässer	-6585
▁allt	-6586
▁atem	-6587
▁dess	-6588
▁food	-6589
▁gehe	-6590
▁gekü	-6591
▁glät	-6592
▁ipod	-6593
▁kenn	-6594
▁krug	-6595
▁kund	-6596
▁kuss	-6597
▁lebh	-6598
▁lego	-6599
▁make	-6600
▁mini	-6601
▁open	-6602
▁patr	-6603
▁pony	-6604
▁pose	-6605
▁qual	-6606
▁ruft	-6607
▁saal	-6608
▁senk	-6609
▁sign	-6610
▁sorg	-6611
▁spag	-6612
▁steg	-6613
▁tack	-6614
▁tren	-6615
▁umkl	-6616
▁wolk	-6617
▁wäre	-6618
agiert	-6619
ailing	-6620
aufger	-6621
bernen	-6622
besitz	-6623
betrie	-6624
blaues	-6625
bligen	-6626
blumen	-6627
booten	-6628
bunten	-6629
busses	-6630
chcoat	-6631
ckigen	-6632
decker	-6633
detwas	-6634
eibeam	-6635
endung	-6636
fältig	-6637
geräte	-6638
helmen	-6639
hemden	-6640
ienung	-6641
inette	-6642
ington	-6643
kappen	-6644
koffer	-6645
kragen	-6646
lesung	-6647
minton	-6648
oshirt	-6649
ousine	-6650
papier	-6651
pfütze	-6652
schuss	-6653
splatz	-6654
steigt	-6655
steine	-6656
stücks	-6657
sänger	-6658
tattoo	-6659
teller	-6660
tresen	-6661
tänzer	-6662
urnier	-6663
ärgert	-6664
ückten	-6665
▁batik	-6666
▁baums	-6667
▁beauf	-6668
▁beför	-6669
▁bohrt	-6670
▁bulle	-6671
▁dress	-6672
▁freut	-6673
▁fried	-6674
▁funkt	-6675
▁gebir	-6676
▁gemüt	-6677
▁gleis	-6678
▁haken	-6679
▁hasen	-6680
▁helle	-6681
▁hänge	-6682
▁irgen	-6683
▁keine	-6684
▁klass	-6685
▁kunde	-6686
▁körbe	-6687
▁liebl	-6688
▁limon	-6689
▁miami	-6690
▁milch	-6691
▁minde	-6692
▁nasse	-6693
▁paket	-6694
▁pitch	-6695
▁radio	-6696
▁reise	-6697
▁salat	-6698
▁schrä	-6699
▁schär	-6700
▁spült	-6701
▁state	-6702
▁still	-6703
▁tauch	-6704
▁thema	-6705
▁tiger	-6706
▁ultim	-6707
▁verst	-6708
▁wegen	-6709
▁wenig	-6710
▁werbe	-6711
▁wheel	-6712
▁wiegt	-6713
▁wählt	-6714
▁wände	-6715
▁zelte	-6716
▁überw	-6717
▁übung	-6718
absperr	-6719
blätter	-6720
boarden	-6721
braunem	-6722
brochen	-6723
deckten	-6724
figuren	-6725
fleisch	-6726
haltung	-6727
kapelle	-6728
kulptur	-6729
meister	-6730
mädchen	-6731
ohmarkt	-6732
pistole	-6733
respiel	-6734
skuchen	-6735
sstudio	-6736
zenerie	-6737
übungen	-6738
▁aktion	-6739
▁amboss	-6740
▁athlet	-6741
▁aufhat	-6742
▁balgen	-6743
▁beamte	-6744
▁befrei	-6745
▁beigen	-6746
▁bekann	-6747
▁bequem	-6748
▁berggi	-6749
▁bleist	-6750
▁bricht	-6751
▁brünet	-6752
▁bulldo	-6753
▁buntem	-6754
▁buntes	-6755
▁bürste	-6756
▁domino	-6757
▁doppel	-6758
▁einger	-6759
▁essend	-6760
▁fußweg	-6761
▁gebaut	-6762
▁gesche	-6763
▁geschn	-6764
▁gestüt	-6765
▁hawaii	-6766
▁herein	-6767
▁häuser	-6768
▁inhalt	-6769
▁kabeln	-6770
▁karnev	-6771
▁kasten	-6772
▁kegeln	-6773
▁kicken	-6774
▁kittel	-6775
▁latein	-6776
▁leiden	-6777
▁manövr	-6778
▁massen	-6779
▁muslim	-6780
▁nackte	-6781
▁nichts	-6782
▁obwohl	-6783
▁ohrhör	-6784
▁packen	-6785
▁pinken	-6786
▁prächt	-6787
▁raufen	-6788
▁rummel	-6789
▁schale	-6790
▁schatt	-6791
▁schick	-6792
▁schält	-6793
▁stelle	-6794
▁stücke	-6795
▁tiefen	-6796
▁tinten	-6797
▁verwir	-6798
▁wirken	-6799
▁wurden	-6800
▁wüsten	-6801
▁zauber	-6802
▁zähnen	-6803
▁zündet	-6804
bewohner	-6805
blättern	-6806
erstellt	-6807
fallenen	-6808
köpfigen	-6809
mannszug	-6810
pflegten	-6811
schaufel	-6812
schlacht	-6813
spassage	-6814
sperrten	-6815
werkzeug	-6816
▁abgesch	-6817
▁armband	-6818
▁ausflug	-6819
▁auswahl	-6820
▁bastelt	-6821
▁beendet	-6822
▁bikinis	-6823
▁blument	-6824
▁cowgirl	-6825
▁dunkeln	-6826
▁eisbahn	-6827
▁empfang	-6828
▁erinner	-6829
▁fechten	-6830
▁filzhut	-6831
▁flanell	-6832
▁füttern	-6833
▁garagen	-6834
▁gehoben	-6835
▁gehwegs	-6836
▁grinsen	-6837
▁gürteln	-6838
▁haltend	-6839
▁handgel	-6840
▁hotdogs	-6841
▁hörsaal	-6842
▁kiefern	-6843
▁kirchen	-6844
▁kompliz	-6845
▁minigol	-6846
▁nachden	-6847
▁nackten	-6848
▁nackter	-6849
▁nacktes	-6850
▁notizen	-6851
▁offener	-6852
▁perücke	-6853
▁pfannen	-6854
▁pflückt	-6855
▁punkten	-6856
▁rollern	-6857
▁ruhigem	-6858
▁schiffs	-6859
▁schippt	-6860
▁schloss	-6861
▁schwanz	-6862
▁seattle	-6863
▁spitzen	-6864
▁strickt	-6865
▁stöbern	-6866
▁tackelt	-6867
▁tänzern	-6868
▁umgedre	-6869
▁umhänge	-6870
▁verlegt	-6871
▁wohnung	-6872
▁zutaten	-6873
bereitung	-6874
lastwagen	-6875
plattform	-6876
schneiden	-6877
sgeschäft	-6878
stehenden	-6879
▁angelein	-6880
▁anschaut	-6881
▁aquarium	-6882
▁aufrecht	-6883
▁ausschau	-6884
▁autositz	-6885
▁besonder	-6886
▁bestellt	-6887
▁besuchen	-6888
▁einzelne	-6889
▁erreicht	-6890
▁erwischt	-6891
▁fernrohr	-6892
▁festival	-6893
▁fingernä	-6894
▁funktion	-6895
▁gewehren	-6896
▁hochhält	-6897
▁hüpfburg	-6898
▁intensiv	-6899
▁jüngeres	-6900
▁kleinere	-6901
▁konfetti	-6902
▁liegende	-6903
▁modernen	-6904
▁musikern	-6905
▁mülltüte	-6906
▁pyramide	-6907
▁rauchend	-6908
▁schaufen	-6909
▁schienen	-6910
▁schlecht	-6911
▁schweren	-6912
▁schülern	-6913
▁seitlich	-6914
▁senioren	-6915
▁studiert	-6916
▁trocknet	-6917
▁ultimate	-6918
▁umhängen	-6919
▁unaufger	-6920
▁verkehrt	-6921
▁versehen	-6922
▁wettlauf	-6923
aufführung	-6924
gegenstand	-6925
oberfläche	-6926
schaftlich	-6927
wärtssalto	-6928
▁anschauen	-6929
▁aufschlag	-6930
▁aufwärmen	-6931
▁badminton	-6932
▁bedeckter	-6933
▁befahrene	-6934
▁begleiter	-6935
▁beschädig	-6936
▁beteiligt	-6937
▁betonbank	-6938
▁blühenden	-6939
▁deutscher	-6940
▁durchgang	-6941
▁eventuell	-6942
▁fahrenden	-6943
▁geradeaus	-6944
▁gerichtet	-6945
▁gesenktem	-6946
▁gesichter	-6947
▁golfplatz	-6948
▁hemdbluse	-6949
▁holztisch	-6950
▁hydranten	-6951
▁interview	-6952
▁kartoffel	-6953
▁khakihose	-6954
▁landkarte	-6955
▁leoparden	-6956
▁limousine	-6957
▁meeresfrü	-6958
▁mikrofone	-6959
▁motorboot	-6960
▁nachtclub	-6961
▁platziert	-6962
▁poloshirt	-6963
▁professor	-6964
▁promenade	-6965
▁radfahren	-6966
▁schnuller	-6967
▁spielerin	-6968
▁stofftier	-6969
▁strahlend	-6970
▁teilnimmt	-6971
▁untergeht	-6972
▁verfolgen	-6973
▁verteilen	-6974
▁verärgert	-6975
▁vorlesung	-6976
▁wanderweg	-6977
▁weinendes	-6978
▁wunderker	-6979
▁zeitungen	-6980
handschuhen	-6981
▁akustische	-6982
▁ausgestopf	-6983
▁beaufsicht	-6984
▁durchsucht	-6985
▁eiswaffeln	-6986
▁farbenfroh	-6987
▁fasziniert	-6988
▁fröhliches	-6989
▁geschminkt	-6990
▁geöffnetem	-6991
▁hellgelben	-6992
▁inspiziert	-6993
▁kampfkunst	-6994
▁kathedrale	-6995
▁maulkörben	-6996
▁metallzaun	-6997
▁mikrofonen	-6998
▁mindestens	-6999
▁möbelstück	-7000
▁rasenmäher	-7001
▁sackhüpfen	-7002
▁schlendern	-7003
▁schmettert	-7004
▁schnorchel	-7005
▁sorgfältig	-7006
▁spielzeuge	-7007
▁teenagerin	-7008
▁tischdecke	-7009
▁trenchcoat	-7010
▁warnwesten	-7011
▁wasserball	-7012
▁wasserfont	-7013
▁werkzeugen	-7014
▁wetteifern	-7015
▁ärmellosem	-7016
▁überblickt	-7017
▁bahngleisen	-7018
▁begutachten	-7019
▁betonplatte	-7020
▁bücherregal	-7021
▁dekorativen	-7022
▁dekorierten	-7023
▁dreiköpfige	-7024
▁einzufangen	-7025
▁entgegenges	-7026
▁essenswagen	-7027
▁farbenfrohe	-7028
▁fußballteam	-7029
▁gelbbrauner	-7030
▁geschrieben	-7031
▁geschäftige	-7032
▁glückliches	-7033
▁hochgehoben	-7034
▁hochspringt	-7035
▁inspizieren	-7036
▁irgendetwas	-7037
▁karateanzug	-7038
▁kartenspiel	-7039
▁kunstvollen	-7040
▁lippenstift	-7041
▁mannschafts	-7042
▁mehrfarbige	-7043
▁parasailing	-7044
▁polizeibeam	-7045
▁rothaarigen	-7046
▁schmutziges	-7047
▁schotterweg	-7048
▁seitenlinie	-7049
▁speisekarte	-7050
▁straßenbahn	-7051
▁tischtennis	-7052
▁tänzerinnen	-7053
▁tätowierter	-7054
▁verlassenen	-7055
▁videokamera	-7056
▁videospiele	-7057
▁weihnachten	-7058
▁zuckerwatte	-7059
▁überdachten	-7060
▁abgesperrten	-7061
▁badekleidung	-7062
▁befindlichen	-7063
▁blumenstrauß	-7064
▁bullenreiter	-7065
▁dekorationen	-7066
▁fußballteams	-7067
▁geschminkten	-7068
▁gitarrespiel	-7069
▁goldfarbenen	-7070
▁hubschrauber	-7071
▁klappstühlen	-7072
▁küchentresen	-7073
▁liegestühlen	-7074
▁marineblauen	-7075
▁sandskulptur	-7076
▁schaulustige	-7077
▁schauspieler	-7078
▁seilspringen	-7079
▁spazierstock	-7080
▁straßenmarkt	-7081
▁taucheranzug	-7082
▁umgestürzten	-7083
▁verkleideter	-7084
▁vorübergehen	-7085
▁weißhaariger	-7086
pflasterstraße	-7087
▁abgedunkelten	-7088
▁aufgeblasenen	-7089
▁digitalkamera	-7090
▁fitnessstudio	-7091
▁karateanzügen	-7092
▁nadelstreifen	-7093
▁radrennfahrer	-7094
▁schmetterling	-7095
▁schwarzweißer	-7096
▁schwimmwesten	-7097
▁softballspiel	-7098
▁spielmannszug	-7099
▁spielzeugauto	-7100
▁tennisschuhen	-7101
▁aufmerksamkeit	-7102
▁bandmitglieder	-7103
▁bikinioberteil	-7104
▁bordsteinkante	-7105
▁fußballspielen	-7106
▁hochzeitskleid	-7107
▁hochzeitstorte	-7108
▁modellflugzeug	-7109
▁schotterstraße	-7110
▁schwimmflügeln	-7111
▁skateboardpark	-7112
▁stabhochsprung	-7113
▁türkisfarbenen	-7114
▁unaufgeräumten	-7115
▁einkaufspassage	-7116
▁fußgängerbrücke	-7117
▁krankenhausbett	-7118
▁motorradfahrern	-7119
▁skateboardtrick	-7120
▁strandpromenade	-7121
▁verschiedenfarb	-7122
hy	-7123
hä	-7124
lu	-7125
öl	-7126
ön	-7127
ös	-7128
agg	-7129
ahm	-7130
any	-7131
atu	-7132
bob	-7133
bon	-7134
bün	-7135
cap	-7136
ege	-7137
eib	-7138
eif	-7139
ham	-7140
iat	-7141
iko	-7142
iot	-7143
iqu	-7144
itä	-7145
lau	-7146
mat	-7147
nam	-7148
oll	-7149
osn	-7150
ota	-7151
rer	-7152
ruh	-7153
räd	-7154
teu	-7155
ult	-7156
ure	-7157
wal	-7158
änk	-7159
ätz	-7160
ügt	-7161
▁cy	-7162
▁ed	-7163
▁li	-7164
▁si	-7165
▁sö	-7166
▁yo	-7167
adem	-7168
ader	-7169
afür	-7170
ager	-7171
ahlt	-7172
alie	-7173
anis	-7174
ards	-7175
arkt	-7176
arme	-7177
base	-7178
bude	-7179
eink	-7180
entr	-7181
eogr	-7182
esst	-7183
etch	-7184
ftet	-7185
gumm	-7186
halm	-7187
hell	-7188
ider	-7189
itze	-7190
jagt	-7191
jahr	-7192
komp	-7193
ktor	-7194
mach	-7195
ness	-7196
ockt	-7197
onge	-7198
pern	-7199
pert	-7200
rein	-7201
rote	-7202
sack	-7203
sand	-7204
sein	-7205
sich	-7206
star	-7207
stas	-7208
stat	-7209
steg	-7210
stem	-7211
uchs	-7212
uhen	-7213
umor	-7214
völk	-7215
ware	-7216
zahl	-7217
zung	-7218
änen	-7219
üsse	-7220
▁abw	-7221
▁att	-7222
▁beu	-7223
▁cap	-7224
▁cri	-7225
▁dog	-7226
▁drä	-7227
▁elf	-7228
▁flö	-7229
▁fol	-7230
▁hus	-7231
▁hüt	-7232
▁kop	-7233
▁kro	-7234
▁krü	-7235
▁lok	-7236
▁lot	-7237
▁ped	-7238
▁pul	-7239
▁ran	-7240
▁run	-7241
▁sky	-7242
▁süd	-7243
▁van	-7244
▁vis	-7245
ascar	-7246
atuen	-7247
boter	-7248
ckern	-7249
compu	-7250
fpipe	-7251
grill	-7252
gäste	-7253
herum	-7254
holen	-7255
horts	-7256
hören	-7257
igner	-7258
irmes	-7259
kegel	-7260
klapp	-7261
klich	-7262
kreis	-7263
kremp	-7264
lader	-7265
legen	-7266
leger	-7267
mobil	-7268
ochen	-7269
ocken	-7270
ohren	-7271
olfen	-7272
piste	-7273
plane	-7274
rauch	-7275
regen	-7276
reich	-7277
reise	-7278
ridor	-7279
start	-7280
strei	-7281
train	-7282
truck	-7283
ucher	-7284
uldig	-7285
unner	-7286
urgen	-7287
viert	-7288
wache	-7289
ymbol	-7290
ägers	-7291
ärten	-7292
ücher	-7293
▁arab	-7294
▁brät	-7295
▁bumm	-7296
▁chem	-7297
▁cock	-7298
▁cola	-7299
▁dart	-7300
▁dirt	-7301
▁enge	-7302
▁ents	-7303
▁euro	-7304
▁fund	-7305
▁gekr	-7306
▁grab	-7307
▁gute	-7308
▁gärt	-7309
▁head	-7310
▁hebe	-7311
▁ital	-7312
▁jung	-7313
▁lehm	-7314
▁love	-7315
▁lung	-7316
▁mass	-7317
▁mast	-7318
▁mehl	-7319
▁mich	-7320
▁müde	-7321
▁nike	-7322
▁pack	-7323
▁pfau	-7324
▁prie	-7325
▁reit	-7326
▁rest	-7327
▁sari	-7328
▁sche	-7329
▁senf	-7330
▁spir	-7331
▁spur	-7332
▁spät	-7333
▁stoß	-7334
▁stro	-7335
▁tüte	-7336
▁vieh	-7337
▁wash	-7338
▁winz	-7339
▁wort	-7340
▁zuzu	-7341
affell	-7342
blöcke	-7343
bündel	-7344
denten	-7345
eigung	-7346
eisten	-7347
esseln	-7348
ettelt	-7349
funden	-7350
gläser	-7351
grünem	-7352
grünes	-7353
hauses	-7354
ichter	-7355
ikatur	-7356
indeln	-7357
ingham	-7358
itiert	-7359
kissen	-7360
kittel	-7361
komple	-7362
kunden	-7363
lungen	-7364
masken	-7365
masten	-7366
museum	-7367
passen	-7368
plakat	-7369
puppen	-7370
ringen	-7371
röcken	-7372
schale	-7373
schulk	-7374
selben	-7375
shalle	-7376
statur	-7377
strich	-7378
stöcke	-7379
swagen	-7380
termin	-7381
utlich	-7382
voller	-7383
ztisch	-7384
äuchen	-7385
▁acker	-7386
▁anbie	-7387
▁angeg	-7388
▁anger	-7389
▁ausru	-7390
▁baden	-7391
▁bauer	-7392
▁beruh	-7393
▁bongo	-7394
▁brief	-7395
▁bären	-7396
▁chips	-7397
▁coach	-7398
▁comic	-7399
▁dafür	-7400
▁deckt	-7401
▁defen	-7402
▁derby	-7403
▁dünne	-7404
▁ebene	-7405
▁erdbe	-7406
▁erken	-7407
▁faust	-7408
▁fremd	-7409
▁front	-7410
▁frühl	-7411
▁geden	-7412
▁griff	-7413
▁gäste	-7414
▁halbw	-7415
▁harfe	-7416
▁heißt	-7417
▁hucke	-7418
▁ident	-7419
▁jahre	-7420
▁juwel	-7421
▁kamin	-7422
▁kanal	-7423
▁kaput	-7424
▁kerze	-7425
▁kites	-7426
▁leere	-7427
▁lehrt	-7428
▁lenkt	-7429
▁lobby	-7430
▁messe	-7431
▁misst	-7432
▁mönch	-7433
▁nasen	-7434
▁nippt	-7435
▁nächt	-7436
▁obama	-7437
▁paint	-7438
▁parks	-7439
▁pingu	-7440
▁plane	-7441
▁ponch	-7442
▁power	-7443
▁preis	-7444
▁probt	-7445
▁punkt	-7446
▁regal	-7447
▁rings	-7448
▁runde	-7449
▁räumt	-7450
▁schei	-7451
▁seife	-7452
▁skige	-7453
▁skist	-7454
▁stiel	-7455
▁sturm	-7456
▁sturz	-7457
▁stämm	-7458
▁wadet	-7459
▁waten	-7460
▁zehen	-7461
▁zeige	-7462
▁zupft	-7463
▁ärmel	-7464
attrakt	-7465
ausflug	-7466
brechen	-7467
emantel	-7468
emdchen	-7469
farbene	-7470
flieger	-7471
geschen	-7472
gestell	-7473
ießlich	-7474
istolen	-7475
mischer	-7476
monitor	-7477
mänteln	-7478
olizist	-7479
ongebob	-7480
orangen	-7481
platten	-7482
rutscht	-7483
schwarm	-7484
sstatue	-7485
traktor	-7486
treffen	-7487
turnier	-7488
wiegend	-7489
ächlich	-7490
ätzchen	-7491
▁abdeck	-7492
▁abfall	-7493
▁abhang	-7494
▁action	-7495
▁attack	-7496
▁aufkle	-7497
▁bahnen	-7498
▁basket	-7499
▁bevölk	-7500
▁boogie	-7501
▁bronze	-7502
▁büsche	-7503
▁collie	-7504
▁deutet	-7505
▁diadem	-7506
▁dicker	-7507
▁disney	-7508
▁einzig	-7509
▁entsch	-7510
▁federn	-7511
▁freuen	-7512
▁gebeug	-7513
▁gebück	-7514
▁geiger	-7515
▁gejagt	-7516
▁gemalt	-7517
▁graues	-7518
▁grills	-7519
▁großem	-7520
▁harten	-7521
▁hunder	-7522
▁hängeb	-7523
▁intern	-7524
▁kirmes	-7525
▁kokosn	-7526
▁kosten	-7527
▁kultur	-7528
▁ladung	-7529
▁lappen	-7530
▁masken	-7531
▁montur	-7532
▁nudeln	-7533
▁pfoten	-7534
▁pinata	-7535
▁pracht	-7536
▁pustet	-7537
▁pyjama	-7538
▁rallye	-7539
▁rampen	-7540
▁riemen	-7541
▁ruinen	-7542
▁rundes	-7543
▁rustik	-7544
▁schleu	-7545
▁spider	-7546
▁steuer	-7547
▁stoßen	-7548
▁stützt	-7549
▁tische	-7550
▁umgeki	-7551
▁vaters	-7552
▁verspr	-7553
▁wangen	-7554
▁winken	-7555
▁würden	-7556
▁zugeht	-7557
▁ärmeln	-7558
aufgaben	-7559
auftritt	-7560
computer	-7561
ertasche	-7562
fertigen	-7563
fluteten	-7564
isierten	-7565
motorrad	-7566
objektiv	-7567
pflanzen	-7568
piercing	-7569
schonern	-7570
stammung	-7571
stattung	-7572
stimmten	-7573
teiligen	-7574
umgebung	-7575
▁angriff	-7576
▁artikel	-7577
▁aufgabe	-7578
▁beenden	-7579
▁befragt	-7580
▁betrieb	-7581
▁betritt	-7582
▁bettelt	-7583
▁büchern	-7584
▁chirurg	-7585
▁denkmal	-7586
▁dessert	-7587
▁dirigen	-7588
▁drängen	-7589
▁einschl	-7590
▁endzone	-7591
▁erzählt	-7592
▁fackeln	-7593
▁felsige	-7594
▁fertigt	-7595
▁flaches	-7596
▁flieger	-7597
▁fließen	-7598
▁führung	-7599
▁gebogen	-7600
▁gemisch	-7601
▁gesprei	-7602
▁getrock	-7603
▁gewicht	-7604
▁gleiche	-7605
▁gärtner	-7606
▁hechtet	-7607
▁inneren	-7608
▁italien	-7609
▁japaner	-7610
▁kamelen	-7611
▁kulisse	-7612
▁kutsche	-7613
▁landung	-7614
▁langarm	-7615
▁letzten	-7616
▁lichter	-7617
▁läufern	-7618
▁neugier	-7619
▁offizie	-7620
▁papiert	-7621
▁partner	-7622
▁patient	-7623
▁patriot	-7624
▁pflanzt	-7625
▁poliert	-7626
▁rangeln	-7627
▁reklame	-7628
▁richtig	-7629
▁roboter	-7630
▁schanze	-7631
▁schwein	-7632
▁schweiß	-7633
▁schädel	-7634
▁sitzend	-7635
▁skilift	-7636
▁sprache	-7637
▁stecken	-7638
▁tellern	-7639
▁terrier	-7640
▁traurig	-7641
▁turnier	-7642
▁uferweg	-7643
▁vordach	-7644
▁wheelie	-7645
▁windsur	-7646
▁zuguckt	-7647
▁zuhören	-7648
▁zuhörer	-7649
▁zweiten	-7650
▁zweiter	-7651
▁übungen	-7652
affellauf	-7653
eisenbahn	-7654
fahrzeuge	-7655
maschinen	-7656
scheinend	-7657
schlossen	-7658
strümpfen	-7659
studenten	-7660
ähnliches	-7661
▁außerdem	-7662
▁balkonen	-7663
▁berghang	-7664
▁brunnens	-7665
▁bäckerei	-7666
▁einfahrt	-7667
▁erdboden	-7668
▁erhalten	-7669
▁erhöhten	-7670
▁erzielen	-7671
▁fertigen	-7672
▁freiheit	-7673
▁freiwill	-7674
▁freundes	-7675
▁friedhof	-7676
▁fußboden	-7677
▁fußtritt	-7678
▁gedrängt	-7679
▁geholfen	-7680
▁gemeinde	-7681
▁gesteckt	-7682
▁gestrüpp	-7683
▁gestützt	-7684
▁gewonnen	-7685
▁halfpipe	-7686
▁hellrosa	-7687
▁holzboot	-7688
▁hunderen	-7689
▁jemandes	-7690
▁kollegen	-7691
▁kongress	-7692
▁korridor	-7693
▁labrador	-7694
▁lackiert	-7695
▁landwirt	-7696
▁lehrerin	-7697
▁lichtern	-7698
▁material	-7699
▁matratze	-7700
▁matrosen	-7701
▁mcdonald	-7702
▁militärs	-7703
▁minigolf	-7704
▁nebligen	-7705
▁oberhemd	-7706
▁priester	-7707
▁rasieren	-7708
▁rennbahn	-7709
▁schalter	-7710
▁schminke	-7711
▁schotten	-7712
▁schreien	-7713
▁spielzug	-7714
▁stolpert	-7715
▁superman	-7716
▁teddybär	-7717
▁trommelt	-7718
▁truthahn	-7719
▁verletzt	-7720
▁verliert	-7721
▁verloren	-7722
▁verwirrt	-7723
▁verzieht	-7724
▁vornüber	-7725
▁zugucken	-7726
amerikaner	-7727
attraktion	-7728
ikanischen	-7729
kunststück	-7730
tnachricht	-7731
▁abschluss	-7732
▁angesicht	-7733
▁bauernhof	-7734
▁bedienung	-7735
▁beladenen	-7736
▁betrunken	-7737
▁bewundern	-7738
▁blattwerk	-7739
▁brünettes	-7740
▁bulldozer	-7741
▁eiswaffel	-7742
▁erledigen	-7743
▁felsblock	-7744
▁gemütlich	-7745
▁geschnitz	-7746
▁geschoben	-7747
▁gespritzt	-7748
▁holzstuhl	-7749
▁huckepack	-7750
▁irgendwel	-7751
▁karikatur	-7752
▁klatschen	-7753
▁lieblings	-7754
▁navigiert	-7755
▁plantscht	-7756
▁reagieren	-7757
▁rucksäcke	-7758
▁schaumbad	-7759
▁schwanger	-7760
▁schweißen	-7761
▁schülerin	-7762
▁selbstgeb	-7763
▁sitzendes	-7764
▁skigebiet	-7765
▁sortieren	-7766
▁spielende	-7767
▁straßenla	-7768
▁unterhalb	-7769
▁vereisten	-7770
▁vollständ	-7771
▁warenkorb	-7772
▁zeichnung	-7773
▁zugewandt	-7774
maskottchen	-7775
vorstellung	-7776
▁abstammung	-7777
▁angemaltem	-7778
▁ansammlung	-7779
▁anzuziehen	-7780
▁arbeitende	-7781
▁aufgeregte	-7782
▁außenseite	-7783
▁bademantel	-7784
▁ballbesitz	-7785
▁barfüßiges	-7786
▁befestigen	-7787
▁betonrampe	-7788
▁blaugrünen	-7789
▁buckelnden	-7790
▁durchsicht	-7791
▁elternteil	-7792
▁erleuchtet	-7793
▁garagentor	-7794
▁geschossen	-7795
▁halsketten	-7796
▁hellbraune	-7797
▁herrlichen	-7798
▁interessan	-7799
▁interviewt	-7800
▁irgendeine	-7801
▁klarinette	-7802
▁kleinstadt	-7803
▁kragenhemd	-7804
▁lastwagens	-7805
▁marktstand	-7806
▁musizieren	-7807
▁plakatwand	-7808
▁polizistin	-7809
▁rednerpult	-7810
▁schattigen	-7811
▁schmutzige	-7812
▁schneemann	-7813
▁schwertern	-7814
▁skulpturen	-7815
▁spanischer	-7816
▁stadtplatz	-7817
▁steinernen	-7818
▁straßencaf	-7819
▁streicheln	-7820
▁türeingang	-7821
▁umklammert	-7822
▁unterricht	-7823
▁verbringen	-7824
▁verlassene	-7825
▁vermutlich	-7826
▁wasserlauf	-7827
▁zerbrochen	-7828
▁zigaretten	-7829
▁zueinander	-7830
gesellschaft	-7831
▁absperrband	-7832
▁anscheinend	-7833
▁anzugreifen	-7834
▁balancieren	-7835
▁bergsteigen	-7836
▁blumenwiese	-7837
▁bräunlicher	-7838
▁dinosaurier	-7839
▁flauschigen	-7840
▁freundinnen	-7841
▁gartenstuhl	-7842
▁golfspieler	-7843
▁grauhaarige	-7844
▁haarschnitt	-7845
▁hafengebiet	-7846
▁hellbraunem	-7847
▁hängebrücke	-7848
▁kanadischen	-7849
▁kastenwagen	-7850
▁kleinigkeit	-7851
▁kletterwand	-7852
▁knallbunten	-7853
▁kopftüchern	-7854
▁ledermantel	-7855
▁lohfarbener	-7856
▁nächtlichen	-7857
▁orangensaft	-7858
▁pinkfarbene	-7859
▁politischen	-7860
▁rollstühlen	-7861
▁schlafenden	-7862
▁schlafender	-7863
▁schreiendes	-7864
▁schusswaffe	-7865
▁schwimmerin	-7866
▁spielzeugen	-7867
▁springenden	-7868
▁staffellauf	-7869
▁toreinfahrt	-7870
▁transporter	-7871
▁unglücklich	-7872
▁verbundenen	-7873
▁verteidigen	-7874
▁vierköpfige	-7875
▁vorbereiten	-7876
▁weingläsern	-7877
▁werkzeuggür	-7878
▁auszeichnung	-7879
▁babyschaukel	-7880
▁entlanggehen	-7881
▁fliesenboden	-7882
▁funktioniert	-7883
▁geschminktem	-7884
▁geschmückten	-7885
▁grauhaariger	-7886
▁hochklettert	-7887
▁inlineskater	-7888
▁kindergruppe	-7889
▁langärmligen	-7890
▁lautsprecher	-7891
▁marathonlauf	-7892
▁medizinische	-7893
▁militärische	-7894
▁pferderennen	-7895
▁protestieren	-7896
▁rollerskates	-7897
▁rosafarbenes	-7898
▁schneehaufen	-7899
▁schutzwesten	-7900
▁schwimmenden	-7901
▁seilschaukel	-7902
▁traditionell	-7903
▁verdunkelten	-7904
▁vorbeilaufen	-7905
▁wassermelone	-7906
▁wintermantel	-7907
▁überkreuzten	-7908
▁backsteinwand	-7909
▁balletttänzer	-7910
▁beaufsichtigt	-7911
▁blondhaariges	-7912
▁blätterhaufen	-7913
▁fahrradreifen	-7914
▁fensterputzer	-7915
▁geschäftsmann	-7916
▁informationen	-7917
▁interessanten	-7918
▁medizinischen	-7919
▁schaufenstern	-7920
▁schwarzweißen	-7921
▁tennisspielen	-7922
▁ausgestrecktem	-7923
▁basketballkorb	-7924
▁dunkelhaariges	-7925
▁einschließlich	-7926
▁eishockeyspiel	-7927
▁hochzeitsfeier	-7928
▁konferenztisch	-7929
▁motorradrennen	-7930
▁operationssaal	-7931
▁rückwärtssalto	-7932
▁wasserfahrzeug	-7933
▁geländefahrzeug	-7934
▁heißluftballons	-7935
▁restaurantküche	-7936
▁schwierigkeiten	-7937
▁skateboardrampe	-7938
▁spielplatzgerät	-7939
▁tauchausrüstung	-7940
▁wasserskifahrer	-7941
▁wissenschaftler	-7942
ao	-7943
bs	-7944
ky	-7945
mi	-7946
ps	-7947
ry	-7948
va	-7949
abs	-7950
aha	-7951
aid	-7952
aks	-7953
alo	-7954
bot	-7955
dil	-7956
din	-7957
ebe	-7958
edo	-7959
ele	-7960
erz	-7961
eup	-7962
fas	-7963
grö	-7964
int	-7965
ird	-7966
irk	-7967
ite	-7968
ium	-7969
kab	-7970
kom	-7971
lte	-7972
mbr	-7973
mme	-7974
ohl	-7975
ome	-7976
ore	-7977
osa	-7978
pul	-7979
pur	-7980
ses	-7981
sha	-7982
ugg	-7983
uma	-7984
uts	-7985
zau	-7986
zte	-7987
äll	-7988
ölf	-7989
üss	-7990
▁cr	-7991
▁dü	-7992
▁lü	-7993
▁oh	-7994
▁th	-7995
▁tö	-7996
afft	-7997
afie	-7998
aiss	-7999
akes	-8000
akko	-8001
amar	-8002
anas	-8003
anbe	-8004
anie	-8005
auna	-8006
aune	-8007
baut	-8008
bill	-8009
blem	-8010
cert	-8011
ckel	-8012
come	-8013
ctor	-8014
down	-8015
dyll	-8016
egas	-8017
ehnt	-8018
eien	-8019
enna	-8020
esel	-8021
esso	-8022
food	-8023
fung	-8024
fähr	-8025
geld	-8026
gell	-8027
gers	-8028
gnor	-8029
hler	-8030
hlte	-8031
homa	-8032
host	-8033
häng	-8034
icef	-8035
iebt	-8036
ieft	-8037
ilmt	-8038
itgl	-8039
kate	-8040
kete	-8041
klus	-8042
koch	-8043
kwür	-8044
lers	-8045
logo	-8046
mast	-8047
maus	-8048
mpfe	-8049
nete	-8050
ofen	-8051
olet	-8052
oney	-8053
oter	-8054
pink	-8055
rang	-8056
spaz	-8057
sprü	-8058
sstä	-8059
stro	-8060
tran	-8061
turm	-8062
urrt	-8063
vill	-8064
wink	-8065
wohn	-8066
zerr	-8067
zimm	-8068
zzle	-8069
ähre	-8070
öhnt	-8071
▁and	-8072
▁arc	-8073
▁cal	-8074
▁fin	-8075
▁gap	-8076
▁gei	-8077
▁glü	-8078
▁hir	-8079
▁hüh	-8080
▁jal	-8081
▁len	-8082
▁les	-8083
▁mac	-8084
▁maj	-8085
▁mut	-8086
▁mön	-8087
▁müt	-8088
▁nat	-8089
▁nor	-8090
▁pub	-8091
▁rod	-8092
▁rum	-8093
▁ses	-8094
▁sho	-8095
▁sou	-8096
▁suv	-8097
▁tai	-8098
▁toy	-8099
▁tub	-8100
▁täg	-8101
▁une	-8102
▁ves	-8103
▁wör	-8104
▁yam	-8105
▁zoo	-8106
▁ört	-8107
achte	-8108
ahlen	-8109
akeup	-8110
allel	-8111
alopp	-8112
ament	-8113
anker	-8114
anzös	-8115
armee	-8116
artig	-8117
artik	-8118
asino	-8119
bares	-8120
beleu	-8121
bkost	-8122
braun	-8123
bucks	-8124
bären	-8125
clown	-8126
court	-8127
denen	-8128
ditor	-8129
engel	-8130
ernes	-8131
etang	-8132
famil	-8133
fluss	-8134
folie	-8135
geste	-8136
griff	-8137
große	-8138
grüne	-8139
gummi	-8140
hauer	-8141
hlten	-8142
hnten	-8143
iegel	-8144
iehen	-8145
iente	-8146
ionen	-8147
itzer	-8148
klame	-8149
kodil	-8150
latte	-8151
lichk	-8152
liest	-8153
linge	-8154
llten	-8155
lässt	-8156
mbrer	-8157
musik	-8158
nchen	-8159
oskop	-8160
passt	-8161
pfleg	-8162
rotes	-8163
räger	-8164
shand	-8165
shaus	-8166
steht	-8167
tafel	-8168
teuer	-8169
umzug	-8170
ungss	-8171
urcht	-8172
ussel	-8173
volle	-8174
yline	-8175
ähnen	-8176
ärker	-8177
ästen	-8178
ünden	-8179
▁barr	-8180
▁bauf	-8181
▁blum	-8182
▁bras	-8183
▁brit	-8184
▁dick	-8185
▁drag	-8186
▁dreh	-8187
▁drän	-8188
▁ehem	-8189
▁eich	-8190
▁eiss	-8191
▁eleg	-8192
▁engl	-8193
▁farm	-8194
▁flat	-8195
▁flei	-8196
▁fond	-8197
▁foot	-8198
▁fort	-8199
▁free	-8200
▁fuße	-8201
▁geta	-8202
▁heck	-8203
▁inse	-8204
▁kass	-8205
▁kaum	-8206
▁kino	-8207
▁knab	-8208
▁lama	-8209
▁leck	-8210
▁leit	-8211
▁leot	-8212
▁lkws	-8213
▁logo	-8214
▁long	-8215
▁maga	-8216
▁mama	-8217
▁mark	-8218
▁mask	-8219
▁mein	-8220
▁metz	-8221
▁must	-8222
▁möwe	-8223
▁note	-8224
▁okla	-8225
▁pend	-8226
▁pfir	-8227
▁pian	-8228
▁port	-8229
▁prop	-8230
▁ragt	-8231
▁reno	-8232
▁rent	-8233
▁shop	-8234
▁sieb	-8235
▁slam	-8236
▁stet	-8237
▁stop	-8238
▁strö	-8239
▁tutu	-8240
▁werb	-8241
▁wink	-8242
▁zugs	-8243
▁ärzt	-8244
achtel	-8245
aktion	-8246
ansatz	-8247
attoos	-8248
bissen	-8249
bringt	-8250
bummel	-8251
druckt	-8252
enteil	-8253
entrum	-8254
finger	-8255
iegelt	-8256
iesten	-8257
ießten	-8258
igungs	-8259
ikaner	-8260
imbiss	-8261
itrine	-8262
itteln	-8263
karton	-8264
kegeln	-8265
kisten	-8266
klappe	-8267
kolben	-8268
kriegs	-8269
lingen	-8270
malten	-8271
mutter	-8272
möbeln	-8273
nahmen	-8274
riffen	-8275
rissen	-8276
rochen	-8277
rollen	-8278
räsent	-8279
schnur	-8280
skater	-8281
sparty	-8282
stapel	-8283
stchen	-8284
stofft	-8285
streut	-8286
stäben	-8287
stütze	-8288
säcken	-8289
teiler	-8290
tellen	-8291
tender	-8292
tracht	-8293
umhang	-8294
ummert	-8295
venten	-8296
wehren	-8297
werken	-8298
zieher	-8299
äfchen	-8300
ändert	-8301
ässern	-8302
äufers	-8303
▁affen	-8304
▁apart	-8305
▁badem	-8306
▁badet	-8307
▁behan	-8308
▁beruf	-8309
▁bewer	-8310
▁biegt	-8311
▁blase	-8312
▁bunge	-8313
▁capri	-8314
▁clubs	-8315
▁deere	-8316
▁dicke	-8317
▁drauf	-8318
▁edlen	-8319
▁eiern	-8320
▁empor	-8321
▁enkel	-8322
▁ersch	-8323
▁erste	-8324
▁fleck	-8325
▁folkl	-8326
▁frank	-8327
▁gebil	-8328
▁gehäu	-8329
▁gewür	-8330
▁green	-8331
▁größe	-8332
▁guten	-8333
▁gähnt	-8334
▁gänse	-8335
▁hatte	-8336
▁henna	-8337
▁husky	-8338
▁höhle	-8339
▁hölle	-8340
▁idyll	-8341
▁ignor	-8342
▁imbis	-8343
▁kalte	-8344
▁kälte	-8345
▁kühen	-8346
▁lande	-8347
▁liebe	-8348
▁lötet	-8349
▁match	-8350
▁mault	-8351
▁meter	-8352
▁minir	-8353
▁misch	-8354
▁mundh	-8355
▁neigt	-8356
▁neues	-8357
▁nähen	-8358
▁patro	-8359
▁pfahl	-8360
▁piers	-8361
▁pokal	-8362
▁press	-8363
▁prunk	-8364
▁raums	-8365
▁reist	-8366
▁roben	-8367
▁rolle	-8368
▁rudel	-8369
▁sakko	-8370
▁saris	-8371
▁saust	-8372
▁scheu	-8373
▁schön	-8374
▁seile	-8375
▁spüle	-8376
▁stopp	-8377
▁stürm	-8378
▁sumor	-8379
▁sägen	-8380
▁teamm	-8381
▁teile	-8382
▁toter	-8383
▁trans	-8384
▁unruh	-8385
▁verkl	-8386
▁versp	-8387
▁wirbt	-8388
▁wisch	-8389
▁zweig	-8390
▁zwill	-8391
▁zwölf	-8392
▁zügen	-8393
▁ärzte	-8394
▁überr	-8395
ational	-8396
aufgang	-8397
auslage	-8398
bahnhof	-8399
billard	-8400
blöcken	-8401
chenaid	-8402
denkmal	-8403
drücken	-8404
einkauf	-8405
erunner	-8406
fahrers	-8407
fielder	-8408
fliegen	-8409
fzettel	-8410
gericht	-8411
getränk	-8412
gleiter	-8413
häusern	-8414
irlpool	-8415
klusive	-8416
kämpfer	-8417
mittell	-8418
ordnung	-8419
overall	-8420
packten	-8421
packtes	-8422
scheint	-8423
schlägt	-8424
schüler	-8425
semarkt	-8426
stadion	-8427
stapler	-8428
stasiat	-8429
staunen	-8430
steller	-8431
taschen	-8432
technik	-8433
trommel	-8434
zession	-8435
älligen	-8436
änzerin	-8437
ünstler	-8438
üsslich	-8439
▁abendd	-8440
▁alltag	-8441
▁ananas	-8442
▁angler	-8443
▁anlage	-8444
▁anzüge	-8445
▁applau	-8446
▁aschen	-8447
▁aufgew	-8448
▁auszur	-8449
▁backen	-8450
▁banane	-8451
▁barren	-8452
▁batter	-8453
▁beleib	-8454
▁bellen	-8455
▁bieten	-8456
▁blusen	-8457
▁boston	-8458
▁buffet	-8459
▁butter	-8460
▁bärten	-8461
▁bügelt	-8462
▁daraus	-8463
▁deckel	-8464
▁dingen	-8465
▁divers	-8466
▁doktor	-8467
▁duscht	-8468
▁dünner	-8469
▁engels	-8470
▁erhebt	-8471
▁erkund	-8472
▁ersten	-8473
▁essstä	-8474
▁falsch	-8475
▁feldes	-8476
▁flanke	-8477
▁flügel	-8478
▁frustr	-8479
▁funken	-8480
▁fällen	-8481
▁galopp	-8482
▁gebäck	-8483
▁geheim	-8484
▁geneig	-8485
▁getupf	-8486
▁gewinn	-8487
▁gewäch	-8488
▁gläser	-8489
▁gottes	-8490
▁grinst	-8491
▁grüßen	-8492
▁happen	-8493
▁haupts	-8494
▁heimat	-8495
▁herauf	-8496
▁holzko	-8497
▁jetski	-8498
▁kahlen	-8499
▁kanone	-8500
▁kargen	-8501
▁kauern	-8502
▁keller	-8503
▁kiefer	-8504
▁kirsch	-8505
▁konkur	-8506
▁kostet	-8507
▁kronen	-8508
▁kühlbo	-8509
▁landen	-8510
▁langer	-8511
▁lenker	-8512
▁letzte	-8513
▁linien	-8514
▁matten	-8515
▁messen	-8516
▁modern	-8517
▁nacken	-8518
▁nahöst	-8519
▁nasses	-8520
▁nonnen	-8521
▁nähern	-8522
▁offene	-8523
▁ordnet	-8524
▁paddel	-8525
▁pflügt	-8526
▁pickup	-8527
▁pinien	-8528
▁podest	-8529
▁prüfen	-8530
▁rasier	-8531
▁raster	-8532
▁ruhige	-8533
▁rängen	-8534
▁räumen	-8535
▁schere	-8536
▁schmer	-8537
▁school	-8538
▁schott	-8539
▁schwan	-8540
▁snacks	-8541
▁sodass	-8542
▁sollen	-8543
▁sowohl	-8544
▁spagat	-8545
▁speedo	-8546
▁spiele	-8547
▁spruch	-8548
▁steins	-8549
▁stimmt	-8550
▁strauß	-8551
▁symbol	-8552
▁talent	-8553
▁tassen	-8554
▁tollen	-8555
▁töpfen	-8556
▁unicef	-8557
▁untert	-8558
▁vierer	-8559
▁wagens	-8560
▁waldes	-8561
▁welche	-8562
▁wenige	-8563
▁wörter	-8564
▁yamaha	-8565
▁zahlen	-8566
▁zweier	-8567
aissance	-8568
artikeln	-8569
baseball	-8570
brettern	-8571
eografie	-8572
fahrener	-8573
farbenes	-8574
geschirr	-8575
goldenen	-8576
handlung	-8577
handwerk	-8578
ierungen	-8579
jungfrau	-8580
kreuzung	-8581
laufbahn	-8582
leinwand	-8583
ogitarre	-8584
personen	-8585
pistolen	-8586
schwarze	-8587
sgebäude	-8588
sportler	-8589
stehende	-8590
torhüter	-8591
treklame	-8592
zufinden	-8593
ähnliche	-8594
▁abschle	-8595
▁abwärts	-8596
▁america	-8597
▁anblick	-8598
▁ansetzt	-8599
▁antiken	-8600
▁anzeige	-8601
▁baumges	-8602
▁befreit	-8603
▁bereits	-8604
▁blöcken	-8605
▁brünett	-8606
▁bärtige	-8607
▁cockpit	-8608
▁concert	-8609
▁country	-8610
▁cricket	-8611
▁drähten	-8612
▁dunking	-8613
▁dunkles	-8614
▁durchge	-8615
▁ehemann	-8616
▁eigenen	-8617
▁einsame	-8618
▁eiscrem	-8619
▁enthält	-8620
▁erklärt	-8621
▁festzug	-8622
▁fitness	-8623
▁flecken	-8624
▁flieder	-8625
▁französ	-8626
▁gefilmt	-8627
▁gehören	-8628
▁geküsst	-8629
▁gesäumt	-8630
▁glatzen	-8631
▁gleiten	-8632
▁gummist	-8633
▁hispano	-8634
▁holztür	-8635
▁kimonos	-8636
▁knappen	-8637
▁knochen	-8638
▁kranich	-8639
▁kriecht	-8640
▁krücken	-8641
▁kurzärm	-8642
▁kämpfer	-8643
▁langsam	-8644
▁lasters	-8645
▁leitern	-8646
▁lokalen	-8647
▁melonen	-8648
▁merkwür	-8649
▁metzger	-8650
▁mobilen	-8651
▁musikal	-8652
▁ordnung	-8653
▁packung	-8654
▁pendler	-8655
▁posaune	-8656
▁prüfung	-8657
▁reitern	-8658
▁schafen	-8659
▁schalen	-8660
▁schiene	-8661
▁schleif	-8662
▁schrank	-8663
▁schwung	-8664
▁schönes	-8665
▁seetang	-8666
▁sesseln	-8667
▁skyline	-8668
▁sombrer	-8669
▁sooners	-8670
▁spanien	-8671
▁sporter	-8672
▁stachel	-8673
▁stapelt	-8674
▁statuen	-8675
▁tauchen	-8676
▁tisches	-8677
▁unschar	-8678
▁verrück	-8679
▁verschw	-8680
▁verwahr	-8681
▁verzerr	-8682
▁vorhand	-8683
▁vorhang	-8684
▁wachsen	-8685
▁weggeht	-8686
▁welcome	-8687
▁wischen	-8688
▁wäschel	-8689
▁zentrum	-8690
▁ziegeln	-8691
▁zuläuft	-8692
arbeitung	-8693
eidebrett	-8694
gemachten	-8695
geschenke	-8696
geschoben	-8697
ikanische	-8698
kommenden	-8699
krempigen	-8700
orchester	-8701
produkten	-8702
radfahrer	-8703
schbecken	-8704
schneidet	-8705
stöckigen	-8706
tensilien	-8707
unterteil	-8708
wanderung	-8709
wanderweg	-8710
▁albernen	-8711
▁aufdruck	-8712
▁aufgaben	-8713
▁ausblick	-8714
▁ausdruck	-8715
▁behinder	-8716
▁belebter	-8717
▁bergigen	-8718
▁besitzer	-8719
▁blättert	-8720
▁dirigent	-8721
▁dirtbike	-8722
▁einsames	-8723
▁entladen	-8724
▁frühling	-8725
▁gebunden	-8726
▁gedanken	-8727
▁geduldig	-8728
▁gemalten	-8729
▁glitzern	-8730
▁goldener	-8731
▁hartholz	-8732
▁heiraten	-8733
▁hemdchen	-8734
▁juwelier	-8735
▁kaputten	-8736
▁kleinbus	-8737
▁knabbert	-8738
▁knietief	-8739
▁kopfball	-8740
▁kristall	-8741
▁krokodil	-8742
▁laufende	-8743
▁liebkost	-8744
▁lockigem	-8745
▁lustigen	-8746
▁maulesel	-8747
▁münzfern	-8748
▁notebook	-8749
▁oberhalb	-8750
▁objekten	-8751
▁oklahoma	-8752
▁parallel	-8753
▁pfirsich	-8754
▁programm	-8755
▁riesiger	-8756
▁rückhand	-8757
▁schaffen	-8758
▁scheitel	-8759
▁schickes	-8760
▁schippen	-8761
▁schlanke	-8762
▁schließt	-8763
▁schneewe	-8764
▁schulbus	-8765
▁schwerer	-8766
▁schärpen	-8767
▁schüttet	-8768
▁sichtbar	-8769
▁skimütze	-8770
▁skipiste	-8771
▁spielend	-8772
▁spinnrad	-8773
▁strandes	-8774
▁streiten	-8775
▁strähnen	-8776
▁stäbchen	-8777
▁tanzende	-8778
▁trocknen	-8779
▁ungefähr	-8780
▁verkaufs	-8781
▁vorliest	-8782
▁vorstadt	-8783
▁vorwärts	-8784
▁winzigen	-8785
▁wolkigen	-8786
▁zerklein	-8787
▁überdach	-8788
▁übergibt	-8789
absperrung	-8790
kundgebung	-8791
lichkeiten	-8792
strichenen	-8793
▁abgewandt	-8794
▁aktivität	-8795
▁angelehnt	-8796
▁angezeigt	-8797
▁anweisung	-8798
▁apartment	-8799
▁aufnahmen	-8800
▁augenbrau	-8801
▁befördert	-8802
▁besuchten	-8803
▁bewachsen	-8804
▁bleistift	-8805
▁broschüre	-8806
▁chirurgen	-8807
▁deutschen	-8808
▁einteiler	-8809
▁erwischen	-8810
▁esszimmer	-8811
▁fahrbaren	-8812
▁fliegende	-8813
▁flohmarkt	-8814
▁fotograph	-8815
▁fundament	-8816
▁führenden	-8817
▁gebückter	-8818
▁gefällten	-8819
▁gefärbten	-8820
▁geländern	-8821
▁gesichert	-8822
▁gestapelt	-8823
▁getackelt	-8824
▁gewaschen	-8825
▁großküche	-8826
▁halbkreis	-8827
▁harmonika	-8828
▁hellroten	-8829
▁herstellt	-8830
▁holzpfahl	-8831
▁holzrampe	-8832
▁hundeshow	-8833
▁indischen	-8834
▁inklusive	-8835
▁innerhalb	-8836
▁jeansrock	-8837
▁kariertes	-8838
▁kellnerin	-8839
▁kniehohen	-8840
▁krawatten	-8841
▁langärmel	-8842
▁limonaden	-8843
▁notizbuch	-8844
▁oberteile	-8845
▁ohrhörern	-8846
▁paintball	-8847
▁passagier	-8848
▁planschen	-8849
▁pressluft	-8850
▁rasierten	-8851
▁religiöse	-8852
▁reparatur	-8853
▁schlangen	-8854
▁schlanker	-8855
▁schleifen	-8856
▁schließen	-8857
▁schnauzer	-8858
▁schneider	-8859
▁schnitzen	-8860
▁schweißer	-8861
▁schwester	-8862
▁seltsames	-8863
▁sonnenhut	-8864
▁spiderman	-8865
▁spongebob	-8866
▁starbucks	-8867
▁stehendes	-8868
▁steinwand	-8869
▁strohhalm	-8870
▁teammitgl	-8871
▁trockenem	-8872
▁trockenes	-8873
▁unruhigem	-8874
▁verbringt	-8875
▁verdienen	-8876
▁violettes	-8877
▁volksfest	-8878
▁wanderung	-8879
▁werkzeuge	-8880
▁windjacke	-8881
▁wohnmobil	-8882
▁wohnwagen	-8883
▁zerrissen	-8884
ausstattung	-8885
beleuchtung	-8886
einrichtung	-8887
gestreiftem	-8888
räsentation	-8889
schulkinder	-8890
▁abzuwehren	-8891
▁abzuwerfen	-8892
▁angelruten	-8893
▁aufzuheben	-8894
▁ausführung	-8895
▁badesachen	-8896
▁bahngleise	-8897
▁bauprojekt	-8898
▁baustellen	-8899
▁berggipfel	-8900
▁besprechen	-8901
▁besprühten	-8902
▁bewegungen	-8903
▁blumenfeld	-8904
▁blumentopf	-8905
▁brautkleid	-8906
▁diskutiert	-8907
▁einkäufern	-8908
▁elektriker	-8909
▁elektronik	-8910
▁frustriert	-8911
▁fröhlicher	-8912
▁frühstücks	-8913
▁förmlicher	-8914
▁gefliesten	-8915
▁gefrorenen	-8916
▁genüsslich	-8917
▁gepflegten	-8918
▁geschichte	-8919
▁geschirrsp	-8920
▁handgelenk	-8921
▁hinterteil	-8922
▁ineinander	-8923
▁innenseite	-8924
▁khakihosen	-8925
▁kitchenaid	-8926
▁künstlerin	-8927
▁laubbläser	-8928
▁laubhaufen	-8929
▁luftsprung	-8930
▁maiskolben	-8931
▁marineblau	-8932
▁meeresufer	-8933
▁meerwasser	-8934
▁müllbeutel	-8935
▁neongrünen	-8936
▁obdachlose	-8937
▁outfielder	-8938
▁pelzmantel	-8939
▁rallyeauto	-8940
▁rugbyspiel	-8941
▁rustikalen	-8942
▁schlummert	-8943
▁schläfchen	-8944
▁schmettern	-8945
▁schwangere	-8946
▁segelboote	-8947
▁sportlerin	-8948
▁sportliche	-8949
▁sportplatz	-8950
▁sportspiel	-8951
▁sprühfarbe	-8952
▁staubwolke	-8953
▁tropischer	-8954
▁umeinander	-8955
▁unfertigen	-8956
▁university	-8957
▁unterseite	-8958
▁verhindern	-8959
▁verkleiden	-8960
▁verspritzt	-8961
▁verstecken	-8962
▁verstärker	-8963
▁washington	-8964
▁werbetafel	-8965
▁wäschekorb	-8966
▁zubereiten	-8967
fußballspiel	-8968
spielerinnen	-8969
▁absolventen	-8970
▁angelschnur	-8971
▁angerichtet	-8972
▁angestellte	-8973
▁angezogenes	-8974
▁aufzunehmen	-8975
▁ausgefallen	-8976
▁auszuführen	-8977
▁bassgitarre	-8978
▁baufälligen	-8979
▁befestigten	-8980
▁blumenkleid	-8981
▁eingegraben	-8982
▁eisskulptur	-8983
▁essstäbchen	-8984
▁feuerleiter	-8985
▁fingernägel	-8986
▁fischerboot	-8987
▁flanellhemd	-8988
▁fotographen	-8989
▁gehörschutz	-8990
▁gelbbraunen	-8991
▁gemüsemarkt	-8992
▁gespreizten	-8993
▁gestalteten	-8994
▁glasgebäude	-8995
▁glücklicher	-8996
▁hafenbecken	-8997
▁haltestelle	-8998
▁hausmeister	-8999
▁herausragen	-9000
▁idyllischen	-9001
▁knallgelben	-9002
▁kunstmuseum	-9003
▁küchentheke	-9004
▁küchentisch	-9005
▁langarmhemd	-9006
▁liegestütze	-9007
▁lilafarbene	-9008
▁offiziellen	-9009
▁poolbillard	-9010
▁radfahrerin	-9011
▁renaissance	-9012
▁reparaturen	-9013
▁schildkröte	-9014
▁schmutziger	-9015
▁schneeengel	-9016
▁schneehügel	-9017
▁schuhputzer	-9018
▁sommerkleid	-9019
▁steinstufen	-9020
▁strafzettel	-9021
▁strickjacke	-9022
▁städtischer	-9023
▁tintenfisch	-9024
▁töpferwaren	-9025
▁umgedrehten	-9026
▁universität	-9027
▁unterbricht	-9028
▁wasserkante	-9029
▁wäscheleine	-9030
▁öffentliche	-9031
▁überwiegend	-9032
amerikanische	-9033
schwimmbecken	-9034
▁akrobatische	-9035
▁altmodischer	-9036
▁ausländische	-9037
▁beschnüffelt	-9038
▁bierflaschen	-9039
▁demonstriert	-9040
▁doppeldecker	-9041
▁dorfbewohner	-9042
▁dunkelgrünen	-9043
▁fahrradtrick	-9044
▁felsenklippe	-9045
▁footballteam	-9046
▁fußballplatz	-9047
▁gabelstapler	-9048
▁gegenspieler	-9049
▁hausaufgaben	-9050
▁hellhäutigen	-9051
▁indianischer	-9052
▁meerjungfrau	-9053
▁mittelgroßen	-9054
▁motorradhelm	-9055
▁motorrollern	-9056
▁männergruppe	-9057
▁nacheinander	-9058
▁notenständer	-9059
▁prachtvollen	-9060
▁regenschirme	-9061
▁schwimmhilfe	-9062
▁sonnenschein	-9063
▁stadtviertel	-9064
▁steingebäude	-9065
▁straßenmusik	-9066
▁tennisbällen	-9067
▁vorbereitung	-9068
▁zweiteiligen	-9069
fußballspieler	-9070
▁absatzschuhen	-9071
▁afrikanisches	-9072
▁ausländischen	-9073
▁baumgesäumten	-9074
▁blumenmädchen	-9075
▁cremefarbenen	-9076
▁dunkelbrauner	-9077
▁felsformation	-9078
▁freiluftmarkt	-9079
▁gerätschaften	-9080
▁gesichtsmaske	-9081
▁glatzenansatz	-9082
▁hauptsächlich	-9083
▁hinunterfährt	-9084
▁holzplattform	-9085
▁kreisförmigen	-9086
▁laubbedeckten	-9087
▁mundharmonika	-9088
▁protestschild	-9089
▁rettungsweste	-9090
▁schneidebrett	-9091
▁schuhgeschäft	-9092
▁skiausrüstung	-9093
▁sportereignis	-9094
▁taucherbrille	-9095
▁telefonmasten	-9096
▁töpferscheibe	-9097
▁umhängetasche	-9098
▁unbefestigtem	-9099
▁unterstützung	-9100
▁verschiedener	-9101
▁wasserfontäne	-9102
▁wintermänteln	-9103
▁abenddämmerung	-9104
▁badebekleidung	-9105
▁baseballkappen	-9106
▁baseballspiels	-9107
▁baseballwerfer	-9108
▁basketballwurf	-9109
▁breitkrempigen	-9110
▁elektrogitarre	-9111
▁feuerwehrwagen	-9112
▁grasbewachsene	-9113
▁hockeyschläger	-9114
▁kricketspieler	-9115
▁militäruniform	-9116
▁orientalischen	-9117
▁schokoladeneis	-9118
▁sonnenschirmen	-9119
▁spielzeugpferd	-9120
▁tenniskleidung	-9121
▁untergrundbahn	-9122
▁verkehrsmittel	-9123
▁vorbeigehenden	-9124
▁wasserschlauch	-9125
▁bandmitgliedern	-9126
▁basketballplatz	-9127
▁fahrradgeschäft	-9128
▁grasbewachsenes	-9129
▁kleidungsstücke	-9130
▁leopardenmuster	-9131
▁rückenschwimmen	-9132
▁schwarzhaariger	-9133
▁straßenarbeiten	-9134
▁treppengeländer	-9135
ac	-9136
bö	-9137
cr	-9138
cs	-9139
dd	-9140
dh	-9141
hi	-9142
hs	-9143
lö	-9144
mu	-9145
nu	-9146
ta	-9147
zä	-9148
aat	-9149
agt	-9150
ame	-9151
anh	-9152
ars	-9153
bec	-9154
bow	-9155
cur	-9156
ean	-9157
els	-9158
emm	-9159
equ	-9160
erg	-9161
ese	-9162
fad	-9163
fil	-9164
fin	-9165
fot	-9166
gle	-9167
ics	-9168
iki	-9169
imp	-9170
ire	-9171
its	-9172
jen	-9173
krü	-9174
lay	-9175
lem	-9176
ley	-9177
lkw	-9178
mas	-9179
mäß	-9180
mög	-9181
off	-9182
ora	-9183
pse	-9184
ras	-9185
rie	-9186
sys	-9187
tal	-9188
ubs	-9189
ugs	-9190
war	-9191
zap	-9192
ßel	-9193
ähe	-9194
äol	-9195
ült	-9196
▁ga	-9197
▁ny	-9198
▁pi	-9199
eph	-9200
ieg	-9201
lig	-9202
vag	-9203
▁tw	-9204
▁vw	-9205
aber	-9206
abri	-9207
achi	-9208
achs	-9209
adet	-9210
afon	-9211
afte	-9212
agle	-9213
ails	-9214
akul	-9215
ales	-9216
amat	-9217
amik	-9218
annt	-9219
anta	-9220
aoke	-9221
baus	-9222
bend	-9223
bies	-9224
bren	-9225
bsen	-9226
bugg	-9227
bull	-9228
bärt	-9229
doch	-9230
eits	-9231
endr	-9232
eras	-9233
errt	-9234
fang	-9235
fans	-9236
ffee	-9237
fran	-9238
frei	-9239
frig	-9240
fter	-9241
fuhr	-9242
hleg	-9243
hoot	-9244
hüll	-9245
iede	-9246
iend	-9247
igan	-9248
inal	-9249
inar	-9250
ison	-9251
itat	-9252
itty	-9253
itän	-9254
ivan	-9255
kade	-9256
kers	-9257
kett	-9258
kise	-9259
klöt	-9260
kons	-9261
lehr	-9262
lump	-9263
matr	-9264
mess	-9265
mähl	-9266
nack	-9267
nehm	-9268
ocke	-9269
omie	-9270
orak	-9271
orgi	-9272
orld	-9273
otte	-9274
plan	-9275
plos	-9276
pose	-9277
quet	-9278
rauf	-9279
rist	-9280
shel	-9281
shut	-9282
sort	-9283
stoß	-9284
stüm	-9285
sung	-9286
tanz	-9287
tete	-9288
tief	-9289
topf	-9290
tour	-9291
trab	-9292
trem	-9293
tron	-9294
uche	-9295
ucks	-9296
uill	-9297
unte	-9298
urai	-9299
pin	-9300
▁ds	-9301
nase	-9302
viol	-9303
wagg	-9304
weck	-9305
wein	-9306
wood	-9307
würd	-9308
zack	-9309
zahn	-9310
zend	-9311
zept	-9312
zine	-9313
zwei	-9314
ägen	-9315
ähte	-9316
änze	-9317
ärmt	-9318
äuel	-9319
ürzt	-9320
▁anw	-9321
▁ass	-9322
▁aut	-9323
▁big	-9324
▁bit	-9325
▁bmw	-9326
▁bod	-9327
▁cad	-9328
▁cen	-9329
▁cir	-9330
▁cre	-9331
▁cup	-9332
▁cur	-9333
▁dal	-9334
▁det	-9335
▁dia	-9336
▁eck	-9337
▁erl	-9338
▁fer	-9339
▁gig	-9340
▁hum	-9341
▁hür	-9342
▁jag	-9343
▁jim	-9344
▁joe	-9345
▁ken	-9346
▁kid	-9347
▁kol	-9348
▁lam	-9349
▁las	-9350
▁lou	-9351
▁mad	-9352
▁moh	-9353
▁nin	-9354
▁pen	-9355
▁pok	-9356
▁pur	-9357
▁reh	-9358
▁rep	-9359
▁ret	-9360
▁ron	-9361
▁sco	-9362
▁tat	-9363
▁trö	-9364
▁tät	-9365
▁unk	-9366
▁wii	-9367
▁win	-9368
▁wok	-9369
▁zel	-9370
agenz	-9371
agner	-9372
agten	-9373
ahmte	-9374
album	-9375
amter	-9376
andem	-9377
annel	-9378
anzer	-9379
anzig	-9380
aphon	-9381
arren	-9382
arten	-9383
artet	-9384
ashow	-9385
asten	-9386
aster	-9387
astro	-9388
atown	-9389
atzen	-9390
aucht	-9391
banen	-9392
bauen	-9393
becue	-9394
beine	-9395
bruch	-9396
buggy	-9397
bäume	-9398
chelt	-9399
chtem	-9400
chung	-9401
dlern	-9402
dosen	-9403
drink	-9404
ekton	-9405
elett	-9406
endem	-9407
erren	-9408
estät	-9409
euzen	-9410
feder	-9411
ffeln	-9412
flöte	-9413
fotos	-9414
fälle	-9415
gelbe	-9416
gitar	-9417
gräbt	-9418
hmten	-9419
iachi	-9420
icket	-9421
iforn	-9422
igeun	-9423
ility	-9424
illas	-9425
iness	-9426
irkus	-9427
kanal	-9428
knöpf	-9429
kraft	-9430
käfig	-9431
lager	-9432
lesen	-9433
malen	-9434
mikro	-9435
misch	-9436
mmten	-9437
motor	-9438
nbahn	-9439
obern	-9440
ometr	-9441
orist	-9442
osaik	-9443
party	-9444
point	-9445
ppten	-9446
probe	-9447
range	-9448
rasen	-9449
reihe	-9450
rohre	-9451
rolle	-9452
schee	-9453
seits	-9454
seurs	-9455
skate	-9456
splay	-9457
sraum	-9458
stahl	-9459
stanz	-9460
stren	-9461
stäbe	-9462
städt	-9463
stüte	-9464
telte	-9465
teria	-9466
trägt	-9467
ulpen	-9468
utton	-9469
video	-9470
vogel	-9471
wasch	-9472
wechs	-9473
wegen	-9474
welle	-9475
zeugt	-9476
zieht	-9477
zlich	-9478
zügen	-9479
ählen	-9480
äldes	-9481
örder	-9482
üsten	-9483
▁antw	-9484
▁auft	-9485
▁bern	-9486
▁bess	-9487
▁best	-9488
▁bock	-9489
▁boje	-9490
▁brat	-9491
▁camc	-9492
▁cany	-9493
▁cool	-9494
▁cycl	-9495
▁doll	-9496
▁dort	-9497
▁down	-9498
▁dutz	-9499
▁east	-9500
▁eide	-9501
▁eien	-9502
▁entw	-9503
▁entz	-9504
▁erfr	-9505
▁erhe	-9506
▁erör	-9507
▁fach	-9508
▁fant	-9509
▁farn	-9510
▁ford	-9511
▁föhn	-9512
▁gast	-9513
▁gere	-9514
▁gern	-9515
▁grob	-9516
▁grus	-9517
▁größ	-9518
▁gyro	-9519
▁habe	-9520
▁hack	-9521
▁hahn	-9522
▁heft	-9523
▁heil	-9524
▁hero	-9525
▁hipp	-9526
▁holl	-9527
▁hung	-9528
▁iden	-9529
▁inne	-9530
▁jazz	-9531
▁jump	-9532
▁keep	-9533
▁kich	-9534
▁kill	-9535
▁komb	-9536
▁korn	-9537
▁kurs	-9538
▁late	-9539
▁leer	-9540
▁lenk	-9541
▁life	-9542
▁limo	-9543
▁lind	-9544
▁line	-9545
▁lugt	-9546
▁lupe	-9547
▁läng	-9548
▁läss	-9549
▁lümm	-9550
▁mart	-9551
▁maus	-9552
▁menü	-9553
▁mets	-9554
▁minn	-9555
▁moll	-9556
▁moos	-9557
▁muff	-9558
▁mult	-9559
▁nahr	-9560
▁ohio	-9561
▁prit	-9562
▁priv	-9563
▁proj	-9564
▁puma	-9565
▁quer	-9566
▁raft	-9567
▁rass	-9568
▁rich	-9569
▁riss	-9570
▁ritu	-9571
▁russ	-9572
▁satz	-9573
▁schi	-9574
▁seht	-9575
▁side	-9576
▁solo	-9577
▁stau	-9578
▁strü	-9579
▁styl	-9580
▁takt	-9581
▁trag	-9582
▁ukul	-9583
▁verg	-9584
▁viet	-9585
▁vorm	-9586
▁vors	-9587
▁wade	-9588
▁walk	-9589
▁wall	-9590
▁ware	-9591
▁weht	-9592
▁well	-9593
▁wimp	-9594
▁wohl	-9595
▁wälz	-9596
▁zehn	-9597
▁zent	-9598
▁zopf	-9599
aillen	-9600
aining	-9601
altete	-9602
ammelt	-9603
artige	-9604
ascara	-9605
astell	-9606
asthan	-9607
ations	-9608
bagger	-9609
bahnen	-9610
ballen	-9611
benden	-9612
bereit	-9613
bleger	-9614
boskop	-9615
bänder	-9616
bänken	-9617
bücher	-9618
decken	-9619
dienst	-9620
drängt	-9621
drückt	-9622
eckten	-9623
estern	-9624
fliegt	-9625
flügel	-9626
fächer	-9627
fäller	-9628
füllte	-9629
gelbes	-9630
graues	-9631
größer	-9632
hallen	-9633
heiten	-9634
helfer	-9635
hilfen	-9636
hinter	-9637
hleten	-9638
hoskop	-9639
hunden	-9640
häuser	-9641
hüllte	-9642
indung	-9643
inzess	-9644
irbelt	-9645
itäter	-9646
kabine	-9647
kettet	-9648
klaren	-9649
kontro	-9650
lassen	-9651
leuten	-9652
locken	-9653
menden	-9654
mengen	-9655
messer	-9656
ontier	-9657
parade	-9658
pfanne	-9659
podest	-9660
putzen	-9661
rechte	-9662
reifer	-9663
reihen	-9664
reisen	-9665
räumen	-9666
schaum	-9667
schlen	-9668
schnee	-9669
schuhl	-9670
sfeier	-9671
shosen	-9672
skraft	-9673
sladen	-9674
spange	-9675
spitze	-9676
spunkt	-9677
sspiel	-9678
stheke	-9679
stunde	-9680
stätte	-9681
system	-9682
talkie	-9683
travag	-9684
trennt	-9685
tricks	-9686
uckter	-9687
uddelt	-9688
umente	-9689
vieren	-9690
villon	-9691
weiser	-9692
wänden	-9693
yropor	-9694
zapfen	-9695
zäunte	-9696
ümchen	-9697
üstern	-9698
üttert	-9699
▁ahorn	-9700
▁allen	-9701
▁amish	-9702
▁anges	-9703
▁angst	-9704
▁anspr	-9705
▁arten	-9706
▁bemal	-9707
▁beweg	-9708
▁bewir	-9709
▁blass	-9710
▁broad	-9711
▁bucht	-9712
▁buddh	-9713
▁buden	-9714
▁champ	-9715
▁chevr	-9716
▁coney	-9717
▁cross	-9718
▁dampf	-9719
▁darum	-9720
▁daste	-9721
▁dehnt	-9722
▁drein	-9723
▁duckt	-9724
▁eigen	-9725
▁eilen	-9726
▁einst	-9727
▁ellen	-9728
▁energ	-9729
▁entle	-9730
▁erfor	-9731
▁ernte	-9732
▁eseln	-9733
▁fegen	-9734
▁felds	-9735
▁filmp	-9736
▁first	-9737
▁fleiß	-9738
▁frack	-9739
▁fähre	-9740
▁föhnt	-9741
▁ganze	-9742
▁gebet	-9743
▁gebrä	-9744
▁geeig	-9745
▁geweb	-9746
▁gleit	-9747
▁grand	-9748
▁grube	-9749
▁grüßt	-9750
▁halte	-9751
▁harkt	-9752
▁hecke	-9753
▁herde	-9754
▁herzt	-9755
▁hinge	-9756
▁holli	-9757
▁hätte	-9758
▁jacks	-9759
▁kapuz	-9760
▁kekse	-9761
▁kelle	-9762
▁kinds	-9763
▁kliff	-9764
▁kondo	-9765
▁krone	-9766
▁kräft	-9767
▁käfer	-9768
▁lachs	-9769
▁lader	-9770
▁läden	-9771
▁lösch	-9772
▁marke	-9773
▁meine	-9774
▁motiv	-9775
▁nonne	-9776
▁nudel	-9777
▁ollie	-9778
▁orgel	-9779
▁pedal	-9780
▁pirat	-9781
▁posen	-9782
▁prakt	-9783
▁probe	-9784
▁puder	-9785
▁pulli	-9786
▁reibt	-9787
▁reißt	-9788
▁rockt	-9789
▁rohre	-9790
▁rückt	-9791
▁sagen	-9792
▁salon	-9793
▁sanft	-9794
▁sauna	-9795
▁schäb	-9796
▁shopp	-9797
▁short	-9798
▁sofas	-9799
▁sonnt	-9800
▁south	-9801
▁spekt	-9802
▁sprün	-9803
▁stepp	-9804
▁sträu	-9805
▁stütz	-9806
▁söhne	-9807
▁tabak	-9808
▁tiefe	-9809
▁toast	-9810
▁torte	-9811
▁tutus	-9812
▁umsch	-9813
▁vegas	-9814
▁volle	-9815
▁waage	-9816
▁wache	-9817
▁weise	-9818
▁weite	-9819
▁wicht	-9820
▁wühlt	-9821
▁wüten	-9822
▁zebra	-9823
▁zerle	-9824
▁zweck	-9825
▁ängst	-9826
▁ästen	-9827
ackenen	-9828
andeten	-9829
anlagen	-9830
apparat	-9831
bauwerk	-9832
bechern	-9833
bestand	-9834
braunes	-9835
brenner	-9836
bringen	-9837
endruck	-9838
flocken	-9839
friseur	-9840
gebilde	-9841
gelegen	-9842
gellack	-9843
gelände	-9844
gesetzt	-9845
gesicht	-9846
hooting	-9847
ienhaus	-9848
iergang	-9849
ikanten	-9850
intendo	-9851
issenen	-9852
ituosen	-9853
kameras	-9854
kleider	-9855
klötzen	-9856
kollege	-9857
kulisse	-9858
körpern	-9859
leitung	-9860
lichter	-9861
läufern	-9862
marktes	-9863
matiner	-9864
mähltes	-9865
oldaten	-9866
ontiere	-9867
outfits	-9868
perücke	-9869
pflanze	-9870
pfleger	-9871
plosion	-9872
ppwagen	-9873
rafting	-9874
rennens	-9875
rischen	-9876
schloss	-9877
shelfer	-9878
spitzen	-9879
splatte	-9880
stangen	-9881
student	-9882
teppich	-9883
trabass	-9884
triever	-9885
ungslos	-9886
utschen	-9887
utzende	-9888
äckchen	-9889
▁abgele	-9890
▁albert	-9891
▁angels	-9892
▁anhält	-9893
▁anlass	-9894
▁anorak	-9895
▁antiqu	-9896
▁apothe	-9897
▁arcade	-9898
▁archit	-9899
▁arkade	-9900
▁arrang	-9901
▁astron	-9902
▁aufwir	-9903
▁barbie	-9904
▁barett	-9905
▁baucht	-9906
▁beagle	-9907
▁beider	-9908
▁bergab	-9909
▁berlin	-9910
▁beschl	-9911
▁beugen	-9912
▁bildet	-9913
▁bittet	-9914
▁bleckt	-9915
▁bloßen	-9916
▁blüten	-9917
▁bohrer	-9918
▁brennt	-9919
▁bungee	-9920
▁button	-9921
▁coucht	-9922
▁danach	-9923
▁defens	-9924
▁denken	-9925
▁donuts	-9926
▁dramat	-9927
▁drinks	-9928
▁drängt	-9929
▁dusche	-9930
▁eingeb	-9931
▁ernten	-9932
▁erstau	-9933
▁festge	-9934
▁feuers	-9935
▁filmen	-9936
▁finden	-9937
▁flache	-9938
▁flugbe	-9939
▁formal	-9940
▁formen	-9941
▁frosch	-9942
▁frucht	-9943
▁fässer	-9944
▁fäuste	-9945
▁gedenk	-9946
▁gefert	-9947
▁geform	-9948
▁geholt	-9949
▁geisha	-9950
▁gigant	-9951
▁glasur	-9952
▁guitar	-9953
▁halstü	-9954
▁helfer	-9955
▁hellem	-9956
▁hühner	-9957
▁hürden	-9958
▁hütten	-9959
▁island	-9960
▁jahren	-9961
▁jalous	-9962
▁jedoch	-9963
▁jongle	-9964
▁kaltes	-9965
▁kamele	-9966
▁kassen	-9967
▁khakis	-9968
▁kimono	-9969
▁klarem	-9970
▁kniend	-9971
▁knurrt	-9972
▁korean	-9973
▁korken	-9974
▁krabbe	-9975
▁kugeln	-9976
▁lakers	-9977
▁latten	-9978
▁lauter	-9979
▁leitpl	-9980
▁lesend	-9981
▁lotter	-9982
▁löcher	-9983
▁mauern	-9984
▁maurer	-9985
▁medien	-9986
▁mickey	-9987
▁mobile	-9988
▁mosaik	-9989
▁mönche	-9990
▁müssen	-9991
▁mütter	-9992
▁nahost	-9993
▁netzen	-9994
▁pfauen	-9995
▁pferds	-9996
▁poncho	-9997
▁prahlt	-9998
▁proben	-9999
▁pulver	-10000
▁purpur	-10001
▁puzzle	-10002
▁qualmt	-10003
▁radweg	-10004
▁rastet	-10005
▁rechen	-10006
▁redend	-10007
▁reiher	-10008
▁ritter	-10009
▁röhren	-10010
▁schräg	-10011
▁segeln	-10012
▁skaten	-10013
▁skates	-10014
▁skysur	-10015
▁spuren	-10016
▁spülen	-10017
▁steaks	-10018
▁stemmt	-10019
▁stoffe	-10020
▁stramm	-10021
▁streut	-10022
▁stutzt	-10023
▁summer	-10024
▁säcken	-10025
▁tambur	-10026
▁tandem	-10027
▁testen	-10028
▁tiefes	-10029
▁toyota	-10030
▁truppe	-10031
▁trübes	-10032
▁tulpen	-10033
▁tunika	-10034
▁umgibt	-10035
▁unüber	-10036
▁verbeu	-10037
▁verdre	-10038
▁verreg	-10039
▁vieler	-10040
▁volley	-10041
▁vorher	-10042
▁walkie	-10043
▁warmer	-10044
▁weicht	-10045
▁weiten	-10046
▁weizen	-10047
▁wochen	-10048
▁wollen	-10049
▁worauf	-10050
▁wählen	-10051
▁wärmen	-10052
▁zerren	-10053
▁zielen	-10054
▁zigeun	-10055
▁zirkus	-10056
▁zombie	-10057
▁zweige	-10058
▁zwickt	-10059
▁ändert	-10060
▁äpfeln	-10061
akulären	-10062
anhänger	-10063
aufdruck	-10064
besucher	-10065
betriebs	-10066
bärtiger	-10067
ettboden	-10068
farbenem	-10069
farbiger	-10070
fransten	-10071
fußboden	-10072
förmiges	-10073
gebracht	-10074
gehenden	-10075
hlegrill	-10076
häuschen	-10077
hörnchen	-10078
knöpften	-10079
liegende	-10080
marathon	-10081
parcours	-10082
reiniger	-10083
rädrigen	-10084
safarben	-10085
scheiben	-10086
schnallt	-10087
sstation	-10088
stlingen	-10089
strecken	-10090
strümpfe	-10091
ständigt	-10092
terrasse	-10093
trockner	-10094
ungsraum	-10095
ächtigen	-10096
▁abfluss	-10097
▁abfälle	-10098
▁abseits	-10099
▁agility	-10100
▁apparat	-10101
▁archäol	-10102
▁aufgewü	-10103
▁ausland	-10104
▁balance	-10105
▁baseman	-10106
▁bassist	-10107
▁basteln	-10108
▁beamten	-10109
▁bemalte	-10110
▁bergauf	-10111
▁besteck	-10112
▁bestimm	-10113
▁betreut	-10114
▁bootsan	-10115
▁breites	-10116
▁breitet	-10117
▁british	-10118
▁bummeln	-10119
▁bustier	-10120
▁bändern	-10121
▁campern	-10122
▁designs	-10123
▁diashow	-10124
▁drummer	-10125
▁dutzend	-10126
▁einfach	-10127
▁einhänd	-10128
▁eiskrem	-10129
▁enkelin	-10130
▁fahrers	-10131
▁fechter	-10132
▁filmset	-10133
▁flachem	-10134
▁galerie	-10135
▁gastron	-10136
▁gebirge	-10137
▁gebückt	-10138
▁gefährt	-10139
▁gekauft	-10140
▁geometr	-10141
▁gesenkt	-10142
▁gespons	-10143
▁getraut	-10144
▁gewandt	-10145
▁gewehre	-10146
▁gewinnt	-10147
▁glätten	-10148
▁glättet	-10149
▁grindet	-10150
▁headset	-10151
▁hintere	-10152
▁hintern	-10153
▁holzsch	-10154
▁holzver	-10155
▁hämmert	-10156
▁hörnern	-10157
▁inderin	-10158
▁kabinen	-10159
▁karaoke	-10160
▁keramik	-10161
▁kiesweg	-10162
▁kitesur	-10163
▁kleinem	-10164
▁klippen	-10165
▁kneipen	-10166
▁konkurr	-10167
▁laterne	-10168
▁lebhaft	-10169
▁leisten	-10170
▁lenkrad	-10171
▁leotard	-10172
▁machete	-10173
▁magazin	-10174
▁mascara	-10175
▁megafon	-10176
▁minivan	-10177
▁modisch	-10178
▁monster	-10179
▁moschee	-10180
▁muschel	-10181
▁mustang	-10182
▁mündern	-10183
▁notfall	-10184
▁ohrring	-10185
▁oranges	-10186
▁organis	-10187
▁parkweg	-10188
▁passant	-10189
▁pastell	-10190
▁pelikan	-10191
▁platzes	-10192
▁problem	-10193
▁propang	-10194
▁quadrat	-10195
▁reagenz	-10196
▁rentier	-10197
▁rettung	-10198
▁rollerb	-10199
▁rosarot	-10200
▁rüschen	-10201
▁rüstung	-10202
▁samurai	-10203
▁sandale	-10204
▁scharfe	-10205
▁scheren	-10206
▁schickt	-10207
▁schluck	-10208
▁schneer	-10209
▁schreib	-10210
▁schrott	-10211
▁schwamm	-10212
▁schwarm	-10213
▁schöpft	-10214
▁seesack	-10215
▁serviet	-10216
▁skelett	-10217
▁spenden	-10218
▁sprungs	-10219
▁stapeln	-10220
▁stoppen	-10221
▁ständen	-10222
▁säubern	-10223
▁tackeln	-10224
▁tattoos	-10225
▁tauscht	-10226
▁torwart	-10227
▁tragend	-10228
▁trägers	-10229
▁twister	-10230
▁ukulele	-10231
▁unkraut	-10232
▁urbanen	-10233
▁urlaubs	-10234
▁veranst	-10235
▁vervoll	-10236
▁verwirr	-10237
▁viertel	-10238
▁vietnam	-10239
▁vordere	-10240
▁wickelt	-10241
▁wirbeln	-10242
▁wäldern	-10243
▁zerlump	-10244
▁zombies	-10245
▁zweigen	-10246
▁öffnung	-10247
abteilung	-10248
badeanzug	-10249
bahnsteig	-10250
ianischer	-10251
karierten	-10252
karussell	-10253
leitungen	-10254
passenden	-10255
schlüssel	-10256
seursalon	-10257
skünstler	-10258
spolizist	-10259
spritzern	-10260
techniker	-10261
ungskraft	-10262
örderband	-10263
▁abgelegt	-10264
▁abschlag	-10265
▁absätzen	-10266
▁anbietet	-10267
▁angemalt	-10268
▁angriffs	-10269
▁angucken	-10270
▁anziehen	-10271
▁athleten	-10272
▁aufnimmt	-10273
▁aufregen	-10274
▁ausführt	-10275
▁ausstell	-10276
▁auswirft	-10277
▁barriere	-10278
▁bedeckte	-10279
▁bedruckt	-10280
▁bergpfad	-10281
▁beritten	-10282
▁beruhigt	-10283
▁beschrei	-10284
▁besetzte	-10285
▁betreibt	-10286
▁bewachen	-10287
▁bewertet	-10288
▁brettern	-10289
▁business	-10290
▁bärtigen	-10291
▁bücherei	-10292
▁chefkoch	-10293
▁dasselbe	-10294
▁designer	-10295
▁deutlich	-10296
▁dokument	-10297
▁dragster	-10298
▁drängeln	-10299
▁dutzende	-10300
▁eisstand	-10301
▁eistüten	-10302
▁elasthan	-10303
▁entdeckt	-10304
▁erhebung	-10305
▁erkunden	-10306
▁erkundet	-10307
▁esswaren	-10308
▁fahrgast	-10309
▁farbiger	-10310
▁farblich	-10311
▁feinkost	-10312
▁fensters	-10313
▁frisches	-10314
▁gasmaske	-10315
▁gebauten	-10316
▁geblockt	-10317
▁gedruckt	-10318
▁gehenden	-10319
▁gehendes	-10320
▁gelandet	-10321
▁gelassen	-10322
▁geparkte	-10323
▁gerüsten	-10324
▁gesicher	-10325
▁gestellt	-10326
▁gestürzt	-10327
▁getaucht	-10328
▁gewunden	-10329
▁gewänder	-10330
▁gleicher	-10331
▁größerer	-10332
▁haarnetz	-10333
▁halbnack	-10334
▁handvoll	-10335
▁handwerk	-10336
▁hunderte	-10337
▁hübscher	-10338
▁hübsches	-10339
▁internet	-10340
▁jonglier	-10341
▁karneval	-10342
▁karussel	-10343
▁kaugummi	-10344
▁klammert	-10345
▁kuscheln	-10346
▁lauschen	-10347
▁luftmatr	-10348
▁majestät	-10349
▁mariachi	-10350
▁markisen	-10351
▁maultier	-10352
▁megaphon	-10353
▁mehrerer	-10354
▁miniatur	-10355
▁mischung	-10356
▁muscheln	-10357
▁national	-10358
▁nintendo	-10359
▁objektiv	-10360
▁ostasiat	-10361
▁personal	-10362
▁perücken	-10363
▁pflücken	-10364
▁prinzess	-10365
▁reporter	-10366
▁riesiges	-10367
▁scheiben	-10368
▁schicken	-10369
▁schiffes	-10370
▁schubsen	-10371
▁schweine	-10372
▁schwerem	-10373
▁schwitzt	-10374
▁seichtes	-10375
▁skijacke	-10376
▁smokings	-10377
▁sombrero	-10378
▁sprintet	-10379
▁stadions	-10380
▁steigung	-10381
▁stoffhut	-10382
▁stricken	-10383
▁styropor	-10384
▁stämmige	-10385
▁substanz	-10386
▁tabletts	-10387
▁tanktops	-10388
▁tarnhose	-10389
▁tastatur	-10390
▁telefonz	-10391
▁teppiche	-10392
▁toilette	-10393
▁unechten	-10394
▁unterird	-10395
▁verläuft	-10396
▁versenkt	-10397
▁versetzt	-10398
▁vielfält	-10399
▁vielzahl	-10400
▁vierbein	-10401
▁vorbeizu	-10402
▁waldhorn	-10403
▁wanderin	-10404
▁weinglas	-10405
▁weiteres	-10406
▁zauberer	-10407
▁zeitungs	-10408
brechenden	-10409
chtreklame	-10410
erstellung	-10411
gelassenen	-10412
geschlagen	-10413
gestellten	-10414
größerungs	-10415
handschuhe	-10416
rasenmäher	-10417
utensilien	-10418
verschluss	-10419
vorführung	-10420
▁abenteuer	-10421
▁angeleint	-10422
▁anleitung	-10423
▁aufgebaut	-10424
▁aufgehäng	-10425
▁aufgemalt	-10426
▁aufhalten	-10427
▁aufkleber	-10428
▁aufnehmen	-10429
▁auftreten	-10430
▁ausgelegt	-10431
▁außenwand	-10432
▁backwaren	-10433
▁baseballs	-10434
▁behandelt	-10435
▁beleibter	-10436
▁besteigen	-10437
▁bewölktem	-10438
▁bildhauer	-10439
▁blickfeld	-10440
▁blutdruck	-10441
▁brustkorb	-10442
▁cafeteria	-10443
▁camcorder	-10444
▁chinatown	-10445
▁darstellt	-10446
▁dokumente	-10447
▁drahtseil	-10448
▁drahtzaun	-10449
▁dreckigen	-10450
▁dreiräder	-10451
▁einzelhan	-10452
▁eisläufer	-10453
▁eiswagens	-10454
▁errichten	-10455
▁errichtet	-10456
▁erscheint	-10457
▁fahrgäste	-10458
▁fallenden	-10459
▁festumzug	-10460
▁formellen	-10461
▁fremdländ	-10462
▁frischgeb	-10463
▁gedeckten	-10464
▁geduckter	-10465
▁gefrorene	-10466
▁gefüttert	-10467
▁geheimnis	-10468
▁getupften	-10469
▁gezogenen	-10470
▁gleichauf	-10471
▁haarsalon	-10472
▁handgerät	-10473
▁handgriff	-10474
▁herbsttag	-10475
▁hinterrad	-10476
▁hochdruck	-10477
▁hochstart	-10478
▁hollister	-10479
▁hölzernes	-10480
▁hügeligen	-10481
▁identisch	-10482
▁ignoriert	-10483
▁indisches	-10484
▁informell	-10485
▁karnevals	-10486
▁kleinerer	-10487
▁komischen	-10488
▁korbleger	-10489
▁korbstuhl	-10490
▁künstlern	-10491
▁laderampe	-10492
▁landebahn	-10493
▁laufender	-10494
▁liegender	-10495
▁meditiert	-10496
▁modischen	-10497
▁nagellack	-10498
▁offiziere	-10499
▁operieren	-10500
▁patientin	-10501
▁patrouill	-10502
▁produkten	-10503
▁quadraten	-10504
▁rennautos	-10505
▁rennhunde	-10506
▁renoviert	-10507
▁retriever	-10508
▁rotweißen	-10509
▁rundherum	-10510
▁rötlichen	-10511
▁sanddünen	-10512
▁sandplatz	-10513
▁sattelzug	-10514
▁schindeln	-10515
▁schlepper	-10516
▁schlägern	-10517
▁schlüssel	-10518
▁schmerzen	-10519
▁schnürsen	-10520
▁schreitet	-10521
▁schulband	-10522
▁schützend	-10523
▁seltsamer	-10524
▁senkrecht	-10525
▁silbernes	-10526
▁skiläufer	-10527
▁softdrink	-10528
▁sonnentag	-10529
▁spanische	-10530
▁spitzbart	-10531
▁sporthose	-10532
▁sprinkler	-10533
▁stadtbild	-10534
▁strümpfen	-10535
▁sturzhelm	-10536
▁stückchen	-10537
▁säuglings	-10538
▁tanzenden	-10539
▁teppichen	-10540
▁tonstudio	-10541
▁totenkopf	-10542
▁traurigen	-10543
▁trauriges	-10544
▁trompeter	-10545
▁täglichen	-10546
▁tätowiert	-10547
▁umgedreht	-10548
▁verborgen	-10549
▁verletzte	-10550
▁verstreut	-10551
▁vorderrad	-10552
▁vorführen	-10553
▁vorschlag	-10554
▁wanderern	-10555
▁wandtafel	-10556
▁wartenden	-10557
▁wasserspr	-10558
▁wasserstr	-10559
▁wasserweg	-10560
▁werdender	-10561
▁whirlpool	-10562
▁würstchen	-10563
▁zeltplatz	-10564
▁zugabteil	-10565
▁ähnlicher	-10566
▁örtlicher	-10567
▁übergeben	-10568
▁übernimmt	-10569
▁übersäten	-10570
angehöriger	-10571
betriebenen	-10572
erstehenden	-10573
fahrtschiff	-10574
hallenboden	-10575
hintergrund	-10576
mittelladen	-10577
quarterback	-10578
radfahrzeug	-10579
schuhlaufen	-10580
spaziergang	-10581
unterwäsche	-10582
zeichnungen	-10583
▁abzufangen	-10584
▁abzunehmen	-10585
▁actionfoto	-10586
▁angebunden	-10587
▁angekettet	-10588
▁angemalten	-10589
▁angeschaut	-10590
▁arabischer	-10591
▁arbeitstag	-10592
▁aschenbahn	-10593
▁aufgehängt	-10594
▁ausstreckt	-10595
▁auszuruhen	-10596
▁autofahrer	-10597
▁baserunner	-10598
▁baumgruppe	-10599
▁beschmiert	-10600
▁bespritzen	-10601
▁bestellung	-10602
▁bezeichnet	-10603
▁blaugrünem	-10604
▁brechenden	-10605
▁broschüren	-10606
▁butterbrot	-10607
▁champagner	-10608
▁couchtisch	-10609
▁dalmatiner	-10610
▁darsteller	-10611
▁eierkuchen	-10612
▁ellenbogen	-10613
▁entfernten	-10614
▁erfahrener	-10615
▁erklettert	-10616
▁fahrgästen	-10617
▁fechtkampf	-10618
▁festlichen	-10619
▁flughafens	-10620
▁frankreich	-10621
▁förmlichen	-10622
▁galoppiert	-10623
▁gefließten	-10624
▁gekreuzten	-10625
▁geldbörsen	-10626
▁gemeinsame	-10627
▁gemusterte	-10628
▁geworfenen	-10629
▁großmutter	-10630
▁halbwilden	-10631
▁heimatland	-10632
▁heimwerker	-10633
▁hellblauem	-10634
▁hellblauer	-10635
▁herunterzu	-10636
▁hingesetzt	-10637
▁hinunterzu	-10638
▁holzfäller	-10639
▁hundeschau	-10640
▁kanadische	-10641
▁kartoffeln	-10642
▁kokosnüsse	-10643
▁kontrabass	-10644
▁kundschaft	-10645
▁kürbisfeld	-10646
▁leuchtende	-10647
▁lindgrünen	-10648
▁malerische	-10649
▁manövriert	-10650
▁matschigen	-10651
▁mechaniker	-10652
▁mikroskope	-10653
▁musikstück	-10654
▁müllhaufen	-10655
▁niedliches	-10656
▁oberhemden	-10657
▁obstkarren	-10658
▁paddelboot	-10659
▁papiertüte	-10660
▁pappkarton	-10661
▁powerpoint	-10662
▁prozession	-10663
▁religiösen	-10664
▁ringträger	-10665
▁rollkoffer	-10666
▁rollkragen	-10667
▁rotbraunen	-10668
▁sandwiches	-10669
▁schlachtet	-10670
▁schleudert	-10671
▁schläuchen	-10672
▁schneewehe	-10673
▁schriftzug	-10674
▁schwestern	-10675
▁schwimmern	-10676
▁sichtbaren	-10677
▁skistöcken	-10678
▁sonnenanbe	-10679
▁spielgerät	-10680
▁spielhalle	-10681
▁sprungwurf	-10682
▁stofftiere	-10683
▁stroboskop	-10684
▁sumoringer	-10685
▁tarnmuster	-10686
▁teddybären	-10687
▁transparen	-10688
▁trauzeugen	-10689
▁turnschuhe	-10690
▁töpferware	-10691
▁unterlagen	-10692
▁verletzten	-10693
▁vermähltes	-10694
▁verrichtet	-10695
▁verrückter	-10696
▁verteidigt	-10697
▁verwendung	-10698
▁verzerrtes	-10699
▁volkswagen	-10700
▁wassernähe	-10701
▁weiblicher	-10702
▁wildblumen	-10703
▁windsurfer	-10704
▁wohngegend	-10705
▁zahnspange	-10706
▁zusammenzu	-10707
▁ärmelloses	-10708
▁übergroßen	-10709
▁überreicht	-10710
▁überschlag	-10711
schaftlichen	-10712
ungsfahrzeug	-10713
▁afrikanerin	-10714
▁akustischen	-10715
▁altmodische	-10716
▁angegriffen	-10717
▁ankommenden	-10718
▁anschneiden	-10719
▁arbeitshand	-10720
▁astronauten	-10721
▁attackieren	-10722
▁ausgelassen	-10723
▁auszuziehen	-10724
▁außentreppe	-10725
▁außergewöhn	-10726
▁basketbälle	-10727
▁baumbestand	-10728
▁beleuchtete	-10729
▁bestehenden	-10730
▁biergläsern	-10731
▁blumendruck	-10732
▁briefkasten	-10733
▁bräunlichen	-10734
▁bürogebäude	-10735
▁cowboyhüten	-10736
▁eingerahmte	-10737
▁entscheiden	-10738
▁fallschirme	-10739
▁farbstiften	-10740
▁fensterbank	-10741
▁fußballnetz	-10742
▁gastronomie	-10743
▁gemeinsamen	-10744
▁gemüsestand	-10745
▁geschminkte	-10746
▁geschnitzte	-10747
▁geschwungen	-10748
▁gewächshaus	-10749
▁glücklichen	-10750
▁gruppenbild	-10751
▁gruppenfoto	-10752
▁handtüchern	-10753
▁herabhängen	-10754
▁heranrollen	-10755
▁hindernisse	-10756
▁hinterbeine	-10757
▁hochzuheben	-10758
▁holzgebäude	-10759
▁hunderennen	-10760
▁imbissstand	-10761
▁interagiert	-10762
▁jogginghose	-10763
▁kaffeetisch	-10764
▁kapuzenteil	-10765
▁kartoffelch	-10766
▁kaukasische	-10767
▁kirchenchor	-10768
▁klettergurt	-10769
▁kurzhaarige	-10770
▁küchenboden	-10771
▁küstenlinie	-10772
▁langärmigen	-10773
▁manövrieren	-10774
▁marktstraße	-10775
▁metallstück	-10776
▁mikrophonen	-10777
▁münztelefon	-10778
▁oberkörpern	-10779
▁polospieler	-10780
▁prunkvollen	-10781
▁radsportler	-10782
▁rampenlicht	-10783
▁rockkonzert	-10784
▁rollschuhen	-10785
▁rummelplatz	-10786
▁schildkappe	-10787
▁schmutzigem	-10788
▁schneeschuh	-10789
▁schnellboot	-10790
▁schutzweste	-10791
▁schwarzweiß	-10792
▁seilrutsche	-10793
▁sicherungss	-10794
▁sonnendurch	-10795
▁spirituosen	-10796
▁sprungtritt	-10797
▁stacheligen	-10798
▁stadtgebiet	-10799
▁stattfinden	-10800
▁sumpfgebiet	-10801
▁sweatshirts	-10802
▁tennisspiel	-10803
▁trägershirt	-10804
▁umgekippten	-10805
▁unbekannten	-10806
▁unternehmen	-10807
▁vollständig	-10808
▁voneinander	-10809
▁vornübergeb	-10810
▁vorübergeht	-10811
▁wasserfalls	-10812
▁werferhügel	-10813
▁wochenmarkt	-10814
▁wunderkerze	-10815
▁zahlreichen	-10816
▁zeichnungen	-10817
▁zeigefinger	-10818
▁ziegelstein	-10819
▁zusammenger	-10820
geschnittenen	-10821
verkaufsstand	-10822
▁abgestimmten	-10823
▁angeschnallt	-10824
▁arbeitsplatz	-10825
▁aufgesetzten	-10826
▁ausgestopfte	-10827
▁bahnarbeiter	-10828
▁bandkollegen	-10829
▁bauarbeitern	-10830
▁baumaschinen	-10831
▁bereitschaft	-10832
▁beschädigtes	-10833
▁bronzestatue	-10834
▁bürgerkriegs	-10835
▁bürgersteigs	-10836
▁cheerleaders	-10837
▁choreografie	-10838
▁durchschnitt	-10839
▁eingepacktes	-10840
▁entlangfährt	-10841
▁entschlossen	-10842
▁europäisches	-10843
▁fallschirmen	-10844
▁fotoshooting	-10845
▁friseursalon	-10846
▁gegnerischer	-10847
▁gepolsterten	-10848
▁geschminkter	-10849
▁gestrichenen	-10850
▁goldfarbener	-10851
▁golfschläger	-10852
▁gottesdienst	-10853
▁hochgehalten	-10854
▁hochgelegten	-10855
▁hochspringen	-10856
▁hochzeitstag	-10857
▁hängegleiter	-10858
▁jogginganzug	-10859
▁kahlköpfigen	-10860
▁kampfrichter	-10861
▁kapuzenjacke	-10862
▁kaukasischer	-10863
▁knieschonern	-10864
▁kochkleidung	-10865
▁kommuniziert	-10866
▁kontrolliert	-10867
▁krankenwagen	-10868
▁kurzhaariger	-10869
▁küchenarbeit	-10870
▁lilafarbenes	-10871
▁mechanischen	-10872
▁meeresstrand	-10873
▁mehrfarbigem	-10874
▁menschlichen	-10875
▁monstertruck	-10876
▁musikkapelle	-10877
▁nachdenklich	-10878
▁parkettboden	-10879
▁pferderücken	-10880
▁picknickbank	-10881
▁pinkfarbenes	-10882
▁plastikstuhl	-10883
▁plastiktüten	-10884
▁präsentieren	-10885
▁rennkleidung	-10886
▁schlammgrube	-10887
▁schottenrock	-10888
▁schutthaufen	-10889
▁schwimmanzug	-10890
▁schülerinnen	-10891
▁seitenstraße	-10892
▁senffarbenen	-10893
▁sonnenschild	-10894
▁spielzeugzug	-10895
▁spritzwasser	-10896
▁steindenkmal	-10897
▁stirnbändern	-10898
▁straßenlampe	-10899
▁straßenstand	-10900
▁teamkollegen	-10901
▁teammitglied	-10902
▁teppichboden	-10903
▁trikotnummer	-10904
▁ungewöhnlich	-10905
▁verheiratete	-10906
▁verschlungen	-10907
▁vogelschwarm	-10908
▁vortragssaal	-10909
▁wanderstöcke	-10910
▁wartebereich	-10911
▁wasserpfütze	-10912
▁werbeanzeige	-10913
▁winterjacken	-10914
▁wunderkerzen	-10915
▁ziegelstraße	-10916
▁öffentlicher	-10917
▁übereinander	-10918
▁überschlagen	-10919
amerikanischen	-10920
amerikanischer	-10921
basketballkorb	-10922
▁asphaltstraße	-10923
▁aufgestellten	-10924
▁ausgefransten	-10925
▁ausgestopften	-10926
▁baseballplatz	-10927
▁beigefarbener	-10928
▁beisammensein	-10929
▁braunhaarigen	-10930
▁drachenkostüm	-10931
▁durcheinander	-10932
▁eingangshalle	-10933
▁einzigartigen	-10934
▁entlangfahren	-10935
▁französischen	-10936
▁fußballspiels	-10937
▁gartenstühlen	-10938
▁geometrischen	-10939
▁gepäckstücken	-10940
▁gummistiefeln	-10941
▁herrenfriseur	-10942
▁interessantes	-10943
▁irgendwelchen	-10944
▁knieschützern	-10945
▁kniestrümpfen	-10946
▁kommunizieren	-10947
▁komplizierten	-10948
▁kontrollieren	-10949
▁kunsthandwerk	-10950
▁kurzärmeligen	-10951
▁laternenpfahl	-10952
▁lederkleidung	-10953
▁marschkapelle	-10954
▁medizinisches	-10955
▁meeresfrüchte	-10956
▁militärischer	-10957
▁motorisierten	-10958
▁mountainbikes	-10959
▁musikfestival	-10960
▁picknickdecke	-10961
▁planschbecken	-10962
▁polizeibeamte	-10963
▁regenstiefeln	-10964
▁schlammpfütze	-10965
▁schnappschuss	-10966
▁schutzbrillen	-10967
▁seilspielzeug	-10968
▁sicherheitsbe	-10969
▁sonnenaufgang	-10970
▁spektakulären	-10971
▁sportgeschäft	-10972
▁straßenschild	-10973
▁treppenhauses	-10974
▁unüberdachten	-10975
▁vergrößerungs	-10976
▁wasserpistole	-10977
▁wunderschönes	-10978
▁zementmischer	-10979
▁zusammenkunft	-10980
▁abschleppwagen	-10981
▁aufnahmestudio	-10982
▁aussichtspunkt	-10983
▁beeindruckende	-10984
▁berufskleidung	-10985
▁bowlingspieler	-10986
▁bühnenauftritt	-10987
▁cowboykleidung	-10988
▁cowboystiefeln	-10989
▁dunkelhaarigen	-10990
▁dunkelhäutiges	-10991
▁fabrikarbeiter	-10992
▁fechtwettkampf	-10993
▁fußballtrikots	-10994
▁gartenwerkzeug	-10995
▁gebäudeeingang	-10996
▁geschirrspüler	-10997
▁geschäftsanzug	-10998
▁gesichtsmasken	-10999
▁gesichtsschutz	-11000
▁gitarrespieler	-11001
▁handbewegungen	-11002
▁hellrosafarben	-11003
▁herauszufinden	-11004
▁hintereinander	-11005
▁holzkohlegrill	-11006
▁hundeschlitten	-11007
▁interessierten	-11008
▁irokesenfrisur	-11009
▁laufbekleidung	-11010
▁leichtathletik	-11011
▁meeresfrüchten	-11012
▁metallgeländer	-11013
▁metallschüssel	-11014
▁mittelstreifen	-11015
▁neoprenanzügen	-11016
▁plastikrutsche	-11017
▁plattenspieler	-11018
▁schlauchbooten	-11019
▁schlittenhunde	-11020
▁schreibtischen	-11021
▁schultertasche	-11022
▁schwimmbeckens	-11023
▁schwimmbrillen	-11024
▁softballspiels	-11025
▁spazierstöcken	-11026
▁spielautomaten	-11027
▁straßenlaterne	-11028
▁transportieren	-11029
▁transportwagen	-11030
▁wasserpistolen	-11031
▁weihnachtszeit	-11032
▁werkzeuggürtel	-11033
▁übergewichtige	-11034
▁abgeschnittenen	-11035
▁ausgeschnittene	-11036
▁bauarbeiterhelm	-11037
▁essensverkäufer	-11038
▁felsformationen	-11039
▁feuerwehrleuten	-11040
▁freiheitsstatue	-11041
▁freiluftkonzert	-11042
▁geländemaschine	-11043
▁gitarrenspieler	-11044
▁militärkleidung	-11045
▁picknicktischen	-11046
▁professioneller	-11047
▁reflektierender	-11048
▁restauranttisch	-11049
▁schneebedecktem	-11050
▁schwarzhaarigen	-11051
▁softballspieler	-11052
▁sportbekleidung	-11053
▁straßenkleidung	-11054
▁touristengruppe	-11055
▁transportmittel	-11056
▁verkehrsreichen	-11057
▁vervollständigt	-11058
▁vorschlaghammer	-11059
day	-11060
ece	-11061
gyp	-11062
häe	-11063
jub	-11064
kup	-11065
mca	-11066
ody	-11067
ood	-11068
aker	-11069
cake	-11070
crab	-11071
darb	-11072
edle	-11073
eget	-11074
film	-11075
five	-11076
folg	-11077
hday	-11078
hmte	-11079
höhe	-11080
höht	-11081
hölz	-11082
hört	-11083
ican	-11084
ießk	-11085
ipst	-11086
ique	-11087
irup	-11088
isco	-11089
krug	-11090
laib	-11091
liga	-11092
lker	-11093
maga	-11094
must	-11095
phab	-11096
pong	-11097
prob	-11098
prof	-11099
bre	-11100
ulk	-11101
vis	-11102
vul	-11103
chsk	-11104
fige	-11105
inky	-11106
punk	-11107
päck	-11108
quis	-11109
rael	-11110
rika	-11111
satz	-11112
sion	-11113
sker	-11114
ulen	-11115
umpe	-11116
ushi	-11117
wald	-11118
wirk	-11119
zial	-11120
züge	-11121
äfte	-11122
ämpf	-11123
ötze	-11124
üchs	-11125
▁adr	-11126
▁atl	-11127
▁did	-11128
▁djs	-11129
▁fäh	-11130
▁gäs	-11131
▁gön	-11132
▁hip	-11133
▁huf	-11134
▁hyd	-11135
▁häl	-11136
▁mma	-11137
▁mul	-11138
▁oce	-11139
▁ori	-11140
▁smo	-11141
▁you	-11142
adens	-11143
agere	-11144
ampoo	-11145
andid	-11146
anges	-11147
belag	-11148
blüte	-11149
bögen	-11150
cakes	-11151
coach	-11152
ctory	-11153
dance	-11154
diges	-11155
egway	-11156
eiser	-11157
elige	-11158
equin	-11159
eries	-11160
ertüm	-11161
esota	-11162
falle	-11163
ffern	-11164
fried	-11165
gabel	-11166
gemut	-11167
gewie	-11168
gleis	-11169
graue	-11170
gtuch	-11171
guckt	-11172
haben	-11173
halte	-11174
höhle	-11175
hörde	-11176
hüllt	-11177
iesel	-11178
ilian	-11179
imore	-11180
inium	-11181
ipper	-11182
irenn	-11183
isiko	-11184
itäns	-11185
katze	-11186
kiosk	-11187
kleck	-11188
komot	-11189
kranz	-11190
kshow	-11191
kstat	-11192
kteen	-11193
künst	-11194
lache	-11195
ltern	-11196
melle	-11197
metik	-11198
mouse	-11199
cus	-11200
hin	-11201
klü	-11202
sör	-11203
▁it	-11204
ahaw	-11205
ambo	-11206
besp	-11207
bock	-11208
esus	-11209
felt	-11210
ikas	-11211
lade	-11212
llis	-11213
usal	-11214
▁boa	-11215
▁boy	-11216
▁saf	-11217
▁wre	-11218
after	-11219
aftet	-11220
antel	-11221
ascht	-11222
ettes	-11223
ierig	-11224
mpany	-11225
namen	-11226
nelen	-11227
nässt	-11228
olymp	-11229
onial	-11230
oodle	-11231
panad	-11232
paste	-11233
ponat	-11234
pphut	-11235
press	-11236
quent	-11237
rasse	-11238
reizt	-11239
ringe	-11240
räfte	-11241
shänd	-11242
spieß	-11243
stöps	-11244
swürd	-11245
teile	-11246
uddel	-11247
udelt	-11248
umpen	-11249
ungsm	-11250
verse	-11251
veter	-11252
visor	-11253
wasak	-11254
wohin	-11255
ywood	-11256
zaust	-11257
ziert	-11258
ägten	-11259
ülern	-11260
▁abkü	-11261
▁anmu	-11262
▁benz	-11263
▁bout	-11264
▁brok	-11265
▁bröt	-11266
▁burr	-11267
▁calv	-11268
▁cray	-11269
▁crew	-11270
▁dead	-11271
▁deli	-11272
▁diab	-11273
▁dumm	-11274
▁eiff	-11275
▁emot	-11276
▁erre	-11277
▁espr	-11278
▁fair	-11279
▁fire	-11280
▁gedu	-11281
▁gegn	-11282
▁gepä	-11283
▁gips	-11284
▁guck	-11285
▁here	-11286
▁hulk	-11287
▁ipad	-11288
▁jagd	-11289
▁keks	-11290
▁klub	-11291
▁könn	-11292
▁liga	-11293
▁loko	-11294
▁louv	-11295
▁mike	-11296
▁mole	-11297
▁nerv	-11298
▁pens	-11299
ti	-11300
abl	-11301
abt	-11302
bab	-11303
gos	-11304
tab	-11305
uit	-11306
umr	-11307
▁..	-11308
able	-11309
bell	-11310
ehrf	-11311
etür	-11312
ingr	-11313
llet	-11314
suit	-11315
äule	-11316
öger	-11317
▁dol	-11318
▁lut	-11319
aming	-11320
hotel	-11321
nacht	-11322
ottel	-11323
ppent	-11324
▁ehrf	-11325
▁flor	-11326
▁hilf	-11327
▁mamm	-11328
▁pilz	-11329
▁plau	-11330
▁play	-11331
▁prin	-11332
▁präz	-11333
▁pulk	-11334
▁sinn	-11335
▁situ	-11336
▁slal	-11337
▁slow	-11338
▁slum	-11339
▁soda	-11340
▁spül	-11341
▁ster	-11342
▁swat	-11343
▁südo	-11344
▁trio	-11345
▁tuba	-11346
▁umri	-11347
▁vase	-11348
▁volk	-11349
▁wagg	-11350
▁watt	-11351
▁ymca	-11352
▁zerf	-11353
▁zufr	-11354
▁zune	-11355
▁ägyp	-11356
▁äste	-11357
addelt	-11358
ahawks	-11359
ahmten	-11360
altanz	-11361
amaran	-11362
ambour	-11363
ankees	-11364
atoren	-11365
aufkle	-11366
babies	-11367
banner	-11368
bauten	-11369
binden	-11370
blüten	-11371
bullen	-11372
collie	-11373
curity	-11374
digung	-11375
drehen	-11376
drucks	-11377
ellten	-11378
elturm	-11379
erusal	-11380
fabrik	-11381
farbig	-11382
feffer	-11383
fekten	-11384
findet	-11385
froren	-11386
fteten	-11387
fällig	-11388
ganges	-11389
garage	-11390
gebaut	-11391
gehend	-11392
gelbem	-11393
gepäck	-11394
goalie	-11395
grenze	-11396
grenzt	-11397
grillt	-11398
großer	-11399
ez	-11400
get	-11401
lam	-11402
lik	-11403
obe	-11404
täu	-11405
zur	-11406
ürr	-11407
chse	-11408
rüht	-11409
sans	-11410
ssch	-11411
äuch	-11412
▁cat	-11413
▁nik	-11414
owboy	-11415
▁birt	-11416
▁gebü	-11417
▁kühe	-11418
▁mürr	-11419
▁padd	-11420
▁zuer	-11421
cowboy	-11422
ebenen	-11423
eminar	-11424
gesteu	-11425
haltet	-11426
hantel	-11427
hepaar	-11428
holfen	-11429
iffern	-11430
imeter	-11431
ipment	-11432
ittert	-11433
itzelt	-11434
ivität	-11435
jekten	-11436
jenige	-11437
kinder	-11438
knäuel	-11439
kolleg	-11440
kollet	-11441
kronen	-11442
köpfen	-11443
kühler	-11444
ladung	-11445
lampen	-11446
lehrer	-11447
macher	-11448
makeup	-11449
mallow	-11450
marsch	-11451
mechan	-11452
metall	-11453
mpfers	-11454
netzes	-11455
obenen	-11456
ogerät	-11457
ollten	-11458
ologie	-11459
ottich	-11460
pfoten	-11461
phabet	-11462
pieler	-11463
player	-11464
poster	-11465
pulver	-11466
schung	-11467
seilen	-11468
shügel	-11469
skates	-11470
spause	-11471
spiele	-11472
spielt	-11473
spuren	-11474
stones	-11475
stürzt	-11476
sweise	-11477
telten	-11478
teraum	-11479
transp	-11480
unfall	-11481
urfing	-11482
utbaum	-11483
vertre	-11484
wasaki	-11485
wedeln	-11486
wender	-11487
wetter	-11488
wettes	-11489
willig	-11490
winkel	-11491
wirren	-11492
würfel	-11493
zelten	-11494
ziegel	-11495
zucker	-11496
zäunen	-11497
zünden	-11498
ächern	-11499
ci	-11500
vt	-11501
akl	-11502
ald	-11503
bee	-11504
bir	-11505
läu	-11506
ual	-11507
zut	-11508
öne	-11509
demo	-11510
hbir	-11511
klem	-11512
lear	-11513
läuf	-11514
port	-11515
urag	-11516
ways	-11517
ösen	-11518
▁fis	-11519
▁hol	-11520
▁mir	-11521
▁wee	-11522
entil	-11523
erika	-11524
iebte	-11525
illac	-11526
nungs	-11527
stiel	-11528
▁bean	-11529
▁beat	-11530
▁beil	-11531
▁oakl	-11532
▁oliv	-11533
▁rout	-11534
▁zier	-11535
angwei	-11536
dreher	-11537
schule	-11538
starrt	-11539
ängers	-11540
ängtes	-11541
üffeln	-11542
▁allee	-11543
▁atmet	-11544
▁audio	-11545
▁autor	-11546
▁backt	-11547
▁bagel	-11548
▁bande	-11549
▁bears	-11550
▁begrü	-11551
▁benöt	-11552
▁bergs	-11553
▁bezau	-11554
▁biers	-11555
▁bilds	-11556
▁blüte	-11557
▁bowlt	-11558
▁burka	-11559
▁bäuch	-11560
▁bögen	-11561
▁cabri	-11562
▁cargo	-11563
▁chefs	-11564
▁clear	-11565
▁corgi	-11566
▁court	-11567
▁crocs	-11568
▁dahin	-11569
▁darth	-11570
▁delph	-11571
▁dient	-11572
▁dober	-11573
▁dogge	-11574
▁duell	-11575
▁durag	-11576
▁dösen	-11577
▁elfen	-11578
▁erfri	-11579
▁faden	-11580
▁falke	-11581
▁fehlt	-11582
▁filet	-11583
▁flyer	-11584
▁force	-11585
▁foyer	-11586
▁franc	-11587
▁freue	-11588
▁fäden	-11589
▁gangs	-11590
▁geern	-11591
▁geist	-11592
▁gekrö	-11593
▁gelen	-11594
▁gesty	-11595
▁getön	-11596
▁gyros	-11597
▁haube	-11598
▁helik	-11599
eue	-11600
rib	-11601
yel	-11602
▁eu	-11603
cons	-11604
geri	-11605
izer	-11606
▁aer	-11607
▁bou	-11608
▁mem	-11609
▁rou	-11610
euten	-11611
ibbon	-11612
igtes	-11613
klebt	-11614
ktion	-11615
lakat	-11616
llier	-11617
▁boss	-11618
▁care	-11619
▁eyel	-11620
förmig	-11621
gerido	-11622
impert	-11623
ophone	-11624
ppchen	-11625
reiten	-11626
▁ermög	-11627
▁grass	-11628
▁grimm	-11629
▁hitze	-11630
▁hoops	-11631
▁houst	-11632
▁hunds	-11633
▁islam	-11634
▁jeden	-11635
▁jesus	-11636
▁johns	-11637
▁kanne	-11638
▁kauen	-11639
▁kiosk	-11640
▁kippt	-11641
▁klare	-11642
▁klebe	-11643
▁knapp	-11644
▁korbs	-11645
▁krieg	-11646
▁lagen	-11647
▁light	-11648
▁linse	-11649
▁lolli	-11650
▁mager	-11651
▁mahlz	-11652
▁matad	-11653
▁meist	-11654
▁memor	-11655
▁micha	-11656
▁model	-11657
▁mulch	-11658
▁natür	-11659
▁ninja	-11660
▁notre	-11661
▁olive	-11662
▁opfer	-11663
▁orche	-11664
▁oriol	-11665
▁panda	-11666
▁perle	-11667
▁piano	-11668
▁pierc	-11669
▁pools	-11670
▁portr	-11671
▁repor	-11672
▁ringe	-11673
▁räder	-11674
▁röcke	-11675
▁salut	-11676
▁sandb	-11677
▁saron	-11678
▁sauer	-11679
▁schro	-11680
▁sense	-11681
▁sesam	-11682
▁sogar	-11683
▁sorgt	-11684
▁spagh	-11685
▁spare	-11686
▁sperr	-11687
▁staat	-11688
▁streu	-11689
▁stäbe	-11690
▁sushi	-11691
▁süßer	-11692
▁taste	-11693
▁tollt	-11694
▁töpfe	-11695
▁ufern	-11696
▁unrat	-11697
▁veget	-11698
▁verab	-11699
agl	-11700
eys	-11701
oby	-11702
owa	-11703
que	-11704
red	-11705
sal	-11706
shr	-11707
zar	-11708
▁ok	-11709
▁ov	-11710
anna	-11711
beil	-11712
bund	-11713
egte	-11714
emde	-11715
▁gre	-11716
▁wat	-11717
▁zun	-11718
meter	-11719
pumpe	-11720
reift	-11721
utsch	-11722
venir	-11723
weite	-11724
änner	-11725
▁bann	-11726
▁boys	-11727
▁brut	-11728
▁cand	-11729
▁grey	-11730
▁iowa	-11731
▁king	-11732
▁kurv	-11733
▁penn	-11734
▁teur	-11735
erseys	-11736
smetik	-11737
weater	-11738
▁child	-11739
▁fülle	-11740
▁leich	-11741
▁männe	-11742
▁scher	-11743
▁stets	-11744
▁union	-11745
▁verqu	-11746
▁wehrt	-11747
▁welch	-11748
▁wells	-11749
▁wider	-11750
▁wälzt	-11751
▁zange	-11752
▁zuges	-11753
▁zöger	-11754
▁zügel	-11755
▁äpfel	-11756
▁üppig	-11757
abenden	-11758
abwärts	-11759
airways	-11760
allenge	-11761
amerika	-11762
ammkopf	-11763
ammlung	-11764
andidat	-11765
angebot	-11766
atteten	-11767
auerten	-11768
auftrag	-11769
ausgang	-11770
bildung	-11771
bkuchen	-11772
blicken	-11773
bsauger	-11774
chsköpf	-11775
cktails	-11776
country	-11777
darbiet	-11778
deothek	-11779
eckigen	-11780
eitigen	-11781
ementar	-11782
etching	-11783
fahrene	-11784
familie	-11785
fassade	-11786
ganlage	-11787
gehende	-11788
gelenkt	-11789
gemälde	-11790
gespann	-11791
gressiv	-11792
gungsbe	-11793
hnstuhl	-11794
hundert	-11795
idstern	-11796
iftrock	-11797
ikinger	-11798
ingersp	-11799
kö	-11800
li	-11801
na	-11802
aot	-11803
cen	-11804
geh	-11805
ruf	-11806
sho	-11807
öss	-11808
▁eg	-11809
▁fi	-11810
ames	-11811
berg	-11812
ellt	-11813
hilf	-11814
▁bin	-11815
▁hen	-11816
▁jur	-11817
▁nöt	-11818
▁set	-11819
beißt	-11820
dogge	-11821
kitty	-11822
köche	-11823
nförm	-11824
pulen	-11825
▁cher	-11826
▁jury	-11827
▁stor	-11828
amarin	-11829
bikini	-11830
genöss	-11831
helden	-11832
lasten	-11833
spring	-11834
▁chaot	-11835
▁heine	-11836
▁james	-11837
▁manns	-11838
▁oberl	-11839
▁rauen	-11840
▁story	-11841
inierte	-11842
itzerei	-11843
kitteln	-11844
kolonne	-11845
kräften	-11846
kutsche	-11847
ladenen	-11848
lagtuch	-11849
lastern	-11850
leudert	-11851
löchern	-11852
mension	-11853
musiker	-11854
mustern	-11855
mwedeln	-11856
nehmern	-11857
nerstag	-11858
oranger	-11859
oranges	-11860
organis	-11861
packung	-11862
panadas	-11863
portler	-11864
porträt	-11865
prallen	-11866
putztes	-11867
rechung	-11868
regalen	-11869
renkelt	-11870
sammelt	-11871
sansäss	-11872
schanze	-11873
schicht	-11874
schiebt	-11875
schiffs	-11876
schigen	-11877
schritt	-11878
schungs	-11879
schwemm	-11880
schürze	-11881
sooners	-11882
spapier	-11883
spenden	-11884
sperson	-11885
spiegel	-11886
sstunde	-11887
sstätte	-11888
stapeln	-11889
stattet	-11890
stocher	-11891
stunden	-11892
ständen	-11893
sängern	-11894
tablett	-11895
teilung	-11896
tellern	-11897
tenhund	-11898
tlichem	-11899
rr	-11900
sw	-11901
▁gü	-11902
▁ud	-11903
ackt	-11904
ahns	-11905
bohr	-11906
gold	-11907
hahn	-11908
iade	-11909
ingl	-11910
irgt	-11911
iter	-11912
unch	-11913
▁far	-11914
▁pun	-11915
▁roh	-11916
alien	-11917
green	-11918
ächen	-11919
▁döst	-11920
▁feil	-11921
▁mang	-11922
▁wahl	-11923
alters	-11924
deckel	-11925
elpfad	-11926
etztes	-11927
jubeln	-11928
▁abgew	-11929
▁alarm	-11930
▁amput	-11931
▁angen	-11932
▁bellt	-11933
▁gekrü	-11934
▁lunch	-11935
▁panor	-11936
▁vertr	-11937
▁wegge	-11938
flächen	-11939
igieren	-11940
trinken	-11941
uppiger	-11942
ursacht	-11943
verschm	-11944
vitrine	-11945
vorlage	-11946
waggons	-11947
wertern	-11948
zeption	-11949
ziegeln	-11950
ziellen	-11951
äfelten	-11952
ähnchen	-11953
▁abhebt	-11954
▁abwehr	-11955
▁afrika	-11956
▁alltäg	-11957
▁angene	-11958
▁araber	-11959
▁aufrei	-11960
▁ausger	-11961
▁ausgew	-11962
▁auslie	-11963
▁aussch	-11964
▁auszut	-11965
▁außenb	-11966
▁barrik	-11967
▁bauten	-11968
▁beeren	-11969
▁begren	-11970
▁beigem	-11971
▁benzin	-11972
▁besser	-11973
▁bewaff	-11974
▁bissen	-11975
▁bitten	-11976
▁blühen	-11977
▁boards	-11978
▁bodybu	-11979
▁bonbon	-11980
▁bongos	-11981
▁border	-11982
▁breite	-11983
▁brieft	-11984
▁bukett	-11985
▁burger	-11986
▁calvin	-11987
▁campen	-11988
▁camper	-11989
▁canyon	-11990
▁capris	-11991
▁center	-11992
▁chemie	-11993
▁circus	-11994
▁coffee	-11995
▁coolen	-11996
▁dehnen	-11997
▁dickem	-11998
▁drache	-11999
da	-12000
fc	-12001
ij	-12002
ded	-12003
fes	-12004
gur	-12005
iem	-12006
▁tu	-12007
dell	-12008
eins	-12009
elnd	-12010
emen	-12011
melt	-12012
mund	-12013
ores	-12014
räte	-12015
teig	-12016
utau	-12017
wick	-12018
york	-12019
ärbt	-12020
önen	-12021
▁can	-12022
▁gur	-12023
▁hij	-12024
▁inn	-12025
▁sei	-12026
▁ufc	-12027
astet	-12028
homas	-12029
katen	-12030
kuppe	-12031
messe	-12032
wägen	-12033
äulen	-12034
▁hunt	-12035
▁niem	-12036
▁zick	-12037
eidung	-12038
gurten	-12039
halter	-12040
leeren	-12041
ordnet	-12042
schlaf	-12043
örpern	-12044
▁eleph	-12045
▁karge	-12046
▁orten	-12047
▁reckt	-12048
▁stall	-12049
▁strei	-12050
▁weide	-12051
hindern	-12052
sperren	-12053
▁castro	-12054
▁drehen	-12055
▁dummes	-12056
▁dünnes	-12057
▁düster	-12058
▁ebenso	-12059
▁eifrig	-12060
▁einarm	-12061
▁einmal	-12062
▁ekstat	-12063
▁engine	-12064
▁entert	-12065
▁enttäu	-12066
▁erfolg	-12067
▁erntet	-12068
▁erregt	-12069
▁errich	-12070
▁erschö	-12071
▁falken	-12072
▁faltet	-12073
▁fantas	-12074
▁felder	-12075
▁felsab	-12076
▁ferkel	-12077
▁fetzen	-12078
▁feuern	-12079
▁fleece	-12080
▁flickt	-12081
▁flöten	-12082
▁flößen	-12083
▁freilu	-12084
▁fremde	-12085
▁frisör	-12086
▁frühen	-12087
▁furcht	-12088
▁führer	-12089
▁garden	-12090
▁gefähr	-12091
▁gehege	-12092
▁gehört	-12093
▁geigen	-12094
▁geräte	-12095
▁geräts	-12096
▁gewalt	-12097
▁gewebe	-12098
▁glocke	-12099
lä	-12100
müt	-12101
wan	-12102
▁my	-12103
▁pc	-12104
▁ph	-12105
▁ps	-12106
▁äu	-12107
ckte	-12108
fort	-12109
hend	-12110
otst	-12111
änke	-12112
▁abm	-12113
▁blö	-12114
▁dro	-12115
▁liv	-12116
▁mor	-12117
ancer	-12118
berry	-12119
field	-12120
icher	-12121
iegen	-12122
repar	-12123
schbo	-12124
szeit	-12125
teter	-12126
ängel	-12127
▁kipp	-12128
▁leht	-12129
▁lein	-12130
▁pont	-12131
▁putz	-12132
▁rade	-12133
ckchen	-12134
fänger	-12135
schbom	-12136
wellen	-12137
▁bikes	-12138
▁black	-12139
▁freie	-12140
▁großv	-12141
▁parka	-12142
▁schir	-12143
▁schon	-12144
▁spann	-12145
▁stimm	-12146
▁säcke	-12147
▁süßes	-12148
▁vader	-12149
förmige	-12150
ioniken	-12151
▁achten	-12152
▁dienst	-12153
▁goalie	-12154
▁greyho	-12155
▁grouch	-12156
▁grusel	-12157
▁halben	-12158
▁handmi	-12159
▁hantel	-12160
▁harlem	-12161
▁hecken	-12162
▁heißes	-12163
▁helles	-12164
▁hinwei	-12165
▁hippie	-12166
▁hopper	-12167
▁hundem	-12168
▁hydrau	-12169
▁hüften	-12170
▁hügeln	-12171
▁insekt	-12172
▁inspir	-12173
▁israel	-12174
▁kahlem	-12175
▁kaltem	-12176
▁kanada	-12177
▁kanals	-12178
▁kasino	-12179
▁kiesel	-12180
▁klötze	-12181
▁knipst	-12182
▁knöpfe	-12183
▁kombin	-12184
▁kombis	-12185
▁konser	-12186
▁krügen	-12187
▁kultiv	-12188
▁kuppel	-12189
▁kurbel	-12190
▁kurven	-12191
▁kurzes	-12192
▁könnte	-12193
▁lamett	-12194
▁landes	-12195
▁lanzen	-12196
▁leeres	-12197
▁lenken	-12198
▁lichts	-12199
bed	-12200
bew	-12201
bör	-12202
ekl	-12203
kil	-12204
kür	-12205
ugh	-12206
▁tü	-12207
ants	-12208
ende	-12209
fach	-12210
lach	-12211
ndin	-12212
ters	-12213
udel	-12214
wall	-12215
▁fes	-12216
▁gru	-12217
▁kle	-12218
▁nes	-12219
▁rev	-12220
▁vir	-12221
▁zul	-12222
▁zuw	-12223
berau	-12224
börse	-12225
chers	-12226
ichen	-12227
llers	-12228
mente	-12229
▁cost	-12230
▁fers	-12231
▁gren	-12232
▁skiz	-12233
▁soße	-12234
▁tümp	-12235
otisch	-12236
schten	-12237
▁berät	-12238
▁jacht	-12239
▁kopie	-12240
▁nutzt	-12241
▁space	-12242
▁vorzu	-12243
▁wolke	-12244
ankiert	-12245
spritzt	-12246
weifelt	-12247
▁beanie	-12248
▁dackel	-12249
▁delfin	-12250
▁dunekl	-12251
▁felsbl	-12252
▁fersen	-12253
▁festzu	-12254
▁grafik	-12255
▁hündin	-12256
▁lineal	-12257
▁linkes	-12258
▁linsen	-12259
▁louvre	-12260
▁makeup	-12261
▁mandel	-12262
▁militä	-12263
▁mongol	-12264
▁nassge	-12265
▁oliven	-12266
▁ordner	-12267
▁pakete	-12268
▁pedale	-12269
▁penske	-12270
▁pflege	-12271
▁planen	-12272
▁platzt	-12273
▁portra	-12274
▁presse	-12275
▁presst	-12276
▁primit	-12277
▁privat	-12278
▁profil	-12279
▁projiz	-12280
▁präpar	-12281
▁punkte	-12282
▁rasten	-12283
▁reinig	-12284
▁requis	-12285
▁ribbon	-12286
▁rinder	-12287
▁risiko	-12288
▁rocker	-12289
▁rodeln	-12290
▁rodelt	-12291
▁sarong	-12292
▁sausen	-12293
▁schaff	-12294
▁schalt	-12295
▁scheck	-12296
▁scherz	-12297
▁schock	-12298
▁schöpf	-12299
cy	-12300
ato	-12301
eer	-12302
not	-12303
aßen	-12304
urst	-12305
▁bag	-12306
▁vik	-12307
schie	-12308
zange	-12309
▁chan	-12310
▁dung	-12311
▁esst	-12312
▁hoop	-12313
▁jede	-12314
▁jähr	-12315
▁köst	-12316
▁sekt	-12317
▁zeug	-12318
bilder	-12319
ennten	-12320
presst	-12321
schuld	-12322
öchelt	-12323
▁armut	-12324
▁betag	-12325
▁fitte	-12326
▁fotol	-12327
▁sitze	-12328
▁suppe	-12329
▁tiers	-12330
▁vorsp	-12331
fischen	-12332
mmasten	-12333
straßen	-12334
uminium	-12335
▁detail	-12336
▁diabol	-12337
▁erkenn	-12338
▁freies	-12339
▁meißel	-12340
▁preise	-12341
▁rettet	-12342
▁schlür	-12343
▁schürt	-12344
▁scooby	-12345
▁segway	-12346
▁seiden	-12347
▁sendet	-12348
▁series	-12349
▁sieger	-12350
▁signal	-12351
▁sketch	-12352
▁slalom	-12353
▁sonder	-12354
▁sorgen	-12355
▁speist	-12356
▁sportr	-12357
▁später	-12358
▁statur	-12359
▁stewar	-12360
▁sticht	-12361
▁stiert	-12362
▁stillt	-12363
▁stoppt	-12364
▁streik	-12365
▁stromk	-12366
▁stände	-12367
▁stürmt	-12368
▁suppen	-12369
▁söhnen	-12370
▁tackle	-12371
▁taille	-12372
▁tasten	-12373
▁tatort	-12374
▁tausen	-12375
▁termin	-12376
▁testet	-12377
▁themen	-12378
▁thomas	-12379
▁ticket	-12380
▁trennt	-12381
▁trotzt	-12382
▁truthä	-12383
▁umfeld	-12384
▁umzugs	-12385
▁umzäun	-12386
▁ventil	-12387
▁verein	-12388
▁visier	-12389
▁volles	-12390
▁vollge	-12391
▁völker	-12392
▁waggon	-12393
▁wahrsa	-12394
▁weinen	-12395
▁wenden	-12396
▁windel	-12397
▁winkel	-12398
▁wischm	-12399
lap	-12400
ädt	-12401
hals	-12402
irlt	-12403
koli	-12404
nuss	-12405
opft	-12406
same	-12407
▁col	-12408
▁ell	-12409
ampel	-12410
igter	-12411
opfen	-12412
schul	-12413
shemd	-12414
stert	-12415
zeugr	-12416
ärmer	-12417
▁fügt	-12418
▁jean	-12419
▁kamp	-12420
▁orig	-12421
▁sehe	-12422
▁song	-12423
▁tort	-12424
füllen	-12425
laptop	-12426
▁bäckt	-12427
▁grell	-12428
▁guter	-12429
▁oster	-12430
▁paris	-12431
▁pfote	-12432
▁speit	-12433
▁thail	-12434
▁wirkt	-12435
▁würzt	-12436
antiert	-12437
bretter	-12438
hlenden	-12439
hockern	-12440
▁bänder	-12441
▁dachsh	-12442
▁enroll	-12443
▁falten	-12444
▁hügels	-12445
▁kühlen	-12446
▁streit	-12447
▁tresen	-12448
▁vieren	-12449
▁wiegen	-12450
▁wonder	-12451
▁worten	-12452
▁wälder	-12453
▁würfel	-12454
▁wütend	-12455
▁zeltet	-12456
▁zuerst	-12457
▁zuhält	-12458
▁zungen	-12459
▁ärztin	-12460
▁überdi	-12461
adsänger	-12462
altimore	-12463
ambiente	-12464
angweilt	-12465
aspieler	-12466
astelten	-12467
badehose	-12468
bereichs	-12469
delstahl	-12470
designer	-12471
dierende	-12472
ditorium	-12473
eidbrett	-12474
eiseraum	-12475
ementary	-12476
ershorts	-12477
erusalem	-12478
espieler	-12479
fernrohr	-12480
formator	-12481
früchten	-12482
fuhrwerk	-12483
gefahren	-12484
gemachte	-12485
gewiesen	-12486
gleitung	-12487
hauseweg	-12488
ichtigen	-12489
iedewerk	-12490
iercreme	-12491
ierenden	-12492
ießkanne	-12493
ifornien	-12494
ikations	-12495
ilbernen	-12496
ischuhen	-12497
isierung	-12498
itterten	-12499
aph	-12500
agei	-12501
blen	-12502
blon	-12503
bron	-12504
fack	-12505
flag	-12506
gebl	-12507
holt	-12508
ions	-12509
oker	-12510
▁flu	-12511
▁kil	-12512
▁mag	-12513
▁pre	-12514
istro	-12515
änzen	-12516
üssen	-12517
▁grem	-12518
▁reiß	-12519
▁tang	-12520
▁wack	-12521
dusche	-12522
erndes	-12523
latten	-12524
nissen	-12525
▁binde	-12526
▁heels	-12527
▁heiße	-12528
▁kniel	-12529
▁laken	-12530
▁nägel	-12531
▁reiht	-12532
▁wehen	-12533
blondem	-12534
flaggen	-12535
fülltes	-12536
konsole	-12537
▁besten	-12538
▁bistro	-12539
▁bohnen	-12540
▁casino	-12541
▁gekräu	-12542
▁herzus	-12543
▁lebron	-12544
▁lilane	-12545
▁needle	-12546
▁pusten	-12547
▁regeng	-12548
▁reißen	-12549
▁tümpel	-12550
▁vierte	-12551
itzender	-12552
itzmäher	-12553
kanister	-12554
klapptem	-12555
komotive	-12556
lichtern	-12557
personal	-12558
pflegter	-12559
polizist	-12560
produkte	-12561
programm	-12562
pulentes	-12563
riebenen	-12564
sandalen	-12565
sandwich	-12566
sbereich	-12567
schaufen	-12568
schenden	-12569
schießen	-12570
schilder	-12571
schleier	-12572
schreibt	-12573
schwelle	-12574
schwimmt	-12575
schützer	-12576
selligen	-12577
sesorten	-12578
skörpern	-12579
sportart	-12580
sprechen	-12581
spritzen	-12582
spurigen	-12583
stellten	-12584
stellter	-12585
steppich	-12586
stimmung	-12587
stöpseln	-12588
underung	-12589
ungssteg	-12590
ungsvoll	-12591
wohnheim	-12592
zeichnen	-12593
zusetzen	-12594
ächtiger	-12595
ängstigt	-12596
üchsiger	-12597
▁abwechs	-12598
▁angeles	-12599
ha	-12600
fle	-12601
orb	-12602
apft	-12603
dige	-12604
ingo	-12605
shop	-12606
sste	-12607
stes	-12608
verd	-12609
över	-12610
▁abz	-12611
▁keb	-12612
▁ter	-12613
▁unt	-12614
▁ziv	-12615
ahllo	-12616
ertag	-12617
opter	-12618
quert	-12619
schal	-12620
schef	-12621
▁alas	-12622
▁büch	-12623
▁dojo	-12624
▁pion	-12625
▁uner	-12626
▁vans	-12627
etztem	-12628
hügeln	-12629
iebene	-12630
segeln	-12631
undert	-12632
wolken	-12633
▁abger	-12634
▁algen	-12635
▁busse	-12636
▁bügel	-12637
▁düsen	-12638
▁immer	-12639
▁miene	-12640
▁puten	-12641
▁zapft	-12642
▁zivil	-12643
haltern	-12644
kletter	-12645
lichten	-12646
motiven	-12647
schiene	-12648
strengt	-12649
ändigen	-12650
▁abflug	-12651
▁alaska	-12652
▁brüder	-12653
▁flucht	-12654
▁häkelt	-12655
▁nische	-12656
▁schert	-12657
▁teichs	-12658
▁ölfass	-12659
lossenen	-12660
monitore	-12661
▁amische	-12662
▁angeleu	-12663
▁anguckt	-12664
▁anhören	-12665
▁ankunft	-12666
▁anspiel	-12667
▁anstatt	-12668
▁atlanta	-12669
▁ausgest	-12670
▁auswirk	-12671
▁autoren	-12672
▁basecap	-12673
▁beamter	-12674
▁bechern	-12675
▁begleit	-12676
▁bemalen	-12677
▁benzink	-12678
▁bewirft	-12679
▁bottich	-12680
▁braucht	-12681
▁brezeln	-12682
▁buckelt	-12683
▁buddeln	-12684
▁bummelt	-12685
▁bündeln	-12686
▁chinese	-12687
▁company	-12688
▁crayola	-12689
▁curling	-12690
▁cyclone	-12691
▁dahingl	-12692
▁dasteht	-12693
▁deckeln	-12694
▁defense	-12695
▁dichten	-12696
▁display	-12697
▁diverse	-12698
▁dreiräd	-12699
obs	-12700
▁av	-12701
cart	-12702
klat	-12703
zers	-12704
▁air	-12705
▁igl	-12706
▁rap	-12707
arrer	-12708
gebir	-12709
oping	-12710
stunt	-12711
tetes	-12712
äuche	-12713
▁drap	-12714
▁eilt	-12715
▁gart	-12716
▁iglu	-12717
▁paus	-12718
▁somm	-12719
▁soon	-12720
▁teer	-12721
anzüge	-12722
hnchen	-12723
krügen	-12724
montur	-12725
roller	-12726
seiten	-12727
wandte	-12728
▁altar	-12729
▁biene	-12730
▁eiste	-12731
▁hello	-12732
▁hütet	-12733
▁scrab	-12734
▁socke	-12735
artiger	-12736
dehnten	-12737
ünschen	-12738
▁behaar	-12739
▁burrit	-12740
▁bussen	-12741
▁dunkle	-12742
▁einkäu	-12743
▁eistee	-12744
▁gelock	-12745
▁grasen	-12746
▁marker	-12747
▁pferch	-12748
▁urinal	-12749
▁würste	-12750
händlers	-12751
pfostens	-12752
schritte	-12753
▁abfahrt	-12754
▁bretter	-12755
▁driftet	-12756
▁drittes	-12757
▁ehepaar	-12758
▁einheit	-12759
▁eisigen	-12760
▁elefant	-12761
▁entlädt	-12762
▁erdbeer	-12763
▁erhöhte	-12764
▁ernstem	-12765
▁erobern	-12766
▁erstaun	-12767
▁erzeugt	-12768
▁factory	-12769
▁fairway	-12770
▁falsche	-12771
▁farbwal	-12772
▁feldern	-12773
▁festgem	-12774
▁feuerhy	-12775
▁flannel	-12776
▁fleißig	-12777
▁freibad	-12778
▁fressen	-12779
▁fässern	-12780
▁gebadet	-12781
▁geballt	-12782
▁gebiets	-12783
▁gebilde	-12784
▁gebüsch	-12785
▁gedeckt	-12786
▁gedicht	-12787
▁gedreht	-12788
▁gedämpf	-12789
▁gefälle	-12790
▁gegnern	-12791
▁gegners	-12792
▁gegrill	-12793
▁gekrönt	-12794
▁gemähte	-12795
▁gepäckt	-12796
▁gestalt	-12797
▁gewürze	-12798
▁gezeich	-12799
ise	-12800
olz	-12801
yle	-12802
gles	-12803
gnet	-12804
haft	-12805
kind	-12806
mate	-12807
wegt	-12808
▁fee	-12809
▁lav	-12810
▁pab	-12811
iffen	-12812
kelle	-12813
keten	-12814
zeile	-12815
▁just	-12816
▁kais	-12817
▁ritt	-12818
▁west	-12819
antine	-12820
butter	-12821
formen	-12822
kränze	-12823
massen	-12824
sjacke	-12825
spiels	-12826
▁behut	-12827
▁belag	-12828
▁pabst	-12829
▁pfann	-12830
▁rasch	-12831
▁rocks	-12832
▁tageb	-12833
ertisch	-12834
ionette	-12835
sellift	-12836
skörper	-12837
▁erhöht	-12838
▁fassen	-12839
▁feucht	-12840
▁fragen	-12841
▁lieben	-12842
▁lässig	-12843
▁riecht	-12844
▁stunde	-12845
▁tomate	-12846
▁vorges	-12847
▁zottel	-12848
rochenen	-12849
▁bergweg	-12850
▁etliche	-12851
▁gipfeln	-12852
▁glatten	-12853
▁glühbir	-12854
▁goldene	-12855
▁grabung	-12856
▁grasweg	-12857
▁größten	-12858
▁haustür	-12859
▁heimweg	-12860
▁heranna	-12861
▁hergeht	-12862
▁hochger	-12863
▁hockern	-12864
▁holländ	-12865
▁hütchen	-12866
▁identif	-12867
▁indisch	-12868
▁infield	-12869
▁install	-12870
▁jerseys	-12871
▁kahlras	-12872
▁kakteen	-12873
▁karatet	-12874
▁kassier	-12875
▁kitteln	-12876
▁kitzelt	-12877
▁koffern	-12878
▁komisch	-12879
▁kreativ	-12880
▁kreuzen	-12881
▁krieger	-12882
▁lacross	-12883
▁lametta	-12884
▁lauscht	-12885
▁leitung	-12886
▁liefern	-12887
▁lungern	-12888
▁lungert	-12889
▁lutscht	-12890
▁längsst	-12891
▁löffeln	-12892
▁lümmelt	-12893
▁macbook	-12894
▁malbuch	-12895
▁manager	-12896
▁matador	-12897
▁meister	-12898
▁metallg	-12899
bor	-12900
hill	-12901
ives	-12902
ivor	-12903
▁dad	-12904
▁ice	-12905
▁pot	-12906
▁sno	-12907
afeln	-12908
ansen	-12909
gangs	-12910
▁dann	-12911
▁drum	-12912
▁frag	-12913
▁frog	-12914
▁hill	-12915
▁hugs	-12916
▁kräu	-12917
▁lift	-12918
▁snap	-12919
▁träg	-12920
▁umzu	-12921
▁zwie	-12922
aucher	-12923
buffet	-12924
cherin	-12925
cksler	-12926
▁alles	-12927
▁dünen	-12928
▁hacke	-12929
▁human	-12930
▁masse	-12931
▁pucks	-12932
▁samen	-12933
▁toben	-12934
▁weges	-12935
erabend	-12936
rachten	-12937
schrank	-12938
▁buches	-12939
▁chemik	-12940
▁gelaun	-12941
▁golfen	-12942
▁regenn	-12943
▁schmel	-12944
▁spinnt	-12945
▁stinkt	-12946
▁zerklü	-12947
kollegin	-12948
trommeln	-12949
▁auszeit	-12950
▁brüsten	-12951
▁michael	-12952
▁mischen	-12953
▁mitfahr	-12954
▁monitor	-12955
▁morgens	-12956
▁muskeln	-12957
▁möglich	-12958
▁nahrung	-12959
▁neujahr	-12960
▁niedrig	-12961
▁niemand	-12962
▁nuckelt	-12963
▁oakland	-12964
▁olympia	-12965
▁organge	-12966
▁orioles	-12967
▁papagei	-12968
▁pappsch	-12969
▁parkuhr	-12970
▁pfarrer	-12971
▁pfeffer	-12972
▁pfeiler	-12973
▁pflügen	-12974
▁pianist	-12975
▁piloten	-12976
▁pinguin	-12977
▁pitbull	-12978
▁plakate	-12979
▁planken	-12980
▁pokemon	-12981
▁ponchos	-12982
▁prallen	-12983
▁rafting	-12984
▁rasseln	-12985
▁reishut	-12986
▁ringsum	-12987
▁rodgers	-12988
▁rotweiß	-12989
▁runzelt	-12990
▁samsung	-12991
▁schafft	-12992
▁scheune	-12993
▁schilds	-12994
▁schirme	-12995
▁schirmt	-12996
▁schließ	-12997
▁schlips	-12998
▁schmale	-12999
dia	-13000
ogs	-13001
ums	-13002
▁are	-13003
▁log	-13004
dding	-13005
felds	-13006
bärten	-13007
▁allem	-13008
▁cater	-13009
▁enden	-13010
▁papas	-13011
▁seils	-13012
artiges	-13013
artikel	-13014
scheine	-13015
▁betten	-13016
▁diesel	-13017
▁frisst	-13018
▁stocks	-13019
▁muffins	-13020
▁schmied	-13021
▁schmoll	-13022
▁schneel	-13023
▁schnees	-13024
▁schnitt	-13025
▁schrein	-13026
▁schubst	-13027
▁schulen	-13028
▁schwäne	-13029
▁schäbig	-13030
▁schärpe	-13031
▁seminar	-13032
▁session	-13033
▁shampoo	-13034
▁sichert	-13035
▁singend	-13036
▁sitzung	-13037
▁sonntag	-13038
▁spannen	-13039
▁spezial	-13040
▁spießen	-13041
▁spinnen	-13042
▁spreizt	-13043
▁starker	-13044
▁starten	-13045
▁startet	-13046
▁staunen	-13047
▁steiger	-13048
▁sternen	-13049
▁steuern	-13050
▁stiften	-13051
▁stilles	-13052
▁stoffen	-13053
▁stollen	-13054
▁strahlt	-13055
▁stängel	-13056
▁stöckel	-13057
▁stützen	-13058
▁sweater	-13059
▁tambour	-13060
▁technik	-13061
▁tourbus	-13062
▁trauung	-13063
▁tropfen	-13064
▁trophäe	-13065
▁trösten	-13066
▁tuniken	-13067
▁tunnels	-13068
▁töchter	-13069
▁töpfert	-13070
▁tüchern	-13071
▁türkise	-13072
▁umdreht	-13073
▁unglaub	-13074
▁vertrau	-13075
▁visiert	-13076
▁vitrine	-13077
▁vorherr	-13078
▁vornehm	-13079
▁vorräte	-13080
▁vorteil	-13081
▁waagere	-13082
▁wagemut	-13083
▁walkman	-13084
▁wartend	-13085
▁wartung	-13086
▁wasserd	-13087
▁weißene	-13088
▁welches	-13089
▁western	-13090
▁winkend	-13091
▁wodurch	-13092
▁wurzeln	-13093
▁yankees	-13094
▁zielort	-13095
▁zitrone	-13096
▁zufahrt	-13097
▁zufährt	-13098
▁zukunft	-13099
▁zustand	-13100
▁zwanzig	-13101
▁zweirad	-13102
▁übersät	-13103
▁üppigen	-13104
abdrücken	-13105
aktivität	-13106
bahnlinie	-13107
bedeckung	-13108
brottisch	-13109
bäumenden	-13110
eilnehmer	-13111
emaschine	-13112
erspiegel	-13113
feuerwehr	-13114
flohmarkt	-13115
formation	-13116
gefüllten	-13117
gitarrist	-13118
hindernis	-13119
ieselungs	-13120
ivspieler	-13121
kontrolle	-13122
künstlern	-13123
laufenden	-13124
mikroskop	-13125
piercings	-13126
probieren	-13127
putzstand	-13128
rangement	-13129
sartikeln	-13130
schnitten	-13131
schwester	-13132
schülerin	-13133
shändiger	-13134
silbernen	-13135
sprechern	-13136
sterrasse	-13137
stofftier	-13138
streckter	-13139
teltasche	-13140
trainings	-13141
ungsmauer	-13142
unterlage	-13143
vertreter	-13144
violetten	-13145
werkstatt	-13146
wettessen	-13147
zahnblüte	-13148
zustellen	-13149
ässerungs	-13150
▁abgestor	-13151
▁abhängen	-13152
▁abkühlen	-13153
▁absprung	-13154
▁abwasser	-13155
▁abwischt	-13156
▁alphabet	-13157
▁altertüm	-13158
▁american	-13159
▁angehöri	-13160
▁angehört	-13161
▁angelegt	-13162
▁angewink	-13163
▁anliegen	-13164
▁apotheke	-13165
▁assisten	-13166
▁aufragen	-13167
▁aufsicht	-13168
▁aufstell	-13169
▁aufträgt	-13170
▁aufwärts	-13171
▁ausgehen	-13172
▁auslagen	-13173
▁auspackt	-13174
▁ausruhen	-13175
▁autodach	-13176
▁badezeug	-13177
▁bahnhofs	-13178
▁barbecue	-13179
▁batterie	-13180
▁baugerät	-13181
▁befreien	-13182
▁beispiel	-13183
▁belegten	-13184
▁bemaltem	-13185
▁benötigt	-13186
▁bergwand	-13187
▁besprüht	-13188
▁besseren	-13189
▁besucher	-13190
▁beworfen	-13191
▁birthday	-13192
▁bisschen	-13193
▁blondine	-13194
▁blümchen	-13195
▁bodysuit	-13196
▁boutique	-13197
▁broadway	-13198
▁brokkoli	-13199
▁brotlaib	-13200
▁brötchen	-13201
▁brüstung	-13202
▁buddhist	-13203
▁cadillac	-13204
▁children	-13205
▁chinesen	-13206
▁converse	-13207
▁cupcakes	-13208
▁desserts	-13209
▁diagramm	-13210
▁diversen	-13211
▁dreckige	-13212
▁einbruch	-13213
▁eindruck	-13214
▁einfährt	-13215
▁einstieg	-13216
▁einzutau	-13217
▁eiskunst	-13218
▁ellbogen	-13219
▁entgehen	-13220
▁entleert	-13221
▁entsetzt	-13222
▁entsorgt	-13223
▁entwirft	-13224
▁erdbeere	-13225
▁erfrisch	-13226
▁erinnern	-13227
▁erkennen	-13228
▁erklären	-13229
▁erlangen	-13230
▁erledigt	-13231
▁erschöpf	-13232
▁erstellt	-13233
▁erörtert	-13234
▁espresso	-13235
▁essenszu	-13236
▁eyeliner	-13237
▁fahrbahn	-13238
▁farbdose	-13239
▁farbenpr	-13240
▁fastfood	-13241
▁federhut	-13242
▁festlich	-13243
▁festsaal	-13244
▁filmcrew	-13245
▁fingersp	-13246
▁fischzug	-13247
▁flattern	-13248
▁flattert	-13249
▁flüstern	-13250
▁flüstert	-13251
▁folklore	-13252
▁fontänen	-13253
▁formelle	-13254
▁formiert	-13255
▁freiwurf	-13256
▁frequent	-13257
▁frisbees	-13258
▁fußballs	-13259
▁fußbälle	-13260
▁förmlich	-13261
▁garnelen	-13262
▁gasgrill	-13263
▁gebildet	-13264
▁geblasen	-13265
▁gebrauch	-13266
▁gefaltet	-13267
▁geflügel	-13268
▁gefüllte	-13269
▁gegangen	-13270
▁gegnerin	-13271
▁gegrillt	-13272
▁gemessen	-13273
▁gemäldes	-13274
▁genommen	-13275
▁gerahmte	-13276
▁gereicht	-13277
▁gerichte	-13278
▁geringer	-13279
▁gesprüht	-13280
▁gesteins	-13281
▁getreten	-13282
▁getönten	-13283
▁gewebten	-13284
▁gewichte	-13285
▁geworden	-13286
▁grasbahn	-13287
▁gurtzeug	-13288
▁gässchen	-13289
▁hantiert	-13290
▁haustier	-13291
▁heineken	-13292
▁herrlich	-13293
▁herrscht	-13294
▁holzdeck	-13295
▁holzhaus	-13296
▁holzsteg	-13297
▁holzwand	-13298
▁hufeisen	-13299
▁händlern	-13300
▁hängende	-13301
▁insassen	-13302
▁insekten	-13303
▁jongleur	-13304
▁jüdische	-13305
▁kandidat	-13306
▁kapitäns	-13307
▁kaputter	-13308
▁kawasaki	-13309
▁kegelhut	-13310
▁klatschn	-13311
▁klimpert	-13312
▁kniender	-13313
▁knöchelt	-13314
▁kochtopf	-13315
▁kolonial	-13316
▁konditor	-13317
▁kosmetik	-13318
▁kreischt	-13319
▁kräftige	-13320
▁kugelbad	-13321
▁kätzchen	-13322
▁kürzlich	-13323
▁laborant	-13324
▁langgeht	-13325
▁langlauf	-13326
▁latzhose	-13327
▁laubwerk	-13328
▁lebhafte	-13329
▁leckeren	-13330
▁lesenden	-13331
▁lichtung	-13332
▁limonade	-13333
▁londoner	-13334
▁lustiges	-13335
▁lutscher	-13336
▁lätzchen	-13337
▁massiert	-13338
▁metallob	-13339
▁michigan	-13340
▁minirock	-13341
▁moderner	-13342
▁modernes	-13343
▁modische	-13344
▁molliges	-13345
▁monument	-13346
▁mürrisch	-13347
▁nachbarn	-13348
▁neongrün	-13349
▁normaler	-13350
▁nächstes	-13351
▁oberleit	-13352
▁ohrhörer	-13353
▁operiert	-13354
▁papierkr	-13355
▁passende	-13356
▁pavillon	-13357
▁pelzigen	-13358
▁pingpong	-13359
▁pinguine	-13360
▁plaudern	-13361
▁porträts	-13362
▁provisor	-13363
▁prächtig	-13364
▁punkrock	-13365
▁päckchen	-13366
▁quadbike	-13367
▁rasierer	-13368
▁reagiert	-13369
▁reaktion	-13370
▁reisfeld	-13371
▁rennhund	-13372
▁richtern	-13373
▁rockstar	-13374
▁rückbank	-13375
▁sandsack	-13376
▁sauberen	-13377
▁scheffel	-13378
▁scheucht	-13379
▁schilden	-13380
▁schleppe	-13381
▁schleppt	-13382
▁schluckt	-13383
▁schmiert	-13384
▁schnabel	-13385
▁schnüren	-13386
▁schrägen	-13387
▁schuppen	-13388
▁schweben	-13389
▁schwelle	-13390
▁schütter	-13391
▁scrabble	-13392
▁seahawks	-13393
▁security	-13394
▁seehafen	-13395
▁seilbahn	-13396
▁shopping	-13397
▁showgirl	-13398
▁signiert	-13399
▁sitzbank	-13400
▁skianzug	-13401
▁sonniger	-13402
▁souschef	-13403
▁souvenir	-13404
▁spachtel	-13405
▁spanisch	-13406
▁sparring	-13407
▁spiegelt	-13408
▁sprüngen	-13409
▁stadtbus	-13410
▁staubsau	-13411
▁steinweg	-13412
▁streitet	-13413
▁szenerie	-13414
▁tagebuch	-13415
▁talkshow	-13416
▁tamburin	-13417
▁tauschen	-13418
▁tischler	-13419
▁tribünen	-13420
▁trockene	-13421
▁turbanen	-13422
▁ufernähe	-13423
▁umgebene	-13424
▁umschlag	-13425
▁unebenen	-13426
▁unschuld	-13427
▁unterarm	-13428
▁verbirgt	-13429
▁verboten	-13430
▁verladen	-13431
▁verlegen	-13432
▁verpasst	-13433
▁verrückt	-13434
▁versorgt	-13435
▁vertieft	-13436
▁verziert	-13437
▁violette	-13438
▁wartende	-13439
▁wassertr	-13440
▁weiblich	-13441
▁weitläuf	-13442
▁werkbank	-13443
▁wikinger	-13444
▁wohnhaus	-13445
▁wrestler	-13446
▁wünschen	-13447
▁zahnarzt	-13448
▁zerlegen	-13449
▁zerzaust	-13450
▁zickzack	-13451
▁zigeuner	-13452
▁zugedeck	-13453
▁zugfahrt	-13454
▁zuhörern	-13455
▁zurückzu	-13456
▁zwirbelt	-13457
▁überhang	-13458
▁überlegt	-13459
▁übersäte	-13460
angehörige	-13461
chsköpfige	-13462
darbietung	-13463
flugzeugen	-13464
gepflaster	-13465
geschäften	-13466
mechaniker	-13467
mitglieder	-13468
ophonisten	-13469
schenwagen	-13470
schlagmann	-13471
schlendern	-13472
schläuchen	-13473
sportplatz	-13474
springerin	-13475
stellungen	-13476
stofftasse	-13477
sweatshirt	-13478
verkäufers	-13479
▁abdeckung	-13480
▁abgeleckt	-13481
▁abgelenkt	-13482
▁abprallen	-13483
▁abzeichen	-13484
▁ackerland	-13485
▁aggressiv	-13486
▁akrobaten	-13487
▁akrobatik	-13488
▁akrobatin	-13489
▁aluminium	-13490
▁angeseilt	-13491
▁angreifer	-13492
▁ansichten	-13493
▁anspruchs	-13494
▁antworten	-13495
▁aquamarin	-13496
▁atemberau	-13497
▁aufstellt	-13498
▁auftragen	-13499
▁ausdrucks	-13500
▁automaten	-13501
▁bahngleis	-13502
▁baltimore	-13503
▁baumlosen	-13504
▁bedecktem	-13505
▁befördern	-13506
▁bekannten	-13507
▁bekannter	-13508
▁beladenes	-13509
▁benzinkan	-13510
▁bergkette	-13511
▁bernstein	-13512
▁beruhigen	-13513
▁berühmten	-13514
▁besetztes	-13515
▁besonders	-13516
▁bespricht	-13517
▁bestaunen	-13518
▁bestimmte	-13519
▁besuchern	-13520
▁betreiben	-13521
▁betrieben	-13522
▁bettdecke	-13523
▁bewölkter	-13524
▁bezaubern	-13525
▁blechblas	-13526
▁blutender	-13527
▁blühender	-13528
▁bockendes	-13529
▁bodenball	-13530
▁bodennähe	-13531
▁bodyboard	-13532
▁bootsdeck	-13533
▁brasilian	-13534
▁brasilien	-13535
▁brautpaar	-13536
▁brotstand	-13537
▁brusttief	-13538
▁brünetter	-13539
▁buchladen	-13540
▁budweiser	-13541
▁bulldogge	-13542
▁busfahrer	-13543
▁challenge	-13544
▁chevrolet	-13545
▁cocktails	-13546
▁computers	-13547
▁defensive	-13548
▁demselben	-13549
▁denselben	-13550
▁didgerido	-13551
▁dinosauri	-13552
▁dominiert	-13553
▁dunkleren	-13554
▁edelstahl	-13555
▁ehrfurcht	-13556
▁eidechsen	-13557
▁einstellt	-13558
▁einzelnen	-13559
▁eisfläche	-13560
▁eiszapfen	-13561
▁eleganten	-13562
▁empanadas	-13563
▁englische	-13564
▁enrolling	-13565
▁entwirren	-13566
▁erschöpft	-13567
▁fahrradta	-13568
▁farbwalze	-13569
▁feiertage	-13570
▁feuerball	-13571
▁flankiert	-13572
▁fleischer	-13573
▁flugblatt	-13574
▁fluggäste	-13575
▁flussbett	-13576
▁footballs	-13577
▁formation	-13578
▁fotoalbum	-13579
▁francisco	-13580
▁frühstück	-13581
▁fußballer	-13582
▁fußbrücke	-13583
▁fußspuren	-13584
▁gebeugten	-13585
▁gebeugter	-13586
▁geblieben	-13587
▁gebräunte	-13588
▁gefertigt	-13589
▁gefleckte	-13590
▁gefärbter	-13591
▁gekühlten	-13592
▁gemischte	-13593
▁geneigtem	-13594
▁geneigten	-13595
▁geschieht	-13596
▁geschäfte	-13597
▁gesenkten	-13598
▁getrockne	-13599
▁goldgelbe	-13600
▁grashügel	-13601
▁greyhound	-13602
▁großmarkt	-13603
▁großvater	-13604
▁gummiball	-13605
▁halbhohen	-13606
▁haltegurt	-13607
▁hausparty	-13608
▁hebebühne	-13609
▁hellrotem	-13610
▁hellrotes	-13611
▁heuballen	-13612
▁hochkommt	-13613
▁holzhütte	-13614
▁holzkiste	-13615
▁holzkreuz	-13616
▁holzstamm	-13617
▁holzstäbe	-13618
▁holzstück	-13619
▁jalousien	-13620
▁jerusalem	-13621
▁jüdischen	-13622
▁jüdischer	-13623
▁kieshügel	-13624
▁kochjacke	-13625
▁kochmütze	-13626
▁komischer	-13627
▁komisches	-13628
▁konserven	-13629
▁kopfstand	-13630
▁kunstvoll	-13631
▁kürbissen	-13632
▁lachenden	-13633
▁lagerraum	-13634
▁latzhosen	-13635
▁laufenden	-13636
▁laufhosen	-13637
▁laufstall	-13638
▁lebkuchen	-13639
▁lehnstuhl	-13640
▁leitungen	-13641
▁longboard	-13642
▁lotteriel	-13643
▁ländliche	-13644
▁mannequin	-13645
▁marathons	-13646
▁medaillen	-13647
▁mehrfamil	-13648
▁metalltor	-13649
▁metzgerei	-13650
▁minnesota	-13651
▁mittlerem	-13652
▁modischer	-13653
▁mohikaner	-13654
▁motorrads	-13655
▁musikerin	-13656
▁musiziert	-13657
▁nachgehen	-13658
▁nachricht	-13659
▁naturpfad	-13660
▁notebooks	-13661
▁ohrringen	-13662
▁papierhut	-13663
▁partnerin	-13664
▁passendem	-13665
▁passender	-13666
▁passieren	-13667
▁piercings	-13668
▁propangas	-13669
▁prächtige	-13670
▁pullovers	-13671
▁querflöte	-13672
▁rasiertem	-13673
▁regierung	-13674
▁rennenden	-13675
▁rennsport	-13676
▁reportern	-13677
▁riesenrad	-13678
▁rittlings	-13679
▁rollwagen	-13680
▁rosaroter	-13681
▁rötlichem	-13682
▁sandsturm	-13683
▁sanitäter	-13684
▁schaffner	-13685
▁schattenh	-13686
▁schichten	-13687
▁schleuder	-13688
▁schmuddel	-13689
▁schritten	-13690
▁schroffen	-13691
▁schulterl	-13692
▁schönheit	-13693
▁serviette	-13694
▁sichtbare	-13695
▁silbernem	-13696
▁situation	-13697
▁skibrille	-13698
▁sonnenbad	-13699
▁speerwurf	-13700
▁sperrholz	-13701
▁spielhaus	-13702
▁spinnkurs	-13703
▁sportfans	-13704
▁sportfeld	-13705
▁sportteam	-13706
▁stadtplan	-13707
▁stadtteil	-13708
▁standbild	-13709
▁steiniges	-13710
▁sternförm	-13711
▁streicher	-13712
▁striegelt	-13713
▁sturzflug	-13714
▁stämmiger	-13715
▁sumpfigen	-13716
▁sumpfiges	-13717
▁süßigkeit	-13718
▁tageszeit	-13719
▁tarnhosen	-13720
▁tarnjacke	-13721
▁tieflader	-13722
▁torbogens	-13723
▁tortillas	-13724
▁touristin	-13725
▁trabenden	-13726
▁trinkgeld	-13727
▁truthähne	-13728
▁turnübung	-13729
▁typischen	-13730
▁umgekippt	-13731
▁unfallort	-13732
▁unscharfe	-13733
▁unterhalt	-13734
▁unterholz	-13735
▁verbeugen	-13736
▁vergraben	-13737
▁verhaftet	-13738
▁verhüllte	-13739
▁verlaufen	-13740
▁vermischt	-13741
▁verquirlt	-13742
▁versorgen	-13743
▁verspielt	-13744
▁versunken	-13745
▁vesammelt	-13746
▁vietnames	-13747
▁vorgarten	-13748
▁vornehmen	-13749
▁wachleute	-13750
▁warnkegel	-13751
▁warteraum	-13752
▁wegschaut	-13753
▁weinroten	-13754
▁werdendem	-13755
▁wichtiges	-13756
▁zeltplane	-13757
▁zerbricht	-13758
▁zufrieden	-13759
▁zugedeckt	-13760
▁zugführer	-13761
▁zuneigung	-13762
▁zweikampf	-13763
▁zwillinge	-13764
▁zwillings	-13765
▁ähnlichen	-13766
▁ängstlich	-13767
▁öffnungen	-13768
▁überreste	-13769
▁überwacht	-13770
ballspieler	-13771
balltrainer	-13772
ballturnier	-13773
bearbeitung	-13774
bereitungen	-13775
bewachsenen	-13776
bildschirme	-13777
bildschirms	-13778
ektonischen	-13779
gelegenheit	-13780
gerichteten	-13781
geschobener	-13782
gesteuerten	-13783
haarschnitt	-13784
kopfschmuck	-13785
ofonspieler	-13786
reparaturen	-13787
schwammkopf	-13788
spielzeugen	-13789
staubsauger	-13790
städtischen	-13791
transporter	-13792
versammlung	-13793
zeugrutsche	-13794
▁abgefeuert	-13795
▁abgelassen	-13796
▁abgeschirm	-13797
▁ahornblatt	-13798
▁angefahren	-13799
▁angestarrt	-13800
▁anzugucken	-13801
▁anzuzünden	-13802
▁arbeitsort	-13803
▁armbanduhr	-13804
▁armbändern	-13805
▁arrangiert	-13806
▁attackiert	-13807
▁attraktion	-13808
▁auditorium	-13809
▁aufklebern	-13810
▁aufwirbelt	-13811
▁augenblick	-13812
▁augenbraue	-13813
▁ausgetrock	-13814
▁ausrichten	-13815
▁aussteigen	-13816
▁badeshorts	-13817
▁bahnrennen	-13818
▁bahntunnel	-13819
▁ballerinas	-13820
▁ballontier	-13821
▁baumgrenze	-13822
▁baumstamms	-13823
▁bearbeiten	-13824
▁becherglas	-13825
▁bedruckter	-13826
▁begleitung	-13827
▁behinderte	-13828
▁beifahrers	-13829
▁beinhaltet	-13830
▁beobachter	-13831
▁bergspitze	-13832
▁berittener	-13833
▁beschreibt	-13834
▁beseitigen	-13835
▁besonderen	-13836
▁bestimmten	-13837
▁beteiligen	-13838
▁betonblock	-13839
▁biergarten	-13840
▁bilderbuch	-13841
▁brennendes	-13842
▁britischen	-13843
▁buckelndes	-13844
▁busfenster	-13845
▁bäuchlings	-13846
▁büroarbeit	-13847
▁caprihosen	-13848
▁chinesisch	-13849
▁comicfigur	-13850
▁cowboyhüte	-13851
▁dachdecker	-13852
▁dachziegel	-13853
▁davidstern	-13854
▁donnerstag	-13855
▁dramatisch	-13856
▁dreirädern	-13857
▁durchnässt	-13858
▁durchquert	-13859
▁eiffelturm	-13860
▁eingeboren	-13861
▁eingehüllt	-13862
▁eingepackt	-13863
▁eintreffen	-13864
▁ekstatisch	-13865
▁elementary	-13866
▁erforschen	-13867
▁esstischen	-13868
▁ethnischen	-13869
▁ethnischer	-13870
▁fachkräfte	-13871
▁fahrersitz	-13872
▁felsblocks	-13873
▁felsvorspr	-13874
▁festumzugs	-13875
▁filmplakat	-13876
▁flauschige	-13877
▁fliegender	-13878
▁fließenden	-13879
▁folklorist	-13880
▁forschungs	-13881
▁fototermin	-13882
▁freundlich	-13883
▁förderband	-13884
▁ganzkörper	-13885
▁geeigneten	-13886
▁gefalteten	-13887
▁gefleckten	-13888
▁gehaltenen	-13889
▁gehgestell	-13890
▁geklettert	-13891
▁geknöpften	-13892
▁gemauerten	-13893
▁gemischter	-13894
▁geschenken	-13895
▁geselligen	-13896
▁getrocknet	-13897
▁gewundenen	-13898
▁glasbläser	-13899
▁grinsender	-13900
▁großartige	-13901
▁großeltern	-13902
▁grundstück	-13903
▁halbnackte	-13904
▁handarbeit	-13905
▁handtücher	-13906
▁hasenohren	-13907
▁hawaiihemd	-13908
▁heckklappe	-13909
▁heimischen	-13910
▁helikopter	-13911
▁hellblaues	-13912
▁hellgrauen	-13913
▁hellgrüner	-13914
▁hellhäutig	-13915
▁herausholt	-13916
▁herbstlaub	-13917
▁herumläuft	-13918
▁herzschlag	-13919
▁hirtenhund	-13920
▁hispanisch	-13921
▁hochsprung	-13922
▁hochsteigt	-13923
▁hockeyfeld	-13924
▁holzbalken	-13925
▁holzblöcke	-13926
▁holzbrücke	-13927
▁holzkisten	-13928
▁holzleiter	-13929
▁holzmöbeln	-13930
▁holztreppe	-13931
▁imbissbude	-13932
▁inderinnen	-13933
▁jahrmarkts	-13934
▁japanische	-13935
▁jeansanzug	-13936
▁kaffeehaus	-13937
▁kameracrew	-13938
▁katzenbaby	-13939
▁kiesstrand	-13940
▁kinderbett	-13941
▁kinderbuch	-13942
▁kinderfahr	-13943
▁kitesurfer	-13944
▁kleinkinds	-13945
▁knielangen	-13946
▁knietiefes	-13947
▁kofferraum	-13948
▁kostenlose	-13949
▁kundgebung	-13950
▁lagerhalle	-13951
▁lattenzaun	-13952
▁laufgitter	-13953
▁leadsänger	-13954
▁lebendigen	-13955
▁lederweste	-13956
▁leuchtturm	-13957
▁lokomotive	-13958
▁luftblasen	-13959
▁ländlicher	-13960
▁mahlzeiten	-13961
▁mammutbaum	-13962
▁markierung	-13963
▁maskierter	-13964
▁metallbank	-13965
▁metalldach	-13966
▁metallenen	-13967
▁metallrohr	-13968
▁modelliert	-13969
▁morgenrock	-13970
▁männerteam	-13971
▁mülltonnen	-13972
▁nachdenken	-13973
▁neongelben	-13974
▁notenblatt	-13975
▁nächtliche	-13976
▁olympische	-13977
▁orchesters	-13978
▁ortsansäss	-13979
▁palmwedeln	-13980
▁pappteller	-13981
▁parkgarage	-13982
▁postkarten	-13983
[...]
