<pad>	0
<s>	0
</s>	0
<unk>	0
un	-0
▁un	-1
▁d	-2
an	-3
es	-4
en	-5
▁.	-6
▁s	-7
▁p	-8
▁de	-9
▁a	-10
ou	-11
▁une	-12
▁l	-13
▁c	-14
on	-15
os	-16
ap	-17
▁t	-18
ant	-19
mm	-20
ur	-21
▁f	-22
apos	-23
▁b	-24
ar	-25
▁en	-26
er	-27
et	-28
is	-29
mme	-30
le	-31
ho	-32
re	-33
▁m	-34
ent	-35
▁ho	-36
qu	-37
▁g	-38
te	-39
ans	-40
il	-41
in	-42
ve	-43
▁dans	-44
▁sur	-45
▁v	-46
▁j	-47
▁r	-48
▁homme	-49
▁des	-50
▁et	-51
▁ave	-52
▁avec	-53
or	-54
▁ch	-55
ux	-56
▁la	-57
it	-58
ch	-59
ir	-60
▁fe	-61
au	-62
▁à	-63
our	-64
▁tr	-65
ge	-66
▁,	-67
ss	-68
▁qu	-69
al	-70
ers	-71
▁n	-72
▁femme	-73
▁le	-74
▁deux	-75
▁es	-76
ont	-77
▁gr	-78
ue	-79
▁au	-80
onn	-81
ie	-82
at	-83
▁est	-84
and	-85
us	-86
lan	-87
ard	-88
▁je	-89
▁jou	-90
ot	-91
▁re	-92
out	-93
pe	-94
ain	-95
ille	-96
▁pr	-97
mmes	-98
▁pers	-99
▁personn	-100
as	-101
▁e	-102
▁ass	-103
▁mar	-104
ien	-105
▁par	-106
une	-107
▁assis	-108
oir	-109
▁é	-110
che	-111
▁gar	-112
▁se	-113
ol	-114
ri	-115
ée	-116
▁rou	-117
que	-118
ill	-119
▁fa	-120
▁por	-121
▁blan	-122
▁reg	-123
▁regard	-124
vant	-125
ment	-126
çon	-127
▁chien	-128
▁garçon	-129
mb	-130
tant	-131
▁enf	-132
bout	-133
▁debout	-134
▁enfant	-135
▁che	-136
▁personnes	-137
ois	-138
▁sont	-139
êt	-140
ti	-141
ère	-142
urs	-143
andis	-144
ne	-145
ab	-146
▁jeune	-147
▁pl	-148
▁devant	-149
▁h	-150
▁ar	-151
▁tandis	-152
▁ble	-153
▁hommes	-154
oupe	-155
▁aut	-156
▁fille	-157
se	-158
▁du	-159
▁les	-160
▁pet	-161
▁groupe	-162
▁noir	-163
age	-164
▁que	-165
▁ten	-166
té	-167
▁cour	-168
all	-169
end	-170
▁sa	-171
ire	-172
tes	-173
▁blanc	-174
ure	-175
▁rue	-176
▁son	-177
▁rouge	-178
ce	-179
av	-180
sh	-181
irt	-182
shirt	-183
ag	-184
am	-185
ient	-186
▁pour	-187
▁portant	-188
▁joue	-189
ass	-190
▁march	-191
▁vêt	-192
de	-193
ès	-194
▁gen	-195
ise	-196
ier	-197
tr	-198
▁cou	-199
▁br	-200
él	-201
ic	-202
be	-203
rière	-204
res	-205
▁bleu	-206
ig	-207
▁sau	-208
ine	-209
és	-210
ose	-211
▁gens	-212
▁trois	-213
▁o	-214
ate	-215
▁train	-216
▁ver	-217
able	-218
▁trav	-219
▁petit	-220
▁cô	-221
▁eau	-222
▁femmes	-223
▁fait	-224
ati	-225
ette	-226
to	-227
eau	-228
um	-229
▁enfants	-230
▁co	-231
lle	-232
mp	-233
▁qui	-234
hor	-235
▁chem	-236
▁côté	-237
▁dé	-238
ul	-239
uit	-240
▁or	-241
▁tient	-242
▁pho	-243
ong	-244
▁pro	-245
▁regarde	-246
▁autre	-247
▁ja	-248
▁ro	-249
▁in	-250
ite	-251
ête	-252
ons	-253
▁vêtu	-254
aux	-255
▁at	-256
▁bâ	-257
▁ma	-258
▁il	-259
isant	-260
▁près	-261
ettes	-262
▁photo	-263
ro	-264
▁personne	-265
unes	-266
▁grand	-267
ball	-268
▁ap	-269
▁no	-270
▁bal	-271
▁tenant	-272
▁cas	-273
▁air	-274
▁quel	-275
ors	-276
▁jouant	-277
▁ter	-278
ous	-279
▁vél	-280
iv	-281
ép	-282
ff	-283
are	-284
asse	-285
▁so	-286
▁pe	-287
ay	-288
▁jaune	-289
▁chemise	-290
ques	-291
timent	-292
▁jeunes	-293
ige	-294
▁bâtiment	-295
▁fr	-296
▁vélo	-297
▁main	-298
▁vo	-299
oule	-300
este	-301
▁bas	-302
anc	-303
▁petite	-304
▁trava	-305
▁jouent	-306
illes	-307
▁lors	-308
ange	-309
▁tout	-310
▁regardant	-311
▁arrière	-312
toir	-313
ut	-314
▁mont	-315
hors	-316
▁dehors	-317
▁fo	-318
▁éc	-319
▁â	-320
▁trot	-321
▁marche	-322
▁al	-323
si	-324
▁ne	-325
▁lun	-326
▁ball	-327
▁ex	-328
les	-329
▁blanche	-330
▁lunettes	-331
▁po	-332
▁plus	-333
▁vert	-334
▁veste	-335
des	-336
▁sour	-337
▁cl	-338
▁app	-339
▁vi	-340
▁ses	-341
▁long	-342
ouv	-343
▁assise	-344
▁trottoir	-345
sus	-346
▁sk	-347
bo	-348
▁saute	-349
ique	-350
▁faisant	-351
▁regardent	-352
veux	-353
▁table	-354
ct	-355
▁foot	-356
▁cheveux	-357
▁bl	-358
▁der	-359
rie	-360
mble	-361
iture	-362
▁sc	-363
me	-364
▁foule	-365
iste	-366
▁brun	-367
ond	-368
ées	-369
▁marchant	-370
▁porte	-371
▁derrière	-372
▁court	-373
use	-374
▁plage	-375
ang	-376
▁bleue	-377
▁col	-378
▁âg	-379
ais	-380
▁chap	-381
uis	-382
▁ad	-383
ord	-384
▁bois	-385
ieurs	-386
▁font	-387
ion	-388
ène	-389
eur	-390
▁her	-391
▁sac	-392
▁neige	-393
ac	-394
ert	-395
▁ballon	-396
ade	-397
endant	-398
one	-399
▁arb	-400
▁quelque	-401
ments	-402
▁plusieurs	-403
▁ob	-404
▁coup	-405
▁att	-406
▁bar	-407
▁rose	-408
plan	-409
ét	-410
iant	-411
▁herbe	-412
▁chose	-413
▁vers	-414
▁autres	-415
▁&	-416
▁filles	-417
térie	-418
ér	-419
ost	-420
▁st	-421
im	-422
ière	-423
▁asi	-424
▁asiati	-425
isc	-426
▁quat	-427
ourn	-428
quot	-429
▁am	-430
mbre	-431
▁tenue	-432
▁orange	-433
▁hau	-434
▁travers	-435
▁aux	-436
▁marchent	-437
▁quatre	-438
▁y	-439
tre	-440
▁chiens	-441
▁cost	-442
▁guit	-443
▁mur	-444
dessus	-445
▁sous	-446
▁chapeau	-447
▁costum	-448
▁football	-449
ub	-450
ad	-451
▁vie	-452
térieur	-453
amp	-454
▁bou	-455
▁chev	-456
ui	-457
illot	-458
▁maillot	-459
▁parc	-460
▁mot	-461
ort	-462
▁noire	-463
▁ville	-464
ace	-465
cti	-466
ron	-467
ches	-468
▁équ	-469
▁autour	-470
▁ouv	-471
▁ense	-472
iss	-473
leil	-474
▁leurs	-475
▁soleil	-476
int	-477
▁robe	-478
ation	-479
▁esc	-480
lant	-481
▁terr	-482
▁pou	-483
▁balle	-484
ente	-485
onc	-486
▁guitare	-487
ets	-488
▁to	-489
▁bord	-490
ures	-491
▁garçons	-492
ues	-493
▁tél	-494
▁chant	-495
▁gros	-496
board	-497
if	-498
ric	-499
▁plan	-500
nent	-501
▁pass	-502
▁course	-503
ing	-504
▁ac	-505
▁sal	-506
▁assises	-507
▁hab	-508
tru	-509
ule	-510
▁elle	-511
▁skate	-512
▁sol	-513
▁haut	-514
▁prend	-515
▁escal	-516
▁mat	-517
▁banc	-518
quette	-519
▁marron	-520
▁ensemble	-521
▁mag	-522
▁scène	-523
▁port	-524
▁travaill	-525
iè	-526
▁terre	-527
▁habill	-528
▁pant	-529
onne	-530
▁pantal	-531
oup	-532
cl	-533
▁all	-534
▁car	-535
air	-536
aire	-537
▁joueur	-538
▁gars	-539
▁terrain	-540
▁can	-541
▁cam	-542
▁cont	-543
▁journ	-544
▁vêtue	-545
cher	-546
hort	-547
hone	-548
▁ple	-549
éb	-550
▁gl	-551
▁pos	-552
▁asiatique	-553
ges	-554
▁équi	-555
▁short	-556
▁lui	-557
ieu	-558
▁cr	-559
▁ét	-560
▁mil	-561
être	-562
▁gris	-563
ricain	-564
▁ré	-565
onde	-566
▁jean	-567
▁mus	-568
▁res	-569
▁pantalon	-570
ourr	-571
▁obj	-572
▁dos	-573
▁tête	-574
▁viol	-575
▁voiture	-576
▁pol	-577
ateau	-578
mpl	-579
rap	-580
▁bo	-581
▁costume	-582
▁très	-583
iers	-584
▁casque	-585
▁béb	-586
▁mic	-587
▁télép	-588
ter	-589
▁ut	-590
▁util	-591
▁ins	-592
▁vête	-593
▁verte	-594
▁vis	-595
▁cheval	-596
▁montag	-597
▁casquette	-598
▁nourr	-599
▁chau	-600
▁couple	-601
▁i	-602
▁base	-603
leurs	-604
▁cor	-605
▁route	-606
▁acc	-607
▁bat	-608
▁ray	-609
▁bébé	-610
lent	-611
▁mo	-612
▁match	-613
▁k	-614
asin	-615
▁cuis	-616
▁magasin	-617
▁vêtements	-618
▁champ	-619
▁attr	-620
▁for	-621
▁extérieur	-622
ité	-623
▁bateau	-624
oc	-625
▁mant	-626
ign	-627
▁grande	-628
ta	-629
▁nombre	-630
▁souriant	-631
▁pendant	-632
▁sautant	-633
▁pouss	-634
▁téléphone	-635
▁prép	-636
▁surf	-637
▁rouges	-638
we	-639
ycl	-640
▁mé	-641
▁art	-642
▁pisc	-643
▁équipe	-644
▁piscine	-645
▁be	-646
pect	-647
▁man	-648
▁sable	-649
▁nourriture	-650
▁oc	-651
▁ouvri	-652
tent	-653
▁milieu	-654
▁courant	-655
up	-656
éricain	-657
eaux	-658
▁pel	-659
▁contre	-660
▁rep	-661
▁cycl	-662
ip	-663
aise	-664
▁leur	-665
ib	-666
▁ram	-667
id	-668
ouve	-669
enant	-670
▁adul	-671
▁spect	-672
▁arbre	-673
▁swe	-674
▁fl	-675
▁faire	-676
▁attrap	-677
orm	-678
▁prof	-679
▁sweat	-680
▁parle	-681
▁manteau	-682
tic	-683
ance	-684
▁pub	-685
▁prom	-686
▁skateboard	-687
urant	-688
oire	-689
▁gil	-690
▁noirs	-691
▁coll	-692
▁micro	-693
▁passe	-694
ied	-695
▁couv	-696
▁desc	-697
▁char	-698
▁comp	-699
▁publ	-700
▁journée	-701
▁bras	-702
▁blancs	-703
▁ess	-704
▁pan	-705
▁resta	-706
▁allong	-707
▁color	-708
▁feu	-709
▁visage	-710
▁an	-711
▁vieil	-712
nis	-713
▁lit	-714
▁entre	-715
▁travaille	-716
uie	-717
▁ép	-718
▁courent	-719
▁ce	-720
▁âgé	-721
▁danse	-722
op	-723
leur	-724
▁bask	-725
▁frap	-726
af	-727
ide	-728
▁fil	-729
▁face	-730
▁pied	-731
▁blonde	-732
▁chemin	-733
▁restaurant	-734
ole	-735
▁nu	-736
▁riv	-737
▁rasse	-738
▁tennis	-739
coup	-740
▁déb	-741
ction	-742
▁ent	-743
▁eux	-744
▁montagne	-745
aî	-746
▁ag	-747
igne	-748
▁ta	-749
▁salle	-750
▁sourit	-751
▁pat	-752
tique	-753
▁attend	-754
éan	-755
▁océan	-756
▁portable	-757
▁sp	-758
teau	-759
▁vend	-760
▁vol	-761
▁beau	-762
ke	-763
rès	-764
lles	-765
▁liv	-766
▁pier	-767
▁mains	-768
ow	-769
▁cin	-770
▁appr	-771
▁moto	-772
▁pose	-773
▁chauss	-774
▁public	-775
vers	-776
▁ser	-777
▁bain	-778
▁entr	-779
▁peint	-780
ix	-781
ale	-782
istes	-783
▁cinq	-784
iff	-785
iot	-786
▁piste	-787
▁arbres	-788
aine	-789
teur	-790
▁mang	-791
▁ord	-792
▁disc	-793
▁mais	-794
éc	-795
ché	-796
▁fleurs	-797
uits	-798
nes	-799
▁jeu	-800
▁plein	-801
▁rempl	-802
▁appare	-803
ég	-804
ouse	-805
▁âgée	-806
▁après	-807
▁cuisine	-808
▁tir	-809
ateur	-810
▁fonc	-811
▁tente	-812
ôt	-813
ents	-814
▁vag	-815
▁américain	-816
▁unif	-817
▁marché	-818
▁appareil	-819
▁baseball	-820
anç	-821
▁comb	-822
orme	-823
ateurs	-824
▁instru	-825
▁per	-826
▁blond	-827
ton	-828
▁te	-829
erte	-830
▁drap	-831
▁part	-832
▁beaucoup	-833
ile	-834
ros	-835
uses	-836
▁parlant	-837
ler	-838
▁él	-839
iennent	-840
▁rassemb	-841
ai	-842
esc	-843
▁écr	-844
▁tenues	-845
yant	-846
▁tab	-847
▁comm	-848
ages	-849
▁vêtus	-850
▁quelqu	-851
▁piè	-852
▁déc	-853
▁jouer	-854
▁débard	-855
isse	-856
▁av	-857
▁fig	-858
▁pap	-859
▁clôt	-860
▁nuit	-861
▁joueurs	-862
▁attraper	-863
tro	-864
▁met	-865
▁tor	-866
▁prépar	-867
▁travaillant	-868
▁aff	-869
▁bus	-870
▁jouet	-871
▁camion	-872
▁ou	-873
▁fen	-874
▁rayé	-875
issant	-876
▁chante	-877
▁ouvriers	-878
om	-879
▁mét	-880
▁mari	-881
▁basket	-882
▁descend	-883
▁pen	-884
▁planche	-885
▁tiennent	-886
ud	-887
▁pê	-888
▁gue	-889
▁anim	-890
▁habillé	-891
▁débardeur	-892
neig	-893
▁livre	-894
pl	-895
▁lac	-896
▁rampe	-897
▁z	-898
▁pont	-899
▁pièce	-900
▁dessus	-901
▁enneig	-902
▁gueule	-903
▁travaillent	-904
▁barbe	-905
▁entour	-906
▁rivière	-907
▁intérieur	-908
aie	-909
▁af	-910
▁con	-911
▁obs	-912
▁bleus	-913
▁mange	-914
▁blanches	-915
ak	-916
ins	-917
équ	-918
▁bonn	-919
▁conc	-920
▁ordin	-921
key	-922
▁mon	-923
▁écl	-924
ureau	-925
▁prod	-926
▁rocher	-927
▁violet	-928
▁adultes	-929
▁musique	-930
▁ils	-931
▁torse	-932
▁semble	-933
▁pi	-934
▁cycliste	-935
▁quelques	-936
mbr	-937
▁éch	-938
ition	-939
▁petits	-940
▁fenêtre	-941
▁bri	-942
▁ra	-943
▁déf	-944
▁nage	-945
illée	-946
▁frapp	-947
▁chaise	-948
▁maison	-949
▁pierre	-950
▁tour	-951
▁couvert	-952
▁spectateurs	-953
▁vé	-954
▁ind	-955
▁tap	-956
▁cons	-957
▁cours	-958
▁balanç	-959
▁mach	-960
▁utilise	-961
▁me	-962
ctif	-963
▁rec	-964
▁être	-965
▁parap	-966
▁clôture	-967
fl	-968
ants	-969
▁sor	-970
▁parapl	-971
▁pelouse	-972
ull	-973
▁sn	-974
ectif	-975
▁objectif	-976
▁carre	-977
▁corde	-978
▁stand	-979
▁chariot	-980
iel	-981
▁év	-982
anges	-983
▁gilet	-984
▁bonnet	-985
▁combin	-986
▁asiatiques	-987
▁arr	-988
▁rép	-989
▁vit	-990
▁objet	-991
▁point	-992
▁marches	-993
uche	-994
▁fris	-995
▁combinais	-996
oux	-997
éro	-998
▁tou	-999
chant	-1000
▁fête	-1001
▁costumes	-1002
ays	-1003
raph	-1004
▁net	-1005
iques	-1006
olesc	-1007
oy	-1008
▁rand	-1009
▁glace	-1010
▁netto	-1011
▁balançoire	-1012
▁do	-1013
éton	-1014
▁polo	-1015
▁snow	-1016
▁zone	-1017
▁manger	-1018
▁fam	-1019
▁pays	-1020
▁métro	-1021
▁vague	-1022
▁montre	-1023
▁posent	-1024
▁adolesc	-1025
▁snowboard	-1026
acle	-1027
▁fau	-1028
▁essay	-1029
▁figure	-1030
▁prenant	-1031
▁bi	-1032
▁jus	-1033
▁sou	-1034
▁sacs	-1035
▁pêche	-1036
▁allongé	-1037
erm	-1038
ffe	-1039
son	-1040
rant	-1041
▁cir	-1042
▁gra	-1043
▁polic	-1044
▁escalade	-1045
▁regarder	-1046
dé	-1047
gg	-1048
neau	-1049
▁partic	-1050
▁recouv	-1051
▁couleur	-1052
mi	-1053
ckey	-1054
nement	-1055
▁bâton	-1056
▁forêt	-1057
astique	-1058
▁hockey	-1059
▁parlent	-1060
▁lo	-1061
iens	-1062
▁band	-1063
▁cond	-1064
▁pull	-1065
▁voit	-1066
▁pieds	-1067
▁trouve	-1068
▁briques	-1069
▁machine	-1070
▁oranges	-1071
eux	-1072
▁fum	-1073
▁lég	-1074
▁panc	-1075
▁tomb	-1076
▁famille	-1077
▁chaussures	-1078
▁caf	-1079
▁embr	-1080
▁avant	-1081
▁beige	-1082
▁pancar	-1083
▁ordinateur	-1084
ach	-1085
ies	-1086
uil	-1087
ffit	-1088
▁cow	-1089
aires	-1090
graph	-1091
▁lanc	-1092
▁lance	-1093
▁colline	-1094
▁graffit	-1095
tos	-1096
▁bu	-1097
▁end	-1098
▁pois	-1099
▁quai	-1100
▁passent	-1101
déo	-1102
équent	-1103
▁music	-1104
▁escalier	-1105
▁fréquent	-1106
▁photograph	-1107
ym	-1108
yen	-1109
ieur	-1110
▁ens	-1111
▁exp	-1112
▁num	-1113
▁canap	-1114
▁longs	-1115
▁moyen	-1116
▁verre	-1117
▁jaunes	-1118
▁prendre	-1119
▁carreaux	-1120
erc	-1121
▁cap	-1122
▁pil	-1123
▁ret	-1124
▁café	-1125
▁dess	-1126
shirts	-1127
▁vieux	-1128
▁casques	-1129
▁fontaine	-1130
boy	-1131
▁dis	-1132
▁saut	-1133
▁canapé	-1134
▁métall	-1135
ls	-1136
gent	-1137
ours	-1138
▁circ	-1139
▁elles	-1140
▁photos	-1141
▁enneigée	-1142
▁combinaison	-1143
igt	-1144
▁doigt	-1145
▁ensole	-1146
erie	-1147
sons	-1148
▁gym	-1149
auche	-1150
▁bruns	-1151
▁faute	-1152
▁pente	-1153
▁noires	-1154
co	-1155
ouss	-1156
▁tous	-1157
itaire	-1158
▁parmi	-1159
▁prépare	-1160
▁fauteuil	-1161
▁parapluie	-1162
▁mas	-1163
icule	-1164
iment	-1165
▁park	-1166
▁somm	-1167
▁roche	-1168
▁entraî	-1169
▁constru	-1170
▁graffitis	-1171
▁ju	-1172
▁dés	-1173
▁mor	-1174
▁vif	-1175
▁dont	-1176
▁alors	-1177
▁défil	-1178
▁sorte	-1179
▁ensoleillée	-1180
▁cu	-1181
▁imp	-1182
▁diff	-1183
▁coure	-1184
▁bleues	-1185
▁travail	-1186
▁utilisant	-1187
bu	-1188
iti	-1189
▁ont	-1190
aises	-1191
▁pomp	-1192
▁frisbe	-1193
▁papier	-1194
ines	-1195
▁pav	-1196
▁stat	-1197
issent	-1198
▁cette	-1199
▁gilets	-1200
▁sommet	-1201
bes	-1202
dre	-1203
hon	-1204
ley	-1205
lier	-1206
entre	-1207
ffect	-1208
▁étud	-1209
▁bouche	-1210
▁effect	-1211
▁fruits	-1212
▁dansent	-1213
▁frisbee	-1214
▁ouvrier	-1215
uy	-1216
ini	-1217
ote	-1218
ceau	-1219
ouill	-1220
▁loin	-1221
▁attendent	-1222
aud	-1223
ice	-1224
ante	-1225
iver	-1226
roup	-1227
vent	-1228
▁esp	-1229
urité	-1230
▁hiver	-1231
▁adulte	-1232
▁numéro	-1233
▁nombreux	-1234
az	-1235
lè	-1236
▁lè	-1237
▁ach	-1238
▁toit	-1239
▁béton	-1240
▁clair	-1241
▁genoux	-1242
▁statue	-1243
▁vêtues	-1244
▁frapper	-1245
▁panneau	-1246
▁attendant	-1247
ém	-1248
xim	-1249
umes	-1250
▁nus	-1251
▁tas	-1252
ormes	-1253
▁sport	-1254
▁bureau	-1255
▁différ	-1256
▁cyclistes	-1257
▁plastique	-1258
onge	-1259
oute	-1260
▁véh	-1261
▁airs	-1262
▁sans	-1263
▁tire	-1264
ximité	-1265
▁pleine	-1266
▁pousse	-1267
▁rassembl	-1268
▁uniforme	-1269
▁proximité	-1270
oss	-1271
▁vue	-1272
▁gymn	-1273
▁boute	-1274
▁journal	-1275
▁w	-1276
▁cig	-1277
▁réc	-1278
cture	-1279
entes	-1280
▁passant	-1281
▁instruments	-1282
pt	-1283
▁dam	-1284
▁séc	-1285
chers	-1286
▁sort	-1287
▁stru	-1288
▁ligne	-1289
▁cuisin	-1290
▁lisant	-1291
▁posant	-1292
▁dansant	-1293
▁essayant	-1294
ales	-1295
▁jet	-1296
▁bond	-1297
▁volley	-1298
▁drapeau	-1299
▁rochers	-1300
▁feuilles	-1301
▁pancarte	-1302
▁spectacle	-1303
let	-1304
ibre	-1305
▁lum	-1306
▁six	-1307
▁âge	-1308
▁éle	-1309
▁évé	-1310
ivers	-1311
▁ciel	-1312
▁monte	-1313
▁portent	-1314
▁montagnes	-1315
▁uniformes	-1316
▁événement	-1317
oses	-1318
rique	-1319
▁mère	-1320
▁réun	-1321
▁argent	-1322
▁classe	-1323
▁randonn	-1324
▁sautent	-1325
▁maillots	-1326
▁particip	-1327
ils	-1328
▁va	-1329
rine	-1330
▁ois	-1331
ières	-1332
▁coin	-1333
▁père	-1334
▁sent	-1335
▁yeux	-1336
ennent	-1337
▁défilé	-1338
▁accroup	-1339
▁chaises	-1340
▁sécurité	-1341
▁traverse	-1342
▁fréquentée	-1343
▁métallique	-1344
ute	-1345
érie	-1346
▁ski	-1347
utent	-1348
▁jard	-1349
▁jupe	-1350
▁place	-1351
▁trans	-1352
▁chemis	-1353
▁foncés	-1354
▁grosse	-1355
▁sauter	-1356
▁concert	-1357
▁promène	-1358
▁mangeant	-1359
▁structure	-1360
▁nombreuses	-1361
pes	-1362
atou	-1363
▁pas	-1364
▁dort	-1365
▁temp	-1366
▁cigar	-1367
▁tapis	-1368
▁lancer	-1369
▁sourient	-1370
ié	-1371
▁pa	-1372
eurs	-1373
tier	-1374
▁dro	-1375
▁épau	-1376
▁bière	-1377
▁repas	-1378
▁rodéo	-1379
▁tatou	-1380
▁écrit	-1381
▁compét	-1382
▁jardin	-1383
▁rempli	-1384
▁écoute	-1385
▁chapeaux	-1386
▁prennent	-1387
▁as	-1388
aque	-1389
ence	-1390
▁rol	-1391
aisse	-1392
ésent	-1393
▁belle	-1394
▁obser	-1395
▁vélos	-1396
oul	-1397
euse	-1398
uant	-1399
▁dég	-1400
▁rem	-1401
antes	-1402
mbres	-1403
▁camp	-1404
▁jeux	-1405
▁comme	-1406
▁étant	-1407
▁roulant	-1408
▁sentier	-1409
▁habillée	-1410
▁voitures	-1411
▁étudiant	-1412
ait	-1413
art	-1414
ême	-1415
puis	-1416
▁pre	-1417
âteau	-1418
ignant	-1419
▁brune	-1420
▁équil	-1421
▁étend	-1422
▁depuis	-1423
▁panier	-1424
▁plonge	-1425
▁éclair	-1426
bogg	-1427
▁bot	-1428
▁sup	-1429
▁exam	-1430
▁gard	-1431
▁éche	-1432
boggan	-1433
▁accro	-1434
▁légumes	-1435
▁toboggan	-1436
▁compétition	-1437
oi	-1438
ré	-1439
ase	-1440
ive	-1441
urb	-1442
ver	-1443
▁jo	-1444
iche	-1445
▁mul	-1446
▁rap	-1447
▁sus	-1448
▁amis	-1449
▁donne	-1450
▁gauche	-1451
▁glisse	-1452
▁longue	-1453
▁tablier	-1454
▁équilibre	-1455
▁instrument	-1456
▁bik	-1457
▁fer	-1458
▁aide	-1459
▁jamb	-1460
▁prem	-1461
▁camér	-1462
▁tourn	-1463
▁violon	-1464
▁entouré	-1465
ling	-1466
▁bien	-1467
▁grim	-1468
▁barbu	-1469
▁décor	-1470
▁blonds	-1471
▁buvant	-1472
▁chantant	-1473
▁cigarette	-1474
olf	-1475
ande	-1476
esse	-1477
port	-1478
▁fal	-1479
itant	-1480
▁proj	-1481
▁arrêt	-1482
▁pluie	-1483
▁répar	-1484
▁advers	-1485
▁client	-1486
▁frappe	-1487
▁paysage	-1488
▁skateur	-1489
▁vieille	-1490
▁couleurs	-1491
ats	-1492
omb	-1493
ienne	-1494
mmeub	-1495
▁susp	-1496
▁boule	-1497
▁gants	-1498
▁ombre	-1499
▁verts	-1500
▁bottes	-1501
▁immeub	-1502
▁pilote	-1503
▁apprête	-1504
▁ballons	-1505
▁morceau	-1506
fs	-1507
ess	-1508
▁cert	-1509
▁côte	-1510
▁dame	-1511
▁scul	-1512
▁grise	-1513
▁âgées	-1514
itionne	-1515
▁artiste	-1516
▁battent	-1517
▁certain	-1518
▁colorés	-1519
▁drapeaux	-1520
▁habillés	-1521
▁rocheuse	-1522
▁véhicule	-1523
iqu	-1524
aste	-1525
essi	-1526
▁ore	-1527
▁afro	-1528
▁amus	-1529
▁sand	-1530
▁motard	-1531
▁poteau	-1532
▁falaise	-1533
▁suspend	-1534
américain	-1535
▁produits	-1536
▁traversent	-1537
▁ég	-1538
▁bow	-1539
▁env	-1540
▁grav	-1541
▁tent	-1542
▁trad	-1543
▁marti	-1544
▁circul	-1545
▁africain	-1546
▁construction	-1547
uc	-1548
év	-1549
▁pau	-1550
▁peu	-1551
▁bout	-1552
▁dépl	-1553
▁rang	-1554
▁motoc	-1555
▁nouve	-1556
▁micros	-1557
▁embrass	-1558
▁petites	-1559
▁bouteille	-1560
▁bâtiments	-1561
▁préparant	-1562
▁rassemblent	-1563
▁snowboardeur	-1564
▁ru	-1565
aval	-1566
cade	-1567
▁but	-1568
▁cher	-1569
▁seau	-1570
▁foncé	-1571
▁centre	-1572
▁escalad	-1573
▁surfeur	-1574
▁martiaux	-1575
▁peinture	-1576
▁traditionne	-1577
▁he	-1578
▁cad	-1579
▁pal	-1580
▁arts	-1581
▁donn	-1582
▁sauv	-1583
▁serv	-1584
▁robes	-1585
▁temps	-1586
▁caméra	-1587
▁grands	-1588
▁parler	-1589
▁bowling	-1590
▁courses	-1591
▁vendeur	-1592
▁policier	-1593
▁musiciens	-1594
▁ba	-1595
ross	-1596
tons	-1597
▁aid	-1598
▁ath	-1599
▁hor	-1600
ticol	-1601
▁fils	-1602
▁sold	-1603
llement	-1604
▁masque	-1605
▁chevaux	-1606
▁vitrine	-1607
▁multicol	-1608
own	-1609
▁dor	-1610
▁lire	-1611
▁inter	-1612
▁vertes	-1613
▁capuche	-1614
▁convers	-1615
▁mangent	-1616
▁chantier	-1617
▁couverture	-1618
ège	-1619
▁on	-1620
ible	-1621
quet	-1622
▁bag	-1623
estes	-1624
▁agen	-1625
▁empl	-1626
▁flot	-1627
▁même	-1628
▁ayant	-1629
▁pavée	-1630
▁écout	-1631
▁élect	-1632
▁penche	-1633
▁longues	-1634
▁préparent	-1635
▁traversant	-1636
do	-1637
uv	-1638
ères	-1639
▁lieu	-1640
abouss	-1641
▁filet	-1642
▁roses	-1643
▁espace	-1644
▁skieur	-1645
▁utilis	-1646
▁collier	-1647
▁ouverte	-1648
▁échelle	-1649
▁étendue	-1650
▁éclabouss	-1651
ume	-1652
▁ty	-1653
ayak	-1654
çant	-1655
▁bul	-1656
▁élo	-1657
indre	-1658
ériel	-1659
▁glac	-1660
▁trou	-1661
▁âgés	-1662
atique	-1663
▁avoir	-1664
▁canne	-1665
▁coiff	-1666
▁coupe	-1667
▁discu	-1668
▁expos	-1669
▁kayak	-1670
chestre	-1671
▁bulles	-1672
▁dessin	-1673
▁manches	-1674
▁premier	-1675
▁immeuble	-1676
▁matériel	-1677
▁motocross	-1678
▁go	-1679
▁ban	-1680
▁cer	-1681
terie	-1682
▁chin	-1683
▁tend	-1684
▁avion	-1685
▁rayée	-1686
▁échar	-1687
▁écran	-1688
▁bikini	-1689
▁rivage	-1690
essionne	-1691
▁peluche	-1692
▁orchestre	-1693
▁poussette	-1694
▁descendant	-1695
▁différentes	-1696
▁photographe	-1697
▁câ	-1698
inte	-1699
osse	-1700
rent	-1701
▁cre	-1702
▁mer	-1703
▁foul	-1704
▁semb	-1705
▁tiss	-1706
▁autom	-1707
▁forme	-1708
▁roule	-1709
▁droite	-1710
▁employ	-1711
▁gâteau	-1712
▁sombre	-1713
▁tirant	-1714
▁vagues	-1715
▁parking	-1716
▁poisson	-1717
▁remplie	-1718
▁allongée	-1719
▁batterie	-1720
▁pompiers	-1721
▁discutent	-1722
▁adolescent	-1723
by	-1724
sse	-1725
agne	-1726
itre	-1727
▁nat	-1728
▁urb	-1729
▁étr	-1730
adeau	-1731
athon	-1732
▁quar	-1733
▁heure	-1734
▁resse	-1735
▁promen	-1736
▁vendant	-1737
▁équipes	-1738
▁marathon	-1739
▁professionne	-1740
ore	-1741
ustr	-1742
▁bon	-1743
▁pot	-1744
iette	-1745
▁prêt	-1746
▁clown	-1747
▁mouve	-1748
▁patin	-1749
▁essaie	-1750
▁passer	-1751
▁cascade	-1752
▁foulard	-1753
▁marcher	-1754
▁boissons	-1755
▁comptoir	-1756
▁violette	-1757
▁conversation	-1758
ck	-1759
né	-1760
ces	-1761
esti	-1762
▁lab	-1763
▁été	-1764
▁boue	-1765
▁crav	-1766
▁inst	-1767
▁repr	-1768
▁brill	-1769
▁footb	-1770
▁repos	-1771
▁laisse	-1772
▁partie	-1773
▁chinois	-1774
▁coucher	-1775
▁taureau	-1776
▁terrasse	-1777
▁traverser	-1778
▁recouverte	-1779
ner	-1780
ope	-1781
▁ca	-1782
▁gon	-1783
▁inf	-1784
▁ren	-1785
▁rit	-1786
agent	-1787
plomb	-1788
▁dire	-1789
▁hors	-1790
▁manif	-1791
▁animée	-1792
▁clients	-1793
▁footbal	-1794
▁station	-1795
▁tableau	-1796
▁surplomb	-1797
▁pâ	-1798
▁si	-1799
elle	-1800
roit	-1801
▁boî	-1802
▁mir	-1803
▁occ	-1804
▁out	-1805
▁pom	-1806
▁atte	-1807
▁conf	-1808
▁golf	-1809
▁mons	-1810
illage	-1811
▁achet	-1812
▁allée	-1813
▁pause	-1814
▁prote	-1815
▁oiseau	-1816
▁affiche	-1817
▁boisson	-1818
▁endroit	-1819
▁mariage	-1820
▁policiers	-1821
▁recouvert	-1822
cope	-1823
▁bol	-1824
▁dét	-1825
▁eng	-1826
▁siè	-1827
nique	-1828
▁arri	-1829
▁fond	-1830
▁vole	-1831
▁athlè	-1832
▁vient	-1833
▁chauve	-1834
▁ciment	-1835
▁coloré	-1836
▁cordes	-1837
▁guitar	-1838
▁mariée	-1839
▁miroir	-1840
▁projet	-1841
▁attrape	-1842
▁manifes	-1843
▁écharpe	-1844
▁montrant	-1845
▁étudiants	-1846
ger	-1847
oot	-1848
▁ab	-1849
▁im	-1850
▁th	-1851
aiss	-1852
▁har	-1853
▁nav	-1854
▁dorm	-1855
▁piét	-1856
▁voie	-1857
▁dents	-1858
▁fleur	-1859
▁pelle	-1860
▁tasse	-1861
▁objets	-1862
▁roller	-1863
▁transp	-1864
▁cravate	-1865
▁joueuse	-1866
▁promenant	-1867
▁randonnée	-1868
▁rassemblées	-1869
ium	-1870
omp	-1871
▁op	-1872
▁pé	-1873
▁cér	-1874
▁dir	-1875
▁fro	-1876
▁tun	-1877
airie	-1878
chent	-1879
ercle	-1880
▁cuir	-1881
ations	-1882
▁surfe	-1883
▁animal	-1884
▁barbec	-1885
▁divers	-1886
▁endorm	-1887
▁rousse	-1888
▁sculpt	-1889
▁conduit	-1890
▁coureur	-1891
▁coureurs	-1892
▁monsieur	-1893
▁électrique	-1894
aqu	-1895
pom	-1896
pos	-1897
tin	-1898
▁gé	-1899
▁cab	-1900
▁tal	-1901
▁tuy	-1902
▁chat	-1903
▁maqu	-1904
▁obst	-1905
▁métal	-1906
▁souff	-1907
▁tronc	-1908
▁jouets	-1909
▁barbecue	-1910
▁représent	-1911
▁adolescents	-1912
je	-1913
ama	-1914
ici	-1915
acti	-1916
chée	-1917
▁gir	-1918
▁méd	-1919
iller	-1920
uisse	-1921
▁lève	-1922
▁prot	-1923
▁seul	-1924
▁soir	-1925
▁vive	-1926
uisant	-1927
▁juste	-1928
▁paroi	-1929
▁scoot	-1930
▁accord	-1931
▁appréc	-1932
▁déguis	-1933
▁orient	-1934
▁sauvet	-1935
▁taille	-1936
▁vestes	-1937
▁balance	-1938
▁membres	-1939
▁chemisier	-1940
lé	-1941
éon	-1942
ront	-1943
▁ras	-1944
▁ferm	-1945
ignent	-1946
▁artis	-1947
▁caval	-1948
▁gonfl	-1949
▁jette	-1950
▁paras	-1951
▁salon	-1952
▁stade	-1953
▁attent	-1954
▁combat	-1955
▁tables	-1956
▁affront	-1957
▁arbitre	-1958
▁passage	-1959
▁pierres	-1960
▁suspendu	-1961
▁discutant	-1962
▁promenade	-1963
▁écouteurs	-1964
ble	-1965
nel	-1966
vée	-1967
▁én	-1968
ense	-1969
▁hum	-1970
▁sav	-1971
▁vir	-1972
▁bran	-1973
▁chef	-1974
▁jong	-1975
atoire	-1976
▁appuy	-1977
▁jusqu	-1978
▁manège	-1979
▁parasol	-1980
▁prairie	-1981
▁profonde	-1982
▁sandales	-1983
aki	-1984
ens	-1985
ial	-1986
mes	-1987
rée	-1988
lise	-1989
▁asp	-1990
▁ber	-1991
▁cal	-1992
▁gaz	-1993
▁jol	-1994
▁kar	-1995
▁pne	-1996
ènent	-1997
▁boit	-1998
▁cami	-1999
▁batte	-2000
▁motif	-2001
quettes	-2002
▁courts	-2003
▁désert	-2004
▁ruelle	-2005
▁viande	-2006
▁église	-2007
▁épaules	-2008
▁poussant	-2009
▁accordéon	-2010
▁habillées	-2011
▁microscope	-2012
ks	-2013
yc	-2014
èv	-2015
▁id	-2016
▁su	-2017
cour	-2018
▁int	-2019
ables	-2020
forme	-2021
orque	-2022
▁bloc	-2023
▁fume	-2024
▁peut	-2025
lettes	-2026
ortant	-2027
▁barre	-2028
▁labor	-2029
onnette	-2030
▁tunnel	-2031
▁aliment	-2032
▁install	-2033
▁plantes	-2034
▁entraîne	-2035
▁quartier	-2036
▁souriante	-2037
▁effectuant	-2038
▁protection	-2039
la	-2040
até	-2041
cte	-2042
pet	-2043
rer	-2044
rou	-2045
inge	-2046
ivid	-2047
ième	-2048
nant	-2049
onie	-2050
▁fin	-2051
▁off	-2052
▁pag	-2053
▁rub	-2054
ivent	-2055
petit	-2056
ulant	-2057
▁appl	-2058
▁cano	-2059
▁corp	-2060
▁four	-2061
▁kaki	-2062
▁rues	-2063
▁tric	-2064
▁vide	-2065
ouette	-2066
ouillé	-2067
▁plate	-2068
▁seule	-2069
▁tuyau	-2070
▁toutes	-2071
▁individ	-2072
▁barrière	-2073
▁raquette	-2074
▁mouvement	-2075
▁surplombant	-2076
▁représentant	-2077
con	-2078
tif	-2079
éch	-2080
▁py	-2081
arde	-2082
▁gri	-2083
▁reb	-2084
▁éto	-2085
▁atta	-2086
assant	-2087
ophone	-2088
▁appro	-2089
▁blous	-2090
▁cérém	-2091
▁poube	-2092
▁signe	-2093
▁bâtons	-2094
▁courir	-2095
▁grimpe	-2096
▁ruisse	-2097
▁réunis	-2098
▁télesc	-2099
▁virage	-2100
▁balustr	-2101
▁donnant	-2102
▁accroupi	-2103
▁randonne	-2104
▁remorque	-2105
▁sauvetage	-2106
▁sculpture	-2107
▁laboratoire	-2108
▁multicolore	-2109
vé	-2110
ane	-2111
vel	-2112
▁aj	-2113
▁dr	-2114
▁hô	-2115
▁sm	-2116
oufl	-2117
êtes	-2118
▁cet	-2119
▁dou	-2120
▁dém	-2121
▁dép	-2122
▁emp	-2123
▁faç	-2124
▁joy	-2125
ampol	-2126
▁bill	-2127
▁boîte	-2128
itaires	-2129
▁bordée	-2130
▁caisse	-2131
▁karaté	-2132
▁police	-2133
▁rangée	-2134
▁repose	-2135
▁sieste	-2136
▁superm	-2137
▁vendre	-2138
▁énorme	-2139
ampoline	-2140
▁colorée	-2141
▁nageant	-2142
▁scooter	-2143
▁baskette	-2144
▁cérémonie	-2145
▁profitant	-2146
▁rassemble	-2147
▁télescope	-2148
▁trampoline	-2149
▁travailler	-2150
amb	-2151
sant	-2152
▁bad	-2153
▁cit	-2154
▁inc	-2155
▁pin	-2156
▁sax	-2157
afaud	-2158
▁déch	-2159
▁traî	-2160
▁voir	-2161
▁écri	-2162
ifique	-2163
▁crois	-2164
▁festi	-2165
▁grimp	-2166
▁jambe	-2167
▁pique	-2168
▁trouv	-2169
▁attach	-2170
▁fumant	-2171
▁ouvert	-2172
▁épaule	-2173
▁batteur	-2174
▁piétons	-2175
▁produit	-2176
▁effectue	-2177
▁ruisseau	-2178
▁semblent	-2179
▁échafaud	-2180
▁escaliers	-2181
▁nettoyant	-2182
▁promènent	-2183
▁balustrade	-2184
▁volleyball	-2185
▁participant	-2186
itu	-2187
oté	-2188
▁dî	-2189
onné	-2190
ores	-2191
▁alp	-2192
gging	-2193
▁fres	-2194
▁plat	-2195
▁soit	-2196
▁align	-2197
▁girls	-2198
▁hauts	-2199
▁rient	-2200
▁tissu	-2201
▁têtes	-2202
▁entrée	-2203
▁motifs	-2204
▁parach	-2205
▁soirée	-2206
▁touche	-2207
▁endormi	-2208
▁gymnase	-2209
▁nettoie	-2210
▁attracti	-2211
▁campagne	-2212
▁entourée	-2213
▁roulettes	-2214
▁solitaire	-2215
io	-2216
od	-2217
val	-2218
yer	-2219
hous	-2220
sion	-2221
ules	-2222
▁ann	-2223
▁mou	-2224
▁nez	-2225
▁uns	-2226
▁vin	-2227
housi	-2228
itent	-2229
teaux	-2230
▁achè	-2231
▁aire	-2232
▁eaux	-2233
▁gobe	-2234
▁mous	-2235
▁roue	-2236
▁roux	-2237
▁sale	-2238
▁sept	-2239
▁trac	-2240
tation	-2241
▁cadre	-2242
▁ident	-2243
▁magaz	-2244
▁nuage	-2245
▁riant	-2246
▁récup	-2247
▁voici	-2248
▁bondée	-2249
▁brosse	-2250
▁cercle	-2251
▁couper	-2252
▁dirige	-2253
▁doigts	-2254
▁découp	-2255
▁examin	-2256
▁paille	-2257
▁patine	-2258
▁enneigé	-2259
▁examine	-2260
▁gardien	-2261
▁lumière	-2262
▁chemises	-2263
▁colorées	-2264
▁enthousi	-2265
▁lumières	-2266
▁poubelle	-2267
▁descendent	-2268
▁escaladant	-2269
ash	-2270
lin	-2271
ocu	-2272
ork	-2273
▁ol	-2274
▁us	-2275
iles	-2276
ités	-2277
lers	-2278
quer	-2279
vête	-2280
▁ces	-2281
▁cha	-2282
▁cho	-2283
▁gam	-2284
mment	-2285
neaux	-2286
▁coul	-2287
▁gare	-2288
▁pain	-2289
▁artic	-2290
▁façon	-2291
▁navig	-2292
▁surve	-2293
▁école	-2294
▁balaie	-2295
▁cowboy	-2296
▁façade	-2297
▁indien	-2298
▁moment	-2299
▁passag	-2300
▁penché	-2301
▁commerc	-2302
▁mettant	-2303
▁roulent	-2304
▁soldats	-2305
▁certains	-2306
▁glissant	-2307
▁gymnaste	-2308
▁gonflable	-2309
▁militaire	-2310
▁pantalons	-2311
▁utilisent	-2312
▁équipement	-2313
▁participent	-2314
rob	-2315
ème	-2316
apin	-2317
lève	-2318
mand	-2319
oise	-2320
▁adm	-2321
▁box	-2322
▁imm	-2323
▁loc	-2324
▁lut	-2325
▁new	-2326
▁sho	-2327
▁sty	-2328
▁tex	-2329
▁gril	-2330
▁lang	-2331
▁lanç	-2332
▁type	-2333
▁étre	-2334
▁acrob	-2335
▁alpin	-2336
▁bondé	-2337
▁brand	-2338
▁haute	-2339
▁jetée	-2340
▁occup	-2341
▁prati	-2342
▁balcon	-2343
▁chevau	-2344
▁hautes	-2345
▁jambes	-2346
▁shorts	-2347
▁urbain	-2348
▁adverse	-2349
▁coupant	-2350
▁figures	-2351
▁fresque	-2352
▁lanceur	-2353
▁lançant	-2354
▁marteau	-2355
▁montent	-2356
▁pompier	-2357
▁retourn	-2358
▁éloigne	-2359
▁manteaux	-2360
▁obstacle	-2361
▁peignant	-2362
▁écoutant	-2363
▁guitariste	-2364
▁marchandis	-2365
▁randonneur	-2366
▁randonneurs	-2367
zz	-2368
agn	-2369
ich	-2370
uer	-2371
uge	-2372
vol	-2373
way	-2374
▁rug	-2375
▁sec	-2376
arché	-2377
tball	-2378
êtant	-2379
▁ajus	-2380
▁inté	-2381
▁mout	-2382
▁perc	-2383
▁pout	-2384
▁quad	-2385
▁ramb	-2386
▁appar	-2387
▁chiot	-2388
▁contr	-2389
▁monde	-2390
▁plaqu	-2391
▁queue	-2392
▁ruban	-2393
▁vache	-2394
▁écoss	-2395
▁étang	-2396
▁appuie	-2397
▁couché	-2398
▁détend	-2399
▁livres	-2400
▁tabour	-2401
▁tourne	-2402
▁animaux	-2403
▁applaud	-2404
▁bagages	-2405
▁nouveau	-2406
▁oiseaux	-2407
▁profite	-2408
▁présent	-2409
▁réparer	-2410
▁sourire	-2411
▁surface	-2412
▁travaux	-2413
▁articles	-2414
▁festival	-2415
▁parcours	-2416
▁rassemblés	-2417
▁supermarché	-2418
▁traditionnels	-2419
ca	-2420
mé	-2421
ra	-2422
err	-2423
ist	-2424
urg	-2425
ôle	-2426
chet	-2427
uter	-2428
veur	-2429
ycle	-2430
èche	-2431
▁cro	-2432
▁lav	-2433
▁mod	-2434
▁rel	-2435
asser	-2436
ondes	-2437
▁buis	-2438
▁déje	-2439
▁mord	-2440
▁peau	-2441
▁offic	-2442
▁toute	-2443
▁blouse	-2444
▁langue	-2445
▁mousta	-2446
▁outils	-2447
▁étrang	-2448
eusement	-2449
▁athlète	-2450
▁brandit	-2451
▁comment	-2452
▁couloir	-2453
▁heureux	-2454
▁montant	-2455
▁ordures	-2456
▁plateau	-2457
▁ressemb	-2458
▁tentent	-2459
▁chantent	-2460
▁publique	-2461
▁tatouage	-2462
▁téléphon	-2463
▁saxophone	-2464
▁circulation	-2465
ail	-2466
min	-2467
apon	-2468
ator	-2469
ital	-2470
ives	-2471
oure	-2472
uies	-2473
èque	-2474
▁amb	-2475
▁ami	-2476
▁aér	-2477
▁bor	-2478
▁dit	-2479
▁voy	-2480
fléch	-2481
ieuse	-2482
illon	-2483
▁chez	-2484
▁coté	-2485
▁disp	-2486
▁film	-2487
▁grat	-2488
▁luge	-2489
▁magn	-2490
▁pian	-2491
▁spor	-2492
▁tamb	-2493
▁tape	-2494
▁image	-2495
▁japon	-2496
▁salop	-2497
▁salto	-2498
▁voile	-2499
èrement	-2500
▁bandan	-2501
▁compos	-2502
▁couvre	-2503
▁déjeun	-2504
▁piéton	-2505
térieure	-2506
▁cherche	-2507
▁jogging	-2508
▁observe	-2509
▁pratiqu	-2510
▁réfléch	-2511
▁trottin	-2512
▁cavalier	-2513
▁frappant	-2514
▁direction	-2515
▁monticule	-2516
▁troisième	-2517
▁affrontent	-2518
▁militaires	-2519
▁parapluies	-2520
▁passerelle	-2521
▁éclaboussures	-2522
ok	-2523
tt	-2524
▁sé	-2525
▁ve	-2526
ache	-2527
agon	-2528
ards	-2529
▁anc	-2530
▁cré	-2531
▁gal	-2532
▁pyj	-2533
▁sof	-2534
▁thé	-2535
▁vtt	-2536
geant	-2537
ignes	-2538
▁bass	-2539
▁chor	-2540
▁flan	-2541
▁jour	-2542
▁pavé	-2543
▁pris	-2544
uisent	-2545
▁agent	-2546
▁balai	-2547
▁dîner	-2548
▁front	-2549
▁impos	-2550
▁inspe	-2551
▁motos	-2552
▁mélan	-2553
▁tenir	-2554
▁tombe	-2555
▁vidéo	-2556
alement	-2557
ivement	-2558
ouflage	-2559
▁cadeau	-2560
▁carton	-2561
▁confér	-2562
▁pattes	-2563
▁rapide	-2564
▁soldat	-2565
▁amusent	-2566
▁rollers	-2567
▁chanteur	-2568
▁musicien	-2569
▁chevauche	-2570
▁salopette	-2571
▁touristes	-2572
▁camouflage	-2573
og	-2574
ze	-2575
tés	-2576
ymp	-2577
▁ph	-2578
chés	-2579
cule	-2580
erne	-2581
ieux	-2582
ress	-2583
rier	-2584
upes	-2585
èves	-2586
émin	-2587
érer	-2588
▁arm	-2589
▁bér	-2590
▁dél	-2591
▁emb	-2592
aient	-2593
aines	-2594
ident	-2595
ousse	-2596
▁aéro	-2597
▁chaî	-2598
▁clav	-2599
▁dist	-2600
▁docu	-2601
▁orig	-2602
▁prop	-2603
▁rece	-2604
▁trop	-2605
▁arros	-2606
▁arène	-2607
▁creus	-2608
▁ouvre	-2609
▁piano	-2610
▁siège	-2611
▁agenou	-2612
▁danser	-2613
▁flaque	-2614
▁foncée	-2615
▁humide	-2616
▁pyjama	-2617
▁verres	-2618
▁volant	-2619
▁élèves	-2620
▁amusant	-2621
▁chambre	-2622
▁rayures	-2623
▁tentant	-2624
▁couverte	-2625
▁rambarde	-2626
▁softball	-2627
▁atteindre	-2628
▁serviette	-2629
▁différents	-2630
▁alimentaire	-2631
▁joyeusement	-2632
▁ordinateurs	-2633
▁attentivement	-2634
cs	-2635
pée	-2636
ris	-2637
dium	-2638
enne	-2639
rime	-2640
▁aud	-2641
▁cel	-2642
▁men	-2643
▁min	-2644
ision	-2645
trait	-2646
▁alle	-2647
▁chac	-2648
▁cham	-2649
▁envo	-2650
▁expl	-2651
▁mini	-2652
▁murs	-2653
▁palm	-2654
▁rock	-2655
▁skis	-2656
▁york	-2657
ageant	-2658
ctions	-2659
▁boire	-2660
▁câlin	-2661
▁côtés	-2662
▁linge	-2663
▁marié	-2664
▁rugby	-2665
▁tromp	-2666
▁mettre	-2667
▁podium	-2668
▁pourch	-2669
▁radeau	-2670
▁talons	-2671
▁attaché	-2672
▁bandana	-2673
▁boivent	-2674
▁clavier	-2675
▁dormant	-2676
▁déserte	-2677
▁surfant	-2678
▁assiette	-2679
▁danseuse	-2680
▁embrasse	-2681
▁employés	-2682
▁flottant	-2683
▁tabouret	-2684
▁tracteur	-2685
▁éclairée	-2686
▁descendre	-2687
▁escalator	-2688
▁pancartes	-2689
▁parachute	-2690
▁commercial	-2691
▁conduisant	-2692
▁exposition	-2693
▁chaussettes	-2694
▁footballeurs	-2695
▁transportant	-2696
▁rassemblement	-2697
lo	-2698
bre	-2699
cor	-2700
gle	-2701
ipe	-2702
▁bm	-2703
aman	-2704
otte	-2705
tron	-2706
▁flu	-2707
▁fus	-2708
▁kit	-2709
▁lar	-2710
▁mal	-2711
▁pré	-2712
▁sil	-2713
ayant	-2714
celle	-2715
hèque	-2716
lette	-2717
tiste	-2718
▁bate	-2719
▁boug	-2720
▁club	-2721
▁hall	-2722
▁huit	-2723
▁incl	-2724
▁pige	-2725
▁sert	-2726
ection	-2727
icules	-2728
▁acous	-2729
▁ceint	-2730
▁envir	-2731
▁gamin	-2732
▁jupes	-2733
▁plong	-2734
▁balade	-2735
▁clôtur	-2736
▁coudre	-2737
▁fermés	-2738
▁herbes	-2739
▁tambour	-2740
▁allemand	-2741
▁chaussée	-2742
▁natation	-2743
▁oreilles	-2744
▁apprêtant	-2745
▁fréquenté	-2746
▁poussière	-2747
▁publicité	-2748
▁acoustique	-2749
▁conférence	-2750
▁camionnette	-2751
▁chevauchant	-2752
▁footballeur	-2753
▁trottinette	-2754
▁professionnelle	-2755
ack	-2756
rif	-2757
alis	-2758
ocks	-2759
âtre	-2760
▁ant	-2761
▁cél	-2762
▁lam	-2763
adins	-2764
ceaux	-2765
isent	-2766
oupes	-2767
teurs	-2768
équip	-2769
▁foin	-2770
▁harn	-2771
▁situ	-2772
▁tran	-2773
iments	-2774
▁blocs	-2775
▁béret	-2776
▁colle	-2777
▁jolie	-2778
▁poign	-2779
▁sapin	-2780
▁tirer	-2781
▁télév	-2782
▁vives	-2783
▁balles	-2784
▁cartes	-2785
▁corpul	-2786
▁garage	-2787
▁glaces	-2788
▁monter	-2789
▁perche	-2790
▁poutre	-2791
▁rebord	-2792
▁répare	-2793
▁termin	-2794
iblement	-2795
▁battant	-2796
▁blouson	-2797
▁coéquip	-2798
▁feuille	-2799
▁gradins	-2800
▁grandes	-2801
▁visages	-2802
▁ambulant	-2803
▁aéroport	-2804
▁brillant	-2805
▁buissons	-2806
▁discuter	-2807
▁poissons	-2808
▁trouvent	-2809
▁certaines	-2810
▁participe	-2811
▁profitent	-2812
▁ressemble	-2813
▁basketteur	-2814
▁embrassant	-2815
▁manifestant	-2816
▁échafaudage	-2817
▁;	-2818
adl	-2819
cin	-2820
ios	-2821
lée	-2822
▁sy	-2823
▁tu	-2824
enir	-2825
lage	-2826
ossé	-2827
otes	-2828
tres	-2829
uent	-2830
uvre	-2831
▁bij	-2832
▁blo	-2833
▁cat	-2834
▁fan	-2835
▁fri	-2836
▁joc	-2837
▁sar	-2838
afond	-2839
▁auto	-2840
▁fluo	-2841
▁kios	-2842
▁muse	-2843
▁pile	-2844
▁poil	-2845
▁prés	-2846
▁quit	-2847
▁rame	-2848
▁rire	-2849
▁sais	-2850
▁vété	-2851
▁étal	-2852
doyant	-2853
▁bancs	-2854
▁corne	-2855
▁droit	-2856
▁fémin	-2857
▁grill	-2858
▁olymp	-2859
▁soule	-2860
▁stati	-2861
adlocks	-2862
▁aidant	-2863
▁appuyé	-2864
▁berger	-2865
▁choses	-2866
▁jockey	-2867
▁plaque	-2868
▁pointe	-2869
▁tirent	-2870
▁automne	-2871
▁bateaux	-2872
▁brandis	-2873
▁employé	-2874
▁gobelet	-2875
▁mouillé	-2876
▁plafond	-2877
▁soulève	-2878
▁aliments	-2879
▁allongés	-2880
▁danseurs	-2881
▁nettoyer	-2882
▁position	-2883
▁africains	-2884
▁individus	-2885
▁verdoyant	-2886
▁bouteilles	-2887
▁casquettes	-2888
▁enthousias	-2889
▁identiques	-2890
▁attractions	-2891
▁brandissant	-2892
▁marchandises	-2893
▁multicolores	-2894
▁manifestation	-2895
aw	-2896
cul	-2897
ket	-2898
pti	-2899
ates	-2900
oles	-2901
rées	-2902
▁aqu	-2903
▁bib	-2904
▁bmx	-2905
▁bre	-2906
▁dre	-2907
▁fon	-2908
▁gui	-2909
▁hul	-2910
▁lév	-2911
▁péd	-2912
▁vic	-2913
cteur	-2914
endie	-2915
onnée	-2916
phone	-2917
toire	-2918
▁ange	-2919
▁appe	-2920
▁carn	-2921
▁extr	-2922
▁file	-2923
▁gant	-2924
▁méde	-2925
illant	-2926
ipient	-2927
▁carte	-2928
▁cônes	-2929
▁décol	-2930
▁gazon	-2931
▁jeans	-2932
▁plant	-2933
▁wagon	-2934
▁arrête	-2935
▁bander	-2936
▁chacun	-2937
▁chaîne	-2938
▁distri	-2939
▁dormir	-2940
▁entrep	-2941
▁pellet	-2942
▁pleure	-2943
▁sièges	-2944
▁tomber	-2945
ablement	-2946
▁circuit	-2947
▁kiosque	-2948
▁motards	-2949
▁toucher	-2950
▁vitesse	-2951
▁éclairé	-2952
▁accroche	-2953
▁affaires	-2954
▁discours	-2955
▁indienne	-2956
▁planches	-2957
▁portrait	-2958
▁utiliser	-2959
▁étranger	-2960
▁alpiniste	-2961
▁chaussure	-2962
▁cuisinant	-2963
▁danseuses	-2964
▁fauteuils	-2965
▁passagers	-2966
▁récipient	-2967
▁transport	-2968
▁adversaire	-2969
▁dreadlocks	-2970
▁magnifique	-2971
▁ressemblant	-2972
▁publicitaire	-2973
▁travailleurs	-2974
hn	-2975
ps	-2976
uf	-2977
man	-2978
oit	-2979
rés	-2980
ufs	-2981
vis	-2982
éph	-2983
▁di	-2984
▁mâ	-2985
ager	-2986
assé	-2987
lets	-2988
ongs	-2989
sses	-2990
▁arc	-2991
▁div	-2992
▁dur	-2993
▁eff	-2994
▁emm	-2995
▁eur	-2996
▁exc	-2997
▁flâ	-2998
▁lev	-2999
▁soc	-3000
▁tax	-3001
▁éti	-3002
isser	-3003
pital	-3004
ssion	-3005
ément	-3006
êtent	-3007
▁bamb	-3008
▁cray	-3009
▁form	-3010
▁lamp	-3011
▁poit	-3012
▁silh	-3013
▁sout	-3014
▁trib	-3015
▁voil	-3016
▁écar	-3017
▁étro	-3018
iquant	-3019
▁aider	-3020
▁artif	-3021
▁baign	-3022
▁basse	-3023
▁frais	-3024
▁prêts	-3025
▁sandw	-3026
▁sculp	-3027
▁smash	-3028
▁vaste	-3029
▁vérif	-3030
▁éléph	-3031
▁action	-3032
▁atterr	-3033
▁chaude	-3034
▁décont	-3035
▁jongle	-3036
▁pliant	-3037
▁scient	-3038
onnement	-3039
▁acheter	-3040
▁agitant	-3041
▁artisan	-3042
▁chanter	-3043
▁harnais	-3044
▁oreille	-3045
▁sortant	-3046
▁urbaine	-3047
▁village	-3048
▁approche	-3049
▁commence	-3050
▁déjeuner	-3051
▁enseigne	-3052
▁magazine	-3053
▁montrent	-3054
▁préparer	-3055
▁cuisinier	-3056
▁patinoire	-3057
▁portables	-3058
▁récupérer	-3059
▁véhicules	-3060
▁américains	-3061
▁basketball	-3062
▁embrassent	-3063
▁légèrement	-3064
▁métalliques	-3065
▁combinaisons	-3066
▁entraînement	-3067
▁réfléchissant	-3068
he	-3069
jo	-3070
cer	-3071
lex	-3072
ots	-3073
qué	-3074
ssi	-3075
tel	-3076
golf	-3077
isme	-3078
iére	-3079
liot	-3080
▁crâ	-3081
▁din	-3082
▁fab	-3083
▁jun	-3084
▁kil	-3085
▁nau	-3086
▁tre	-3087
isson	-3088
uyant	-3089
velop	-3090
▁asse	-3091
▁doré	-3092
▁enco	-3093
▁hula	-3094
▁impl	-3095
▁lass	-3096
▁lave	-3097
▁obsc	-3098
▁opér	-3099
▁paix	-3100
▁papa	-3101
▁pneu	-3102
▁pâte	-3103
▁soud	-3104
▁tram	-3105
▁écol	-3106
▁épée	-3107
iettes	-3108
quoise	-3109
ulaire	-3110
érique	-3111
▁admir	-3112
▁boisé	-3113
▁bordé	-3114
▁chans	-3115
▁crête	-3116
▁froid	-3117
▁manip	-3118
▁musée	-3119
▁palet	-3120
▁prise	-3121
▁verse	-3122
▁ajuste	-3123
▁baller	-3124
▁commun	-3125
▁encour	-3126
▁entret	-3127
▁envoie	-3128
▁filets	-3129
▁inform	-3130
▁jungle	-3131
▁membre	-3132
▁moteur	-3133
▁nagent	-3134
▁portes	-3135
aisselle	-3136
▁alignés	-3137
▁bibliot	-3138
▁camping	-3139
▁cartons	-3140
▁déplace	-3141
▁gravier	-3142
▁groupes	-3143
▁origine	-3144
▁peindre	-3145
▁étrange	-3146
▁achetant	-3147
▁grimpant	-3148
▁imposant	-3149
▁incendie	-3150
▁reposent	-3151
américaine	-3152
▁observent	-3153
▁poussiére	-3154
▁trompette	-3155
▁vététiste	-3156
▁appréciant	-3157
▁entraîneur	-3158
▁rapidement	-3159
▁télévision	-3160
▁automatique	-3161
▁bibliothèque	-3162
▁téléphonique	-3163
▁partiellement	-3164
gé	-3165
po	-3166
irm	-3167
ouc	-3168
riz	-3169
▁ém	-3170
atie	-3171
ciel	-3172
ctée	-3173
ides	-3174
illé	-3175
less	-3176
once	-3177
quel	-3178
rale	-3179
▁ate	-3180
▁dem	-3181
▁dom	-3182
▁fix	-3183
▁fou	-3184
▁tub	-3185
alise	-3186
açant	-3187
orses	-3188
uvres	-3189
▁cric	-3190
▁cône	-3191
▁hoop	-3192
▁posé	-3193
▁tube	-3194
▁boucl	-3195
▁faite	-3196
▁foire	-3197
▁géant	-3198
▁horiz	-3199
▁lampe	-3200
▁large	-3201
▁lasso	-3202
▁maman	-3203
▁médic	-3204
▁pouce	-3205
▁serre	-3206
▁tombé	-3207
▁vitre	-3208
onneuse	-3209
▁ancien	-3210
▁bassin	-3211
▁battre	-3212
▁bijoux	-3213
▁cabane	-3214
▁chaque	-3215
▁charge	-3216
▁déplac	-3217
▁inters	-3218
▁lavant	-3219
▁levant	-3220
▁marine	-3221
▁torses	-3222
▁atelier	-3223
▁billard	-3224
▁boueuse	-3225
▁branche	-3226
▁caresse	-3227
▁chanson	-3228
▁cricket	-3229
▁dessous	-3230
▁envelop	-3231
▁escrime	-3232
▁griller	-3233
▁grimace	-3234
▁hôpital	-3235
▁maisons	-3236
▁serrant	-3237
▁souffle	-3238
▁tramway	-3239
iversaire	-3240
▁accident	-3241
▁accroché	-3242
▁artistes	-3243
▁athlètes	-3244
▁carnaval	-3245
▁coiffure	-3246
▁distribu	-3247
▁journaux	-3248
▁nautique	-3249
▁panneaux	-3250
▁plancher	-3251
▁poitrine	-3252
▁sandwich	-3253
▁vêtement	-3254
▁accroupie	-3255
▁africaine	-3256
▁apprêtent	-3257
▁chanteuse	-3258
▁moustache	-3259
▁opération	-3260
▁plongeant	-3261
▁faiblement	-3262
▁maquillage	-3263
▁microphone	-3264
▁agenouillée	-3265
▁anniversaire	-3266
▁intersection	-3267
ni	-3268
th	-3269
abl	-3270
bus	-3271
col	-3272
ids	-3273
ipp	-3274
oue	-3275
èle	-3276
▁mi	-3277
▁éb	-3278
bles	-3279
dans	-3280
ermé	-3281
esur	-3282
form	-3283
orte	-3284
vres	-3285
▁mix	-3286
▁mun	-3287
▁raf	-3288
▁reç	-3289
▁rég	-3290
asses	-3291
asure	-3292
ature	-3293
corps	-3294
ibles	-3295
ielle	-3296
lants	-3297
onnes	-3298
ument	-3299
▁arme	-3300
▁bonb	-3301
▁cadd	-3302
▁cerf	-3303
▁crép	-3304
▁dune	-3305
▁exéc	-3306
▁faux	-3307
▁kilt	-3308
▁meub	-3309
▁nace	-3310
▁ours	-3311
▁pizz	-3312
▁prob	-3313
▁scol	-3314
▁tiré	-3315
▁tond	-3316
▁tron	-3317
▁turb	-3318
▁vous	-3319
▁élég	-3320
aisses	-3321
assent	-3322
illeux	-3323
ucteur	-3324
volant	-3325
▁agric	-3326
▁aller	-3327
▁amuse	-3328
▁audit	-3329
▁beach	-3330
▁bless	-3331
▁break	-3332
▁compl	-3333
▁flanc	-3334
▁fusil	-3335
▁musel	-3336
▁patau	-3337
▁pours	-3338
▁relig	-3339
▁roues	-3340
▁tongs	-3341
▁vente	-3342
▁accomp	-3343
▁adossé	-3344
▁balanc	-3345
▁barres	-3346
▁boisée	-3347
▁cabine	-3348
▁commen	-3349
▁creuse	-3350
▁dedans	-3351
▁envers	-3352
▁infirm	-3353
▁lampad	-3354
▁lisent	-3355
▁lèvent	-3356
▁protég	-3357
▁voyage	-3358
vêtement	-3359
▁blondes	-3360
▁bouquet	-3361
▁caisses	-3362
▁contreb	-3363
▁nacelle	-3364
▁paniers	-3365
▁partout	-3366
▁patient	-3367
▁pêcheur	-3368
▁rocheux	-3369
▁savoure	-3370
▁support	-3371
▁univers	-3372
▁attachés	-3373
▁aérienne	-3374
▁brouette	-3375
▁heureuse	-3376
▁inspecte	-3377
▁montgolf	-3378
▁ombrelle	-3379
▁palmiers	-3380
▁papillon	-3381
▁reposant	-3382
▁victoire	-3383
▁attrapant	-3384
▁embrasure	-3385
▁tatouages	-3386
▁conducteur	-3387
▁gymnastique	-3388
▁équipements	-3389
▁professionnel	-3390
car	-3391
erv	-3392
inc	-3393
isé	-3394
rup	-3395
ses	-3396
▁lé	-3397
aces	-3398
atel	-3399
atio	-3400
auds	-3401
fare	-3402
▁bro	-3403
▁spr	-3404
chouc	-3405
ctron	-3406
resse	-3407
rette	-3408
▁acti	-3409
▁bagu	-3410
▁bouc	-3411
▁bret	-3412
▁cage	-3413
▁fort	-3414
▁honn	-3415
▁liqu	-3416
▁nous	-3417
▁perd	-3418
▁poin	-3419
▁pres	-3420
▁rase	-3421
▁réce	-3422
▁sign	-3423
▁suit	-3424
▁taxi	-3425
▁toge	-3426
▁truc	-3427
ractée	-3428
uscule	-3429
▁allum	-3430
▁aspir	-3431
▁baiss	-3432
▁bande	-3433
▁benne	-3434
▁borde	-3435
▁caout	-3436
▁chefs	-3437
▁craie	-3438
▁crème	-3439
▁dames	-3440
▁derby	-3441
▁délab	-3442
▁engag	-3443
▁exerc	-3444
▁fumée	-3445
▁jaill	-3446
▁matel	-3447
▁monoc	-3448
▁outil	-3449
▁paire	-3450
▁patio	-3451
▁seaux	-3452
▁style	-3453
▁toges	-3454
▁tress	-3455
▁usine	-3456
▁voies	-3457
▁brique	-3458
▁canard	-3459
▁claire	-3460
▁constr	-3461
▁cornem	-3462
▁couche	-3463
▁foncti	-3464
▁marbre	-3465
▁métier	-3466
▁sortie	-3467
▁ventre	-3468
▁arrivée	-3469
▁bonnets	-3470
▁bougies	-3471
▁camions	-3472
▁château	-3473
▁fanfare	-3474
▁foraine	-3475
▁honneur	-3476
▁impermé	-3477
▁interag	-3478
▁laverie	-3479
▁moderne	-3480
▁parquet	-3481
▁pigeons	-3482
▁poteaux	-3483
▁skieurs	-3484
▁achètent	-3485
▁arrêtent	-3486
▁clôturée	-3487
▁contrôle	-3488
▁déguisés	-3489
▁receveur	-3490
▁réparant	-3491
▁traîneau	-3492
▁vendeurs	-3493
▁écoutent	-3494
▁écrivant	-3495
▁électron	-3496
▁allongées	-3497
▁baignoire	-3498
▁banderole	-3499
▁circulant	-3500
▁examinant	-3501
▁nettoient	-3502
▁vaisselle	-3503
▁écossaise	-3504
▁éloignant	-3505
▁agenouillé	-3506
▁artistique	-3507
▁caoutchouc	-3508
▁crépuscule	-3509
▁entraînant	-3510
▁nourrisson	-3511
▁décontractée	-3512
▁traditionnel	-3513
cô	-3514
lô	-3515
ob	-3516
pp	-3517
pé	-3518
ué	-3519
xy	-3520
èg	-3521
dog	-3522
est	-3523
ult	-3524
upe	-3525
ète	-3526
▁ge	-3527
▁ir	-3528
▁sl	-3529
▁tâ	-3530
abri	-3531
alle	-3532
dess	-3533
land	-3534
nequ	-3535
élic	-3536
▁hot	-3537
▁let	-3538
▁ste	-3539
▁âne	-3540
esurf	-3541
iches	-3542
irurg	-3543
istol	-3544
ourne	-3545
quant	-3546
ressi	-3547
▁asie	-3548
▁bron	-3549
▁crie	-3550
▁fans	-3551
▁fraî	-3552
▁lond	-3553
▁pein	-3554
▁refl	-3555
▁rond	-3556
▁sang	-3557
▁scie	-3558
▁tech	-3559
▁vent	-3560
▁agite	-3561
▁animé	-3562
▁campe	-3563
▁celui	-3564
▁crâne	-3565
▁cuill	-3566
▁engin	-3567
▁garde	-3568
▁geste	-3569
▁habit	-3570
▁impri	-3571
▁laver	-3572
▁levés	-3573
▁local	-3574
▁récol	-3575
▁soude	-3576
▁toile	-3577
dessous	-3578
▁achète	-3579
▁agents	-3580
▁divert	-3581
▁donner	-3582
▁décoré	-3583
▁flotte	-3584
▁froide	-3585
▁grille	-3586
▁inclin	-3587
▁interv	-3588
▁lèvres	-3589
▁manche	-3590
▁nature	-3591
▁pagaie	-3592
▁pistol	-3593
▁plante	-3594
▁poupée	-3595
▁région	-3596
▁tentes	-3597
▁valise	-3598
▁badauds	-3599
▁bandeau	-3600
▁bonbons	-3601
▁cerceau	-3602
▁chirurg	-3603
▁discute	-3604
▁découpe	-3605
▁féminin	-3606
▁immense	-3607
▁indiens	-3608
▁liquide	-3609
▁mannequ	-3610
▁marquer	-3611
▁médecin	-3612
▁parents	-3613
▁penchée	-3614
▁renvers	-3615
▁sportif	-3616
▁écartés	-3617
vêtements	-3618
▁arrosage	-3619
▁branches	-3620
▁ceinture	-3621
▁creusant	-3622
▁individu	-3623
▁kitesurf	-3624
▁machines	-3625
▁passants	-3626
▁professe	-3627
▁scolaire	-3628
▁semblant	-3629
▁appareils	-3630
▁dessinant	-3631
▁détendent	-3632
▁embrasser	-3633
▁monocycle	-3634
▁ramassant	-3635
▁escaladent	-3636
▁extérieure	-3637
▁gravissant	-3638
▁lampadaire	-3639
▁pratiquent	-3640
▁produisant	-3641
▁produisent	-3642
▁réunissent	-3643
▁silhouette	-3644
▁probablement	-3645
▁électronique	-3646
▁applaudissent	-3647
go	-3648
oo	-3649
ru	-3650
st	-3651
don	-3652
gan	-3653
ica	-3654
ick	-3655
lac	-3656
lie	-3657
mon	-3658
omm	-3659
uel	-3660
vre	-3661
▁el	-3662
appe	-3663
arni	-3664
arre	-3665
côté	-3666
icip	-3667
iges	-3668
inis	-3669
isée	-3670
ivre	-3671
udio	-3672
▁asc	-3673
▁bac	-3674
▁bav	-3675
▁châ	-3676
▁enc	-3677
▁ill	-3678
▁lib	-3679
▁pir	-3680
▁rur	-3681
▁sim	-3682
▁sir	-3683
▁syn	-3684
▁tur	-3685
▁wal	-3686
aille	-3687
ances	-3688
elles	-3689
ience	-3690
nière	-3691
vités	-3692
êtres	-3693
▁amie	-3694
▁bomb	-3695
▁enle	-3696
▁garé	-3697
▁grue	-3698
▁jume	-3699
▁ring	-3700
▁skie	-3701
▁veau	-3702
adeaux	-3703
estier	-3704
illent	-3705
onnant	-3706
orient	-3707
ureaux	-3708
▁aussi	-3709
▁bouée	-3710
▁bross	-3711
▁bulle	-3712
▁chaud	-3713
▁chois	-3714
▁corps	-3715
▁cuire	-3716
▁garés	-3717
▁intég	-3718
▁oppos	-3719
▁percu	-3720
▁plais	-3721
▁pneus	-3722
▁proch	-3723
▁retir	-3724
▁sèche	-3725
▁voler	-3726
▁évent	-3727
▁évier	-3728
atiques	-3729
ouillés	-3730
usement	-3731
▁arrive	-3732
▁arrose	-3733
▁boueux	-3734
▁breakd	-3735
▁citrou	-3736
▁collèg	-3737
▁câbles	-3738
▁dispos	-3739
▁ferrée	-3740
▁frisés	-3741
▁gestes	-3742
▁lequel	-3743
▁plumes	-3744
▁russes	-3745
▁studio	-3746
▁unique	-3747
▁volent	-3748
▁apprend	-3749
▁argenté	-3750
▁attente	-3751
▁baskets	-3752
▁chorale	-3753
▁composé	-3754
▁couteau	-3755
▁dégarni	-3756
▁horizon	-3757
▁nuageux	-3758
▁plongée	-3759
▁rapides	-3760
▁servant	-3761
▁théâtre	-3762
▁tombant	-3763
▁violets	-3764
uellement	-3765
▁bordeaux	-3766
▁boutique	-3767
▁diverses	-3768
▁entourés	-3769
▁fenêtres	-3770
▁japonais	-3771
▁penchant	-3772
▁protéger	-3773
▁tricycle	-3774
▁éléphant	-3775
▁charrette	-3776
▁contenant	-3777
▁forestier	-3778
▁partagent	-3779
▁raquettes	-3780
▁également	-3781
▁aspirateur	-3782
▁collection	-3783
▁coéquipier	-3784
▁cuisinière	-3785
▁entraînent	-3786
▁olympiques	-3787
▁partageant	-3788
▁professeur	-3789
▁retournant	-3790
▁imperméable	-3791
▁construisant	-3792
▁présentation	-3793
▁scientifique	-3794
ia	-3795
den	-3796
enu	-3797
ind	-3798
mar	-3799
tau	-3800
éle	-3801
▁is	-3802
▁mc	-3803
ades	-3804
atif	-3805
ices	-3806
ings	-3807
iplô	-3808
iété	-3809
lamm	-3810
outs	-3811
ting	-3812
▁biz	-3813
▁dev	-3814
▁dri	-3815
▁gol	-3816
▁mau	-3817
▁non	-3818
▁suc	-3819
▁tee	-3820
ative	-3821
ceuse	-3822
icale	-3823
onner	-3824
▁bull	-3825
▁cape	-3826
▁cent	-3827
▁chèv	-3828
▁hipp	-3829
▁past	-3830
▁plac	-3831
▁post	-3832
▁pâle	-3833
▁rapp	-3834
▁tenu	-3835
ension	-3836
essent	-3837
ourent	-3838
tiques	-3839
▁abrup	-3840
▁assor	-3841
▁bains	-3842
▁baril	-3843
▁bébés	-3844
▁croix	-3845
▁diplô	-3846
▁déamb	-3847
▁fourr	-3848
▁garée	-3849
▁hôtel	-3850
▁laine	-3851
▁perru	-3852
▁princ	-3853
▁proje	-3854
▁pédal	-3855
▁rails	-3856
▁série	-3857
▁tirée	-3858
▁tonde	-3859
▁tronç	-3860
▁écume	-3861
▁aident	-3862
▁caddie	-3863
▁chiots	-3864
▁courte	-3865
▁débris	-3866
▁départ	-3867
▁espagn	-3868
▁essent	-3869
▁golden	-3870
▁gratte	-3871
▁jetant	-3872
▁justau	-3873
▁mousse	-3874
▁partir	-3875
▁peints	-3876
▁perron	-3877
▁pleurs	-3878
▁propos	-3879
▁pêcher	-3880
▁reçoit	-3881
▁rouler	-3882
▁sporti	-3883
▁suréle	-3884
▁tatoué	-3885
▁tranqu	-3886
▁turban	-3887
▁écrire	-3888
▁étoile	-3889
formance	-3890
issement	-3891
▁apparte	-3892
▁blouses	-3893
▁command	-3894
▁concent	-3895
▁couples	-3896
▁dessine	-3897
▁fraîche	-3898
▁grosses	-3899
▁hauteur	-3900
▁londres	-3901
▁mettent	-3902
▁moutons	-3903
▁municip	-3904
▁mélange	-3905
▁nageurs	-3906
▁poterie	-3907
▁ramasse	-3908
▁réunion	-3909
▁sauvage	-3910
▁cuillère	-3911
▁document	-3912
▁magasins	-3913
▁monument	-3914
▁morceaux	-3915
▁parasols	-3916
▁perceuse	-3917
▁première	-3918
▁tondeuse	-3919
▁acrobatie	-3920
▁assiettes	-3921
▁bretelles	-3922
▁brillante	-3923
▁cherchant	-3924
▁commencer	-3925
▁cornemuse	-3926
▁dirigeant	-3927
▁disputent	-3928
▁documents	-3929
▁escalader	-3930
▁magazines	-3931
▁apprécient	-3932
▁discussion	-3933
▁intérieure	-3934
▁mouvements	-3935
▁basketteurs	-3936
▁justaucorps	-3937
▁performance	-3938
▁manifestants	-3939
da	-3940
iz	-3941
ma	-3942
abe	-3943
ast	-3944
gis	-3945
hal	-3946
née	-3947
oga	-3948
osa	-3949
ulv	-3950
éré	-3951
▁dj	-3952
anch	-3953
auff	-3954
back	-3955
ensi	-3956
gile	-3957
igre	-3958
imes	-3959
iser	-3960
itié	-3961
rise	-3962
▁bur	-3963
▁cur	-3964
▁gag	-3965
▁ong	-3966
▁poê	-3967
▁pup	-3968
▁réf	-3969
▁the	-3970
▁tom	-3971
▁ves	-3972
acles	-3973
poids	-3974
ption	-3975
riers	-3976
ulvér	-3977
ville	-3978
▁john	-3979
▁mess	-3980
▁nive	-3981
▁retr	-3982
▁serp	-3983
▁unes	-3984
▁vall	-3985
▁yoga	-3986
▁épic	-3987
pousse	-3988
rières	-3989
▁arche	-3990
▁armée	-3991
▁asper	-3992
▁badge	-3993
▁banjo	-3994
▁bombe	-3995
▁borne	-3996
▁canot	-3997
▁cible	-3998
▁class	-3999
▁coups	-4000
▁dorée	-4001
▁dress	-4002
▁expér	-4003
▁ferme	-4004
▁frère	-4005
▁illum	-4006
▁nager	-4007
▁pomme	-4008
▁rayés	-4009
▁remet	-4010
▁renif	-4011
▁ronde	-4012
▁sales	-4013
▁stylo	-4014
▁texas	-4015
▁types	-4016
▁étire	-4017
ifiques	-4018
▁allure	-4019
▁argile	-4020
▁boules	-4021
▁casser	-4022
▁disant	-4023
▁entass	-4024
▁entrer	-4025
▁exposé	-4026
▁garées	-4027
▁glacée	-4028
▁gravit	-4029
▁images	-4030
▁lignes	-4031
▁lumine	-4032
▁moitié	-4033
▁mouton	-4034
▁nageur	-4035
▁nuages	-4036
▁parade	-4037
▁pièces	-4038
▁pommes	-4039
▁porche	-4040
▁pulvér	-4041
▁rebond	-4042
▁tombée	-4043
▁abrupte	-4044
▁bordure	-4045
▁bouclés	-4046
▁bureaux	-4047
▁croisés	-4048
▁dorment	-4049
▁défense	-4050
▁encombr	-4051
▁enflamm	-4052
▁engagés	-4053
▁environ	-4054
▁essayer	-4055
▁galerie	-4056
▁glisser	-4057
▁herbeux	-4058
▁lettres	-4059
▁matelas	-4060
▁papiers	-4061
▁poignée	-4062
▁presque	-4063
▁protège	-4064
▁société	-4065
▁sombres	-4066
▁tourner	-4067
▁étroite	-4068
▁attachée	-4069
▁balayant	-4070
▁fourrure	-4071
▁jumelles	-4072
▁oriental	-4073
▁présente	-4074
▁retourne	-4075
▁surpoids	-4076
▁baguettes	-4077
▁carrelage	-4078
▁contrebas	-4079
▁corpulent	-4080
▁entretien	-4081
▁mannequin	-4082
▁obstacles	-4083
▁orientale	-4084
▁patineurs	-4085
▁plongeoir	-4086
▁surveille	-4087
▁éclairage	-4088
▁attraction	-4089
▁breakdance	-4090
▁hockeyeurs	-4091
▁tranquille	-4092
▁étreignent	-4093
▁couvertures	-4094
▁nouvellement	-4095
▁tronçonneuse	-4096
▁éclaboussant	-4097
ci	-4098
ep	-4099
ye	-4100
éd	-4101
ake	-4102
ald	-4103
arr	-4104
can	-4105
ino	-4106
iée	-4107
opt	-4108
rir	-4109
éri	-4110
▁cy	-4111
▁mè	-4112
▁vu	-4113
atig	-4114
chef	-4115
cool	-4116
iter	-4117
itue	-4118
lexe	-4119
oney	-4120
rice	-4121
rons	-4122
ties	-4123
ulti	-4124
▁cau	-4125
▁far	-4126
▁fla	-4127
▁haw	-4128
▁his	-4129
▁mex	-4130
▁pit	-4131
▁pât	-4132
▁sto	-4133
▁sub	-4134
▁vac	-4135
▁éte	-4136
regis	-4137
upart	-4138
▁bols	-4139
▁buff	-4140
▁coca	-4141
▁célè	-4142
▁encl	-4143
▁food	-4144
▁guer	-4145
▁haie	-4146
▁joué	-4147
▁kart	-4148
▁lant	-4149
▁mauv	-4150
▁mort	-4151
▁ramp	-4152
▁rive	-4153
▁smok	-4154
▁élév	-4155
▁étag	-4156
amique	-4157
raphie	-4158
▁acier	-4159
▁ailes	-4160
▁brass	-4161
▁calme	-4162
▁courb	-4163
▁couss	-4164
▁céléb	-4165
▁embar	-4166
▁empil	-4167
▁fabri	-4168
▁fatig	-4169
▁filme	-4170
▁fourg	-4171
▁hache	-4172
▁hélic	-4173
▁lancé	-4174
▁médié	-4175
▁organ	-4176
▁phase	-4177
▁plats	-4178
▁poste	-4179
▁rappe	-4180
▁rayon	-4181
▁reste	-4182
▁sauté	-4183
▁simil	-4184
▁ébrou	-4185
▁écras	-4186
ression	-4187
uration	-4188
▁alcool	-4189
▁allant	-4190
▁chasse	-4191
▁chorég	-4192
▁commer	-4193
▁crayon	-4194
▁déchar	-4195
▁emball	-4196
▁extrém	-4197
▁géante	-4198
▁occupe	-4199
▁paquet	-4200
▁porter	-4201
▁ramant	-4202
▁rament	-4203
▁saisit	-4204
▁sortir	-4205
▁tachet	-4206
▁tisser	-4207
▁tourné	-4208
▁échecs	-4209
▁étoffe	-4210
▁étudie	-4211
▁artific	-4212
▁baissée	-4213
▁bizarre	-4214
▁circule	-4215
▁déchets	-4216
▁enregis	-4217
▁fleurie	-4218
▁illumin	-4219
▁imprimé	-4220
▁inspect	-4221
▁meubles	-4222
▁navigue	-4223
▁pliante	-4224
▁plupart	-4225
▁pêchant	-4226
▁rafting	-4227
▁remplis	-4228
▁reposer	-4229
▁tournoi	-4230
▁voilier	-4231
▁épaisse	-4232
alisation	-4233
iellement	-4234
▁alignées	-4235
▁appuyant	-4236
▁chameaux	-4237
▁collants	-4238
▁colonnes	-4239
▁découper	-4240
▁friandis	-4241
▁gobelets	-4242
▁grimaces	-4243
▁jonglant	-4244
▁joueuses	-4245
▁lévriers	-4246
▁peignent	-4247
▁plongeur	-4248
▁poursuit	-4249
▁écoliers	-4250
▁écossais	-4251
▁épicerie	-4252
américains	-4253
▁accroupit	-4254
▁attention	-4255
▁ballerine	-4256
▁barrières	-4257
▁cavaliers	-4258
▁déplacent	-4259
▁déplaçant	-4260
▁enveloppé	-4261
▁immeubles	-4262
▁indiennes	-4263
▁municipal	-4264
▁nombreuse	-4265
▁observant	-4266
▁suspendue	-4267
▁turquoise	-4268
▁violettes	-4269
▁affrontant	-4270
▁américaine	-4271
▁chargement	-4272
▁combattant	-4273
▁construire	-4274
▁directions	-4275
▁installant	-4276
▁pratiquant	-4277
▁poussiéreux	-4278
▁violoncelle	-4279
▁enthousiasme	-4280
▁enthousiaste	-4281
▁montgolfière	-4282
▁enthousiastes	-4283
▁traditionnelle	-4284
▁essentiellement	-4285
mo	-4286
ug	-4287
én	-4288
cas	-4289
chu	-4290
cop	-4291
gée	-4292
ime	-4293
ish	-4294
osp	-4295
rai	-4296
tor	-4297
unk	-4298
▁oe	-4299
▁os	-4300
azer	-4301
cont	-4302
imon	-4303
itée	-4304
même	-4305
oter	-4306
uire	-4307
urer	-4308
▁ari	-4309
▁bét	-4310
▁cri	-4311
▁ici	-4312
▁lig	-4313
▁lux	-4314
▁mob	-4315
▁mut	-4316
▁nom	-4317
▁nou	-4318
▁pér	-4319
▁rat	-4320
▁rés	-4321
▁soy	-4322
▁tut	-4323
▁vus	-4324
▁éje	-4325
aiser	-4326
ertes	-4327
halte	-4328
icain	-4329
ignon	-4330
isses	-4331
neige	-4332
orium	-4333
rosse	-4334
▁corn	-4335
▁crée	-4336
▁fant	-4337
▁from	-4338
▁hawa	-4339
▁inde	-4340
▁joie	-4341
▁menu	-4342
▁peup	-4343
▁pins	-4344
▁prél	-4345
▁rent	-4346
▁spéc	-4347
▁tant	-4348
▁toil	-4349
▁vont	-4350
▁émer	-4351
donald	-4352
ignoir	-4353
optère	-4354
riever	-4355
âteaux	-4356
▁armes	-4357
▁bonne	-4358
▁broch	-4359
▁canad	-4360
▁capot	-4361
▁celle	-4362
▁chiff	-4363
▁finir	-4364
▁genou	-4365
▁libre	-4366
▁lèche	-4367
▁mince	-4368
▁moins	-4369
▁muscl	-4370
▁perdu	-4371
▁poche	-4372
▁situé	-4373
▁super	-4374
▁tremp	-4375
▁écart	-4376
▁épais	-4377
▁époux	-4378
▁établ	-4379
oulière	-4380
yclette	-4381
▁arcade	-4382
▁assemb	-4383
▁ballet	-4384
▁blazer	-4385
▁blessé	-4386
▁boîtes	-4387
▁citron	-4388
▁coiffe	-4389
▁disque	-4390
▁dresse	-4391
▁déploy	-4392
▁essaye	-4393
▁fleuri	-4394
▁gagner	-4395
▁habits	-4396
▁marque	-4397
▁mascul	-4398
▁navire	-4399
▁oreill	-4400
▁parall	-4401
▁peinte	-4402
▁ponton	-4403
▁poulet	-4404
▁rappel	-4405
▁reflet	-4406
▁scouts	-4407
▁secoue	-4408
▁tapant	-4409
▁triste	-4410
▁écrans	-4411
▁canette	-4412
▁chameau	-4413
▁compagn	-4414
▁couchée	-4415
▁déguisé	-4416
▁délabré	-4417
▁enseign	-4418
▁impliqu	-4419
▁ouvrant	-4420
▁patauge	-4421
▁pilotes	-4422
▁plaisir	-4423
▁pupitre	-4424
▁quarter	-4425
▁regroup	-4426
▁remplit	-4427
▁réunies	-4428
▁trouver	-4429
▁vendent	-4430
▁écouter	-4431
▁adverses	-4432
▁argentée	-4433
▁asphalte	-4434
▁attendre	-4435
▁chariots	-4436
▁collines	-4437
▁concours	-4438
▁cuisiner	-4439
▁espagnol	-4440
▁essaient	-4441
▁graffiti	-4442
▁manipule	-4443
▁marchand	-4444
▁mcdonald	-4445
▁nouvelle	-4446
▁nuageuse	-4447
▁patineur	-4448
▁peignoir	-4449
▁pellette	-4450
▁pistolet	-4451
▁pointant	-4452
▁sarcelle	-4453
▁sportive	-4454
▁touchant	-4455
▁vacances	-4456
▁échasses	-4457
▁accroupis	-4458
▁balancent	-4459
▁concentre	-4460
▁examinent	-4461
▁obscurité	-4462
▁périlleux	-4463
▁retriever	-4464
▁seulement	-4465
▁auditorium	-4466
▁entreprise	-4467
▁expérience	-4468
▁inspectent	-4469
▁religieuse	-4470
▁adolescente	-4471
▁bandoulière	-4472
▁hélicoptère	-4473
▁travailleur	-4474
▁chorégraphie	-4475
▁restauration	-4476
▁échafaudages	-4477
▁environnement	-4478
▁signalisation	-4479
ah	-4480
là	-4481
nu	-4482
ata	-4483
att	-4484
cté	-4485
gir	-4486
gré	-4487
hab	-4488
idi	-4489
iés	-4490
lés	-4491
ota	-4492
owe	-4493
pre	-4494
rol	-4495
▁ip	-4496
ador	-4497
agée	-4498
anes	-4499
ions	-4500
itif	-4501
jour	-4502
midi	-4503
olog	-4504
opol	-4505
orge	-4506
oton	-4507
quée	-4508
titu	-4509
égét	-4510
êmes	-4511
▁and	-4512
▁ang	-4513
▁bob	-4514
▁exh	-4515
▁ham	-4516
▁hut	-4517
▁maj	-4518
▁mis	-4519
▁mit	-4520
▁pop	-4521
▁rac	-4522
▁rad	-4523
▁rav	-4524
▁sui	-4525
arium	-4526
chron	-4527
chées	-4528
colat	-4529
ctant	-4530
icien	-4531
ients	-4532
illés	-4533
iseur	-4534
liers	-4535
oween	-4536
rines	-4537
veuse	-4538
èques	-4539
épied	-4540
▁cell	-4541
▁chic	-4542
▁cout	-4543
▁doss	-4544
▁drib	-4545
▁elmo	-4546
▁fois	-4547
▁jack	-4548
▁jeep	-4549
▁joli	-4550
▁live	-4551
▁marm	-4552
▁moby	-4553
▁pend	-4554
▁ping	-4555
▁pots	-4556
▁prix	-4557
▁rasé	-4558
▁sens	-4559
▁soda	-4560
▁suiv	-4561
▁vite	-4562
▁vrai	-4563
▁wake	-4564
▁épar	-4565
cteurs	-4566
itoufl	-4567
ospace	-4568
riques	-4569
venant	-4570
▁balay	-4571
▁brace	-4572
▁bronz	-4573
▁cache	-4574
▁canal	-4575
▁chute	-4576
▁drôle	-4577
▁démar	-4578
▁enter	-4579
▁foyer	-4580
▁fumer	-4581
▁lever	-4582
▁matin	-4583
▁nappe	-4584
▁pierc	-4585
▁pizza	-4586
▁poing	-4587
▁posés	-4588
▁raser	-4589
▁steak	-4590
▁texto	-4591
▁végét	-4592
▁admire	-4593
▁baiser	-4594
▁bondit	-4595
▁buffet	-4596
▁cannes	-4597
▁chèvre	-4598
▁concur	-4599
▁douche	-4600
▁durant	-4601
▁europe	-4602
▁explor	-4603
▁franch	-4604
▁nettoy	-4605
▁perles	-4606
▁plaqué	-4607
▁proche	-4608
▁propri	-4609
▁protes	-4610
▁rasant	-4611
▁rayées	-4612
▁servir	-4613
▁soigne	-4614
▁soyeux	-4615
▁surfer	-4616
▁sécher	-4617
▁tendus	-4618
▁vallée	-4619
▁veston	-4620
▁épouse	-4621
ouillard	-4622
▁bascule	-4623
▁bikinis	-4624
▁billets	-4625
▁calèche	-4626
▁canards	-4627
▁complet	-4628
▁curieux	-4629
▁ferrées	-4630
▁flânant	-4631
▁fromage	-4632
▁gâteaux	-4633
▁industr	-4634
▁lancent	-4635
▁lévrier	-4636
▁médical	-4637
▁peintre	-4638
▁pourpre	-4639
▁princip	-4640
▁proches	-4641
▁rencont	-4642
▁saluant	-4643
▁serveur	-4644
▁suivant	-4645
▁tacheté	-4646
▁tendant	-4647
▁tombent	-4648
▁trépied	-4649
▁vérifie	-4650
▁échauff	-4651
▁agricole	-4652
▁amérique	-4653
▁aquarium	-4654
▁artifice	-4655
▁bannière	-4656
▁cheminée	-4657
▁chercher	-4658
▁chocolat	-4659
▁commande	-4660
▁couverts	-4661
▁couvrant	-4662
▁deuxième	-4663
▁défilent	-4664
▁entrepôt	-4665
▁intervie	-4666
▁intéress	-4667
▁lacrosse	-4668
▁maquille	-4669
▁mexicain	-4670
▁perruque	-4671
▁pratique	-4672
▁roulants	-4673
▁réparent	-4674
▁skateurs	-4675
▁synchron	-4676
▁vieilles	-4677
▁visibles	-4678
▁éventail	-4679
▁assistant	-4680
▁balançant	-4681
▁ceintures	-4682
▁chinoises	-4683
▁circulent	-4684
▁découpant	-4685
▁emmitoufl	-4686
▁exécutent	-4687
▁halloween	-4688
▁intégrale	-4689
▁jardinage	-4690
▁miniature	-4691
▁monospace	-4692
▁moustachu	-4693
▁naviguant	-4694
▁oreillers	-4695
▁partition	-4696
▁pastèques	-4697
▁savourent	-4698
▁wakeboard	-4699
▁brouillard	-4700
▁corpulente	-4701
▁débardeurs	-4702
▁effectuent	-4703
▁enregistre	-4704
▁impliquant	-4705
▁revêtement	-4706
▁verdoyante	-4707
▁agenouillés	-4708
▁appartement	-4709
▁décorations	-4710
▁infirmières	-4711
▁marchandise	-4712
▁rassemblant	-4713
▁remplissant	-4714
▁surveillent	-4715
▁distributeur	-4716
▁informatique	-4717
▁photographes	-4718
▁photographié	-4719
▁pourchassant	-4720
ga	-4721
▁u	-4722
act	-4723
agé	-4724
box	-4725
cri	-4726
ett	-4727
eté	-4728
gos	-4729
ink	-4730
ips	-4731
iré	-4732
oin	-4733
pan	-4734
pir	-4735
xyl	-4736
▁ni	-4737
▁sh	-4738
▁we	-4739
afic	-4740
agné	-4741
aies	-4742
anne	-4743
apor	-4744
boys	-4745
ctur	-4746
delà	-4747
enue	-4748
ffre	-4749
girl	-4750
gréd	-4751
ical	-4752
lace	-4753
mart	-4754
oche	-4755
omac	-4756
oyer	-4757
reet	-4758
sive	-4759
tion	-4760
uite	-4761
utes	-4762
utre	-4763
wing	-4764
èles	-4765
▁abo	-4766
▁amp	-4767
▁ans	-4768
▁boy	-4769
▁cah	-4770
▁cue	-4771
▁eth	-4772
▁iro	-4773
▁lou	-4774
▁maî	-4775
▁riz	-4776
▁rob	-4777
▁réd	-4778
▁squ	-4779
▁tam	-4780
▁tri	-4781
▁urg	-4782
▁xyl	-4783
ardes	-4784
assée	-4785
aties	-4786
cheur	-4787
cotte	-4788
endre	-4789
ernes	-4790
icile	-4791
istor	-4792
meute	-4793
obile	-4794
oires	-4795
onstr	-4796
opoly	-4797
otant	-4798
oyant	-4799
pique	-4800
pping	-4801
écage	-4802
▁barb	-4803
▁boxe	-4804
▁cock	-4805
▁cong	-4806
▁coud	-4807
▁cuit	-4808
▁dent	-4809
▁ence	-4810
▁ethn	-4811
▁feux	-4812
▁girl	-4813
▁mode	-4814
▁neuf	-4815
▁noix	-4816
▁nomm	-4817
▁ombr	-4818
▁orné	-4819
▁quoi	-4820
▁rail	-4821
▁sauc	-4822
▁soup	-4823
▁tort	-4824
▁tuba	-4825
▁verd	-4826
▁étir	-4827
atrice	-4828
chette	-4829
itions	-4830
monica	-4831
ueuses	-4832
▁accél	-4833
▁aride	-4834
▁bords	-4835
▁chine	-4836
▁châle	-4837
▁conte	-4838
▁cross	-4839
▁câble	-4840
▁dirig	-4841
▁encad	-4842
▁escar	-4843
▁frisé	-4844
▁hamac	-4845
▁juges	-4846
▁kimon	-4847
▁lapin	-4848
▁lutte	-4849
▁mâche	-4850
▁mécan	-4851
▁posée	-4852
▁poêle	-4853
▁raide	-4854
▁salue	-4855
▁savon	-4856
▁singe	-4857
▁sourc	-4858
▁techn	-4859
▁times	-4860
▁tâche	-4861
▁appelé	-4862
▁autoch	-4863
▁bambou	-4864
▁barbus	-4865
▁batman	-4866
▁beiges	-4867
▁bières	-4868
▁bougie	-4869
▁boulan	-4870
▁calmes	-4871
▁caress	-4872
▁casino	-4873
▁champs	-4874
▁clowns	-4875
▁coffre	-4876
▁crosse	-4877
▁destin	-4878
▁dinosa	-4879
▁double	-4880
▁débarr	-4881
▁désord	-4882
▁enlève	-4883
▁filmer	-4884
▁forces	-4885
▁garder	-4886
▁guerre	-4887
▁hispan	-4888
▁histor	-4889
▁inconn	-4890
▁ingréd	-4891
▁kayaks	-4892
▁lavent	-4893
▁murale	-4894
▁médiév	-4895
▁ongles	-4896
▁pauvre	-4897
▁pigeon	-4898
▁pinata	-4899
▁posées	-4900
▁quitte	-4901
▁rurale	-4902
▁répète	-4903
▁secour	-4904
▁signes	-4905
▁située	-4906
▁skiant	-4907
▁sports	-4908
▁street	-4909
▁temple	-4910
▁trafic	-4911
▁troupe	-4912
▁visite	-4913
▁vitres	-4914
▁éponge	-4915
▁étroit	-4916
oiselles	-4917
▁appuyée	-4918
▁attache	-4919
▁atteint	-4920
▁bloquer	-4921
▁boucher	-4922
▁cadeaux	-4923
▁caniche	-4924
▁clôturé	-4925
▁compris	-4926
▁contain	-4927
▁contenu	-4928
▁contrer	-4929
▁coupent	-4930
▁coussin	-4931
▁dessins	-4932
▁déambul	-4933
▁décolle	-4934
▁enlever	-4935
▁estomac	-4936
▁fantais	-4937
▁fatigué	-4938
▁filmant	-4939
▁flânent	-4940
▁gazonné	-4941
▁glacier	-4942
▁luttent	-4943
▁manière	-4944
▁marmite	-4945
▁moyenne	-4946
▁musical	-4947
▁nourrit	-4948
▁obscure	-4949
▁ouverts	-4950
▁palmier	-4951
▁plaquer	-4952
▁profond	-4953
▁quilles	-4954
▁saluent	-4955
▁serpent	-4956
▁service	-4957
▁tailler	-4958
▁tomates	-4959
▁urgence	-4960
▁visière	-4961
▁walmart	-4962
▁étreint	-4963
ouillères	-4964
▁admirant	-4965
▁atterrir	-4966
▁brossant	-4967
▁catcheur	-4968
▁cerceaux	-4969
▁coiffeur	-4970
▁creusent	-4971
▁croisées	-4972
▁déguisée	-4973
▁démonstr	-4974
▁enceinte	-4975
▁endroits	-4976
▁essayent	-4977
▁ethnique	-4978
▁exercice	-4979
▁flanelle	-4980
▁grimpent	-4981
▁guitares	-4982
▁impressi	-4983
▁marécage	-4984
▁monopoly	-4985
▁oreiller	-4986
▁pagayant	-4987
▁passager	-4988
▁patinent	-4989
▁plantant	-4990
▁poussent	-4991
▁prochain	-4992
▁retourné	-4993
▁serveuse	-4994
▁shopping	-4995
▁tabliers	-4996
▁touriste	-4997
▁transpar	-4998
▁traînant	-4999
▁accrochés	-5000
▁activités	-5001
▁casserole	-5002
▁cherchent	-5003
▁collation	-5004
▁construit	-5005
▁cuisinent	-5006
▁détendant	-5007
▁extrémité	-5008
▁formation	-5009
▁harmonica	-5010
▁iroquoise	-5011
▁messieurs	-5012
▁muselière	-5013
▁olympique	-5014
▁plongeurs	-5015
▁réception	-5016
▁souriants	-5017
▁surélevée	-5018
▁xylophone	-5019
▁accompagné	-5020
▁accrochant	-5021
▁acrobaties	-5022
▁agenouille	-5023
▁approchant	-5024
▁ballerines	-5025
▁brillantes	-5026
▁citrouille	-5027
▁inspectant	-5028
▁montagneux	-5029
▁officielle	-5030
▁pourchassé	-5031
▁sculptures	-5032
▁transporte	-5033
▁étreignant	-5034
▁demoiselles	-5035
▁encouragent	-5036
▁ingrédients	-5037
▁quarterback	-5038
▁survêtement	-5039
▁fourgonnette	-5040
▁genouillères	-5041
▁mutuellement	-5042
▁poussiéreuse	-5043
▁démonstration	-5044
▁photographier	-5045
▁stationnement	-5046
▁universitaire	-5047
▁établissement	-5048
dr	-5049
dy	-5050
el	-5051
ka	-5052
lu	-5053
ça	-5054
arç	-5055
doz	-5056
fle	-5057
gge	-5058
héd	-5059
hée	-5060
lét	-5061
opé	-5062
ral	-5063
ram	-5064
ren	-5065
rig	-5066
ulé	-5067
wer	-5068
èse	-5069
▁oh	-5070
▁ry	-5071
▁ça	-5072
ains	-5073
angé	-5074
ater	-5075
chon	-5076
corn	-5077
enga	-5078
eria	-5079
hoir	-5080
iale	-5081
insi	-5082
ites	-5083
iège	-5084
jamb	-5085
lins	-5086
ning	-5087
ocol	-5088
ompl	-5089
oque	-5090
ourd	-5091
tées	-5092
téri	-5093
unis	-5094
vité	-5095
éros	-5096
▁bes	-5097
▁bic	-5098
▁civ	-5099
▁com	-5100
▁crê	-5101
▁cyg	-5102
▁enr	-5103
▁ext	-5104
▁hur	-5105
▁lot	-5106
▁mec	-5107
▁mol	-5108
▁pla	-5109
▁pén	-5110
▁pét	-5111
▁red	-5112
▁sud	-5113
▁sép	-5114
▁tag	-5115
allye	-5116
apins	-5117
atifs	-5118
ermud	-5119
ettis	-5120
euses	-5121
gorge	-5122
heure	-5123
ister	-5124
isées	-5125
jours	-5126
sière	-5127
toral	-5128
uelle	-5129
velot	-5130
vient	-5131
érant	-5132
érind	-5133
▁ador	-5134
▁affi	-5135
▁afin	-5136
▁amar	-5137
▁amer	-5138
▁bard	-5139
▁blot	-5140
▁bong	-5141
▁brit	-5142
▁cach	-5143
▁demi	-5144
▁détr	-5145
▁effr	-5146
▁flor	-5147
▁hand	-5148
▁ipod	-5149
▁kick	-5150
▁labr	-5151
▁logo	-5152
▁mass	-5153
▁ment	-5154
▁onze	-5155
▁rele	-5156
▁remb	-5157
▁roca	-5158
▁rout	-5159
▁soon	-5160
▁souv	-5161
▁star	-5162
▁tige	-5163
▁ulti	-5164
▁âges	-5165
andail	-5166
etière	-5167
illons	-5168
inette	-5169
oroute	-5170
ourant	-5171
quelle	-5172
▁ainsi	-5173
▁amies	-5174
▁apple	-5175
▁avent	-5176
▁beaux	-5177
▁berge	-5178
▁bâche	-5179
▁chips	-5180
▁compr	-5181
▁domin	-5182
▁douce	-5183
▁flamb	-5184
▁frire	-5185
▁fruit	-5186
▁inhab	-5187
▁jenga	-5188
▁jogge	-5189
▁muret	-5190
▁musul	-5191
▁notes	-5192
▁pagay	-5193
▁parce	-5194
▁pneum	-5195
▁polit	-5196
▁polos	-5197
▁poney	-5198
▁poser	-5199
▁prête	-5200
▁pyram	-5201
▁radio	-5202
▁ravin	-5203
▁spons	-5204
▁teint	-5205
▁tigre	-5206
▁truck	-5207
▁télés	-5208
▁éparp	-5209
▁étage	-5210
▁était	-5211
angeant	-5212
hédrale	-5213
istique	-5214
létisme	-5215
vention	-5216
▁affich	-5217
▁amuser	-5218
▁anneau	-5219
▁arrêté	-5220
▁baisse	-5221
▁balais	-5222
▁bambin	-5223
▁banlie	-5224
▁barque	-5225
▁bavard	-5226
▁belles	-5227
▁bermud	-5228
▁brunes	-5229
▁cigare	-5230
▁courbé	-5231
▁désarç	-5232
▁enlace	-5233
▁essuie	-5234
▁europé	-5235
▁feuill	-5236
▁feutre	-5237
▁galets	-5238
▁grotte	-5239
▁inache	-5240
▁inscri	-5241
▁intens	-5242
▁intern	-5243
▁mariés	-5244
▁menuis	-5245
▁mobile	-5246
▁modèle	-5247
▁musclé	-5248
▁nattes	-5249
▁niveau	-5250
▁opposé	-5251
▁ouvrir	-5252
▁patins	-5253
▁peuplé	-5254
▁pilier	-5255
▁pirate	-5256
▁poudre	-5257
▁presse	-5258
▁rallye	-5259
▁rappro	-5260
▁retire	-5261
▁sprink	-5262
▁square	-5263
▁séance	-5264
▁taches	-5265
▁talent	-5266
▁tendue	-5267
▁trains	-5268
▁troncs	-5269
▁venant	-5270
▁voirie	-5271
▁ébroue	-5272
▁échant	-5273
▁éjecté	-5274
▁époque	-5275
▁étendu	-5276
ouillent	-5277
▁accompl	-5278
▁agricul	-5279
▁amérind	-5280
▁bananes	-5281
▁bulldoz	-5282
▁chapite	-5283
▁crayons	-5284
▁célèbre	-5285
▁demande	-5286
▁donnent	-5287
▁déchiré	-5288
▁déneige	-5289
▁enclume	-5290
▁entrent	-5291
▁fermier	-5292
▁flammes	-5293
▁inférie	-5294
▁javelot	-5295
▁jockeys	-5296
▁masques	-5297
▁peloton	-5298
▁pinceau	-5299
▁poutres	-5300
▁pêchent	-5301
▁remuant	-5302
▁rentrer	-5303
▁serrent	-5304
▁smoking	-5305
▁sortent	-5306
▁soutien	-5307
▁sucette	-5308
▁suivent	-5309
▁tatouée	-5310
▁trophée	-5311
▁verdure	-5312
▁versant	-5313
▁étagère	-5314
▁attelage	-5315
▁bataille	-5316
▁bracelet	-5317
▁chandail	-5318
▁chevalet	-5319
▁collègue	-5320
▁composée	-5321
▁dessiner	-5322
▁défilant	-5323
▁fabrique	-5324
▁flottent	-5325
▁grattant	-5326
▁herbeuse	-5327
▁installe	-5328
▁laquelle	-5329
▁littoral	-5330
▁lumineux	-5331
▁malheure	-5332
▁maquette	-5333
▁mascotte	-5334
▁mitaines	-5335
▁mouillée	-5336
▁observer	-5337
▁occupent	-5338
▁officiel	-5339
▁officier	-5340
▁pagaient	-5341
▁particul	-5342
▁pizzeria	-5343
▁pliantes	-5344
▁propriét	-5345
▁quittant	-5346
▁renversé	-5347
▁scooters	-5348
▁sourcils	-5349
▁souvenir	-5350
▁tableaux	-5351
▁touchent	-5352
▁toujours	-5353
▁tournage	-5354
▁viennent	-5355
▁écharpes	-5356
▁écrasant	-5357
▁éteindre	-5358
▁applaudit	-5359
▁apprenant	-5360
▁aquatique	-5361
▁artisanat	-5362
▁ascension	-5363
▁autoroute	-5364
▁chargeant	-5365
▁classique	-5366
▁collègues	-5367
▁container	-5368
▁couvercle	-5369
▁dinosaure	-5370
▁défenseur	-5371
▁encombrée	-5372
▁entourant	-5373
▁entourent	-5374
▁entourées	-5375
▁exercices	-5376
▁fontaines	-5377
▁lanternes	-5378
▁mobylette	-5379
▁numérique	-5380
▁rencontre	-5381
▁rocheuses	-5382
▁soulevant	-5383
▁vérifiant	-5384
▁élévateur	-5385
▁étudiante	-5386
▁alpinistes	-5387
▁athlétisme	-5388
▁automobile	-5389
▁bicyclette	-5390
▁cathédrale	-5391
▁cellulaire	-5392
▁circulaire	-5393
▁cuisiniers	-5394
▁expression	-5395
▁gonflables	-5396
▁gravissent	-5397
▁industriel	-5398
▁infirmière	-5399
▁pelleteuse	-5400
▁percussion	-5401
▁plateforme	-5402
▁projecteur	-5403
▁rassemblée	-5404
▁souriantes	-5405
▁spectateur	-5406
▁téléphones	-5407
▁végétation	-5408
▁coéquipiers	-5409
▁enseignante	-5410
▁fonctionner	-5411
▁magnifiques	-5412
▁personnages	-5413
▁réparations	-5414
▁électriques	-5415
▁adolescentes	-5416
▁alimentaires	-5417
▁construisent	-5418
▁instructions	-5419
▁interagissent	-5420
▁soigneusement	-5421
▁professionnels	-5422
▁réfléchissants	-5423
br	-5424
fr	-5425
ht	-5426
ik	-5427
ph	-5428
vo	-5429
▁-	-5430
abo	-5431
ami	-5432
bon	-5433
cel	-5434
ena	-5435
jet	-5436
ker	-5437
kie	-5438
ksw	-5439
mée	-5440
ney	-5441
onf	-5442
par	-5443
raî	-5444
uds	-5445
uzz	-5446
ves	-5447
vez	-5448
yon	-5449
ève	-5450
▁là	-5451
▁ok	-5452
▁ur	-5453
agen	-5454
aite	-5455
anda	-5456
cins	-5457
coat	-5458
cola	-5459
docu	-5460
ench	-5461
erts	-5462
erté	-5463
ffes	-5464
gers	-5465
icap	-5466
inue	-5467
itus	-5468
maid	-5469
mate	-5470
mine	-5471
mint	-5472
oirs	-5473
otid	-5474
otre	-5475
près	-5476
pées	-5477
riot	-5478
serv	-5479
tête	-5480
ueur	-5481
vert	-5482
voir	-5483
york	-5484
ôles	-5485
▁act	-5486
▁bel	-5487
▁cup	-5488
▁del	-5489
▁fur	-5490
▁fée	-5491
▁gau	-5492
▁jui	-5493
▁lyc	-5494
▁mel	-5495
▁nég	-5496
▁obt	-5497
▁pic	-5498
▁rid	-5499
▁rus	-5500
▁tar	-5501
▁tum	-5502
▁zéb	-5503
attle	-5504
atule	-5505
copes	-5506
ences	-5507
erman	-5508
gerie	-5509
ierge	-5510
ilant	-5511
intes	-5512
itres	-5513
lance	-5514
lante	-5515
opard	-5516
ophon	-5517
orter	-5518
quent	-5519
raîch	-5520
tient	-5521
tière	-5522
tores	-5523
uient	-5524
ètent	-5525
▁agri	-5526
▁baie	-5527
▁body	-5528
▁chal	-5529
▁cire	-5530
▁cise	-5531
▁clar	-5532
▁coco	-5533
▁déco	-5534
▁déta	-5535
▁enla	-5536
▁enti	-5537
▁fier	-5538
▁fixe	-5539
▁flou	-5540
▁levé	-5541
▁mise	-5542
▁mots	-5543
▁pais	-5544
▁prim	-5545
▁pétr	-5546
▁ryth	-5547
▁sant	-5548
▁semi	-5549
▁siff	-5550
▁site	-5551
▁slip	-5552
▁stop	-5553
▁tréb	-5554
▁tutu	-5555
▁zomb	-5556
▁ânes	-5557
▁état	-5558
action	-5559
alises	-5560
cturne	-5561
ession	-5562
iennes	-5563
illées	-5564
ington	-5565
lèvent	-5566
minton	-5567
ptions	-5568
uriant	-5569
vement	-5570
▁aband	-5571
▁antié	-5572
▁arabe	-5573
▁biker	-5574
▁bonho	-5575
▁cassé	-5576
▁cerfs	-5577
▁charc	-5578
▁créer	-5579
▁début	-5580
▁déter	-5581
▁enlac	-5582
▁envol	-5583
▁floue	-5584
▁fléch	-5585
▁fourn	-5586
▁franç	-5587
▁guide	-5588
▁hutte	-5589
▁immob	-5590
▁intit	-5591
▁jeter	-5592
▁legos	-5593
▁loupe	-5594
▁marin	-5595
▁miami	-5596
▁multi	-5597
▁nommé	-5598
▁ordre	-5599
▁panor	-5600
▁patte	-5601
▁pleut	-5602
▁plume	-5603
▁poils	-5604
▁pulls	-5605
▁rural	-5606
▁saris	-5607
▁serré	-5608
▁state	-5609
▁sueur	-5610
▁taper	-5611
▁tisse	-5612
▁tribu	-5613
▁tromb	-5614
▁tubes	-5615
▁vides	-5616
▁épées	-5617
▁états	-5618
ctement	-5619
estière	-5620
kswagen	-5621
ouettes	-5622
ressant	-5623
service	-5624
▁access	-5625
▁allume	-5626
▁auprès	-5627
▁auvent	-5628
▁banane	-5629
▁bavoir	-5630
▁bloque	-5631
▁canyon	-5632
▁cassée	-5633
▁caucas	-5634
▁criant	-5635
▁dragon	-5636
▁défend	-5637
▁embarc	-5638
▁emmène	-5639
▁encore	-5640
▁expose	-5641
▁frappé	-5642
▁lapins	-5643
▁lavabo	-5644
▁locale	-5645
▁manuel	-5646
▁menant	-5647
▁menton	-5648
▁meuble	-5649
▁minces	-5650
▁mordre	-5651
▁musulm	-5652
▁ombres	-5653
▁pelles	-5654
▁perché	-5655
▁pistes	-5656
▁potier	-5657
▁poursu	-5658
▁priant	-5659
▁prient	-5660
▁prises	-5661
▁propre	-5662
▁prêtre	-5663
▁quotid	-5664
▁rampes	-5665
▁rasoir	-5666
▁relais	-5667
▁revers	-5668
▁rondes	-5669
▁rubans	-5670
▁réconf	-5671
▁sortes	-5672
▁souder	-5673
▁souple	-5674
▁tenter	-5675
▁trench	-5676
▁tumult	-5677
▁tuyaux	-5678
▁tâches	-5679
▁vaches	-5680
▁vernis	-5681
▁vertic	-5682
▁vieill	-5683
toresque	-5684
▁acteurs	-5685
▁agitent	-5686
▁anneaux	-5687
▁appelle	-5688
▁appuyés	-5689
▁barmaid	-5690
▁brosser	-5691
▁buisson	-5692
▁cabines	-5693
▁ciseaux	-5694
▁colonne	-5695
▁colorie	-5696
▁confort	-5697
▁dossard	-5698
▁dribble	-5699
▁décorée	-5700
▁entrant	-5701
▁exposés	-5702
▁grimper	-5703
▁guichet	-5704
▁identif	-5705
▁interro	-5706
▁kickbox	-5707
▁legging	-5708
▁liberté	-5709
▁léopard	-5710
▁nageuse	-5711
▁occupés	-5712
▁partage	-5713
▁planter	-5714
▁plonger	-5715
▁poulets	-5716
▁poupées	-5717
▁radeaux	-5718
▁renifle	-5719
▁seattle	-5720
▁secours	-5721
▁sooners	-5722
▁soudure	-5723
▁spatule	-5724
▁sponsor	-5725
▁terminé	-5726
▁terrier	-5727
▁tresses	-5728
▁typique	-5729
▁valises	-5730
▁visible	-5731
▁élégant	-5732
▁étalage	-5733
▁étirant	-5734
▁étoffes	-5735
▁étoiles	-5736
documents	-5737
ieusement	-5738
▁activité	-5739
▁affiches	-5740
▁ancienne	-5741
▁atterrit	-5742
▁baignent	-5743
▁banlieue	-5744
▁bardeaux	-5745
▁barreaux	-5746
▁colliers	-5747
▁complexe	-5748
▁complète	-5749
▁descente	-5750
▁dessinée	-5751
▁détritus	-5752
▁enlaçant	-5753
▁entassés	-5754
▁envoyant	-5755
▁examiner	-5756
▁exposées	-5757
▁foulards	-5758
▁gratuits	-5759
▁grillage	-5760
▁handicap	-5761
▁incluant	-5762
▁lutteurs	-5763
▁maquillé	-5764
▁mouettes	-5765
▁médecins	-5766
▁médicaux	-5767
▁nocturne	-5768
▁paisible	-5769
▁piercing	-5770
▁plongeon	-5771
▁pyramide	-5772
▁pédalant	-5773
▁ramasser	-5774
▁recevant	-5775
▁remettre	-5776
▁rouillée	-5777
▁rustique	-5778
▁répètent	-5779
▁saxophon	-5780
▁soulever	-5781
▁superman	-5782
▁surfeurs	-5783
▁taillant	-5784
▁tatoueur	-5785
▁terminer	-5786
▁ultimate	-5787
▁vitrines	-5788
▁vraiment	-5789
▁accompagn	-5790
▁acheteurs	-5791
▁affichage	-5792
▁badminton	-5793
▁boulevers	-5794
▁bulldozer	-5795
▁campement	-5796
▁chapiteau	-5797
▁compagnie	-5798
▁concentré	-5799
▁confettis	-5800
▁déguisées	-5801
▁effectuer	-5802
▁enflammés	-5803
▁enseignes	-5804
▁ethniques	-5805
▁fantaisie	-5806
▁friandise	-5807
▁impliqués	-5808
▁important	-5809
▁imposante	-5810
▁installée	-5811
▁luxuriant	-5812
▁navigable	-5813
▁officiers	-5814
▁paressent	-5815
▁portraits	-5816
▁prochaine	-5817
▁profondes	-5818
▁proposant	-5819
▁provenant	-5820
▁ramassent	-5821
▁regroupés	-5822
▁saucisses	-5823
▁similaire	-5824
▁soufflant	-5825
▁souffleur	-5826
▁souvenirs	-5827
▁surplombe	-5828
▁suspendus	-5829
▁technique	-5830
▁tropicale	-5831
▁télésiège	-5832
▁élastique	-5833
▁éloignent	-5834
▁éléphants	-5835
▁africaines	-5836
▁cigarettes	-5837
▁construite	-5838
▁dispositif	-5839
▁emmitouflé	-5840
▁enseignant	-5841
▁fabriquant	-5842
▁fonctionne	-5843
▁forestière	-5844
▁historique	-5845
▁manipulant	-5846
▁mélangeant	-5847
▁personnage	-5848
▁personnels	-5849
▁publicités	-5850
▁recouvrant	-5851
▁serviettes	-5852
▁supporters	-5853
▁volkswagen	-5854
▁éclairages	-5855
▁boulangerie	-5856
▁chirurgiens	-5857
▁citrouilles	-5858
▁destination	-5859
▁déchargeant	-5860
▁entièrement	-5861
▁intensément	-5862
▁pittoresque	-5863
▁projecteurs	-5864
▁remplissent	-5865
▁ressemblent	-5866
▁snowboarder	-5867
▁artificielle	-5868
▁informations	-5869
▁inscriptions	-5870
▁participants	-5871
▁synchronisée	-5872
▁tumultueuses	-5873
▁montgolfières	-5874
▁principalement	-5875
ha	-5876
ts	-5877
ys	-5878
alm	-5879
cep	-5880
cke	-5881
cks	-5882
dim	-5883
dit	-5884
edo	-5885
eni	-5886
ere	-5887
gas	-5888
gés	-5889
ham	-5890
ibe	-5891
iné	-5892
irs	-5893
lax	-5894
mps	-5895
més	-5896
ode	-5897
oll	-5898
olo	-5899
olé	-5900
ood	-5901
ory	-5902
rov	-5903
roy	-5904
run	-5905
sol	-5906
tue	-5907
uir	-5908
uor	-5909
usk	-5910
ysi	-5911
▁of	-5912
▁sw	-5913
▁ti	-5914
▁uk	-5915
abor	-5916
aint	-5917
akes	-5918
auph	-5919
cons	-5920
eron	-5921
ford	-5922
homa	-5923
iage	-5924
ince	-5925
issé	-5926
line	-5927
mple	-5928
nerg	-5929
orde	-5930
osol	-5931
oulé	-5932
reen	-5933
rome	-5934
unch	-5935
utôt	-5936
éens	-5937
▁abe	-5938
▁aig	-5939
▁avi	-5940
▁big	-5941
▁bit	-5942
▁cag	-5943
▁cim	-5944
▁cop	-5945
▁diz	-5946
▁dér	-5947
▁ges	-5948
▁gig	-5949
▁hal	-5950
▁han	-5951
▁hol	-5952
▁jum	-5953
▁los	-5954
▁mac	-5955
▁mes	-5956
▁ond	-5957
▁sam	-5958
▁san	-5959
▁sel	-5960
▁spe	-5961
▁tét	-5962
▁ust	-5963
▁vel	-5964
▁zoo	-5965
aison	-5966
alles	-5967
ancer	-5968
asion	-5969
avane	-5970
avent	-5971
bucks	-5972
cades	-5973
chefs	-5974
esses	-5975
ignée	-5976
illis	-5977
iquet	-5978
linge	-5979
orant	-5980
ossée	-5981
otion	-5982
plexe	-5983
short	-5984
tesse	-5985
téria	-5986
utant	-5987
verse	-5988
vette	-5989
éales	-5990
écomm	-5991
étant	-5992
êcher	-5993
▁agré	-5994
▁aime	-5995
▁anti	-5996
▁aqua	-5997
▁bour	-5998
▁béqu	-5999
▁card	-6000
▁cela	-6001
▁conn	-6002
▁conv	-6003
▁crev	-6004
▁cult	-6005
▁doit	-6006
▁drag	-6007
▁ench	-6008
▁exer	-6009
▁fast	-6010
▁hamb	-6011
▁hang	-6012
▁husk	-6013
▁ital	-6014
▁jets	-6015
▁jeté	-6016
▁lice	-6017
▁ling	-6018
▁lion	-6019
▁mecs	-6020
▁mine	-6021
▁mène	-6022
▁nike	-6023
▁noms	-6024
▁nuée	-6025
▁okla	-6026
▁orne	-6027
▁page	-6028
▁paon	-6029
▁pens	-6030
▁pieu	-6031
▁pipe	-6032
▁pluv	-6033
▁porc	-6034
▁prog	-6035
▁préc	-6036
▁préf	-6037
▁péri	-6038
▁ress	-6039
▁ride	-6040
▁rien	-6041
▁réag	-6042
▁réch	-6043
▁seni	-6044
▁side	-6045
▁spid	-6046
▁sque	-6047
▁symb	-6048
▁vise	-6049
▁vues	-6050
▁wash	-6051
amment	-6052
antité	-6053
aquant	-6054
astron	-6055
cercle	-6056
ctures	-6057
issade	-6058
issage	-6059
itaine	-6060
marine	-6061
onnier	-6062
onçant	-6063
ticule	-6064
titude	-6065
▁amish	-6066
▁athlé	-6067
▁atter	-6068
▁attir	-6069
▁blott	-6070
▁bring	-6071
▁canin	-6072
▁canon	-6073
▁caric	-6074
▁chats	-6075
▁crist	-6076
▁dauph	-6077
▁dinde	-6078
▁dorés	-6079
▁douze	-6080
▁dégus	-6081
▁délic	-6082
▁démén	-6083
▁dérou	-6084
▁fossé	-6085
▁genre	-6086
▁haies	-6087
▁harpe	-6088
▁idiot	-6089
▁indig	-6090
▁inond	-6091
▁invis	-6092
▁joues	-6093
▁latin	-6094
▁levée	-6095
▁lieux	-6096
▁light	-6097
▁ligue	-6098
▁lourd	-6099
▁maint	-6100
▁moine	-6101
▁monté	-6102
▁morte	-6103
▁mêmes	-6104
▁obama	-6105
▁passi	-6106
▁physi	-6107
▁piles	-6108
▁pince	-6109
▁plane	-6110
▁porté	-6111
▁poses	-6112
▁power	-6113
▁puits	-6114
▁relax	-6115
▁remue	-6116
▁robot	-6117
▁ruade	-6118
▁récré	-6119
▁rétro	-6120
▁selle	-6121
▁soupe	-6122
▁suite	-6123
▁suivi	-6124
▁sépar	-6125
▁tiers	-6126
▁toque	-6127
▁trace	-6128
▁trous	-6129
▁tyrol	-6130
▁égout	-6131
▁élève	-6132
▁énerg	-6133
agement	-6134
dimensi	-6135
ication	-6136
illette	-6137
isation	-6138
itation	-6139
onibles	-6140
onnaire	-6141
othèque	-6142
volants	-6143
ériment	-6144
▁achats	-6145
▁années	-6146
▁appart	-6147
▁assort	-6148
▁avance	-6149
▁baigne	-6150
▁bandés	-6151
▁barils	-6152
▁besoin	-6153
▁billet	-6154
▁boucle	-6155
▁bouton	-6156
▁boxant	-6157
▁boxeur	-6158
▁britan	-6159
▁bronze	-6160
▁bétail	-6161
▁cahier	-6162
▁chargé	-6163
▁civile	-6164
▁coiffé	-6165
▁cornes	-6166
▁courbe	-6167
▁crache	-6168
▁créant	-6169
▁câlins	-6170
▁dalles	-6171
▁demand	-6172
▁disney	-6173
▁dorées	-6174
▁drôles	-6175
▁déball	-6176
▁effort	-6177
▁effray	-6178
▁emprun	-6179
▁enfile	-6180
▁engins	-6181
▁excité	-6182
▁exhibe	-6183
▁explos	-6184
▁flèche	-6185
▁fouill	-6186
▁frotte	-6187
▁fusils	-6188
▁gonfle	-6189
▁grises	-6190
▁incroy	-6191
▁lacets	-6192
▁maigre	-6193
▁marins	-6194
▁maître	-6195
▁meille	-6196
▁mignon	-6197
▁mixage	-6198
▁museau	-6199
▁mâcher	-6200
▁mèches	-6201
▁observ	-6202
▁patron	-6203
▁paysan	-6204
▁pingou	-6205
▁plaine	-6206
▁plutôt	-6207
▁pouces	-6208
▁puisse	-6209
▁pédale	-6210
▁quille	-6211
▁respir	-6212
▁rester	-6213
▁ruines	-6214
▁rythme	-6215
▁réalis	-6216
▁saleté	-6217
▁shoote	-6218
▁smashe	-6219
▁soccer	-6220
▁speedo	-6221
▁stands	-6222
▁steaks	-6223
▁stores	-6224
▁subway	-6225
▁tapent	-6226
▁torche	-6227
▁tortue	-6228
▁trempé	-6229
▁tricot	-6230
▁trotte	-6231
▁vitrée	-6232
▁vivant	-6233
▁voiles	-6234
▁élabor	-6235
▁étages	-6236
▁éviter	-6237
▁adossée	-6238
▁annonce	-6239
▁arrêter	-6240
▁arrêtée	-6241
▁ascense	-6242
▁autobus	-6243
▁autocol	-6244
▁aérosol	-6245
▁bassine	-6246
▁bermuda	-6247
▁boucles	-6248
▁caméras	-6249
▁chaînes	-6250
▁chiffon	-6251
▁cliente	-6252
▁concurr	-6253
▁couchés	-6254
▁courtes	-6255
▁couture	-6256
▁dominos	-6257
▁extrême	-6258
▁exécute	-6259
▁fausses	-6260
▁footing	-6261
▁forment	-6262
▁fortune	-6263
▁géantes	-6264
▁hanches	-6265
▁hôtesse	-6266
▁impatie	-6267
▁incliné	-6268
▁intense	-6269
▁jaillir	-6270
▁jettent	-6271
▁karting	-6272
▁kimonos	-6273
▁lessive	-6274
▁muselés	-6275
▁numéros	-6276
▁obtenir	-6277
▁partant	-6278
▁pleurer	-6279
▁pointes	-6280
▁pousser	-6281
▁pétales	-6282
▁quatuor	-6283
▁rangées	-6284
▁rapport	-6285
▁restant	-6286
▁rouleau	-6287
▁sacoche	-6288
▁sculpte	-6289
▁shooter	-6290
▁sifflet	-6291
▁soulevé	-6292
▁sprinte	-6293
▁superbe	-6294
▁talents	-6295
▁tempête	-6296
▁termine	-6297
▁tissant	-6298
▁torches	-6299
▁tressés	-6300
▁tricoté	-6301
▁échappe	-6302
▁admirent	-6303
▁adorable	-6304
▁ajustant	-6305
▁apprécie	-6306
▁arrivant	-6307
▁arrières	-6308
▁arroseur	-6309
▁arrêtant	-6310
▁aventure	-6311
▁balancer	-6312
▁bandeaux	-6313
▁bonhomme	-6314
▁campeurs	-6315
▁canettes	-6316
▁caniches	-6317
▁caravane	-6318
▁cascades	-6319
▁conduire	-6320
▁converse	-6321
▁corniche	-6322
▁création	-6323
▁céréales	-6324
▁dentaire	-6325
▁dernière	-6326
▁distance	-6327
▁démarrer	-6328
▁déplacer	-6329
▁empilées	-6330
▁empêcher	-6331
▁encombré	-6332
▁endormie	-6333
▁enfilant	-6334
▁essuyant	-6335
▁franchit	-6336
▁frappent	-6337
▁inconnue	-6338
▁labrador	-6339
▁leggings	-6340
▁lingerie	-6341
▁marqueur	-6342
▁mouillés	-6343
▁moutarde	-6344
▁nageuses	-6345
▁nouilles	-6346
▁oklahoma	-6347
▁ornement	-6348
▁parachut	-6349
▁parvient	-6350
▁perplexe	-6351
▁plaquage	-6352
▁plaquant	-6353
▁plateaux	-6354
▁produire	-6355
▁projetée	-6356
▁promener	-6357
▁pêcheurs	-6358
▁quantité	-6359
▁quittent	-6360
▁rafraîch	-6361
▁rembourr	-6362
▁récupère	-6363
▁répétant	-6364
▁services	-6365
▁smashant	-6366
▁souffler	-6367
▁surélevé	-6368
▁traineau	-6369
▁tranches	-6370
▁trombone	-6371
▁tropical	-6372
▁trouvant	-6373
▁télécomm	-6374
▁électric	-6375
▁assorties	-6376
▁auditoire	-6377
▁banquette	-6378
▁brassards	-6379
▁cafétéria	-6380
▁caressant	-6381
▁caucasien	-6382
▁champagne	-6383
▁cimetière	-6384
▁coloriage	-6385
▁couvertes	-6386
▁devanture	-6387
▁décombres	-6388
▁enneigées	-6389
▁entassées	-6390
▁fourneaux	-6391
▁glacières	-6392
▁indiquant	-6393
▁inhabitue	-6394
▁installés	-6395
▁interagit	-6396
▁interview	-6397
▁invisible	-6398
▁japonaise	-6399
▁kayakiste	-6400
▁lumineuse	-6401
▁masculine	-6402
▁mauvaises	-6403
▁médiévale	-6404
▁nettoyage	-6405
▁ombrelles	-6406
▁ornements	-6407
▁ouverture	-6408
▁parallèle	-6409
▁personnel	-6410
▁pistolets	-6411
▁projetant	-6412
▁pulvérise	-6413
▁religieux	-6414
▁reniflant	-6415
▁récemment	-6416
▁sculpteur	-6417
▁spiderman	-6418
▁starbucks	-6419
▁stationné	-6420
▁tabourets	-6421
▁toilettes	-6422
▁accrochées	-6423
▁antiémeute	-6424
▁approchent	-6425
▁banderoles	-6426
▁clarinette	-6427
▁débarrasse	-6428
▁expériment	-6429
▁flamboyant	-6430
▁fourchette	-6431
▁friandises	-6432
▁hispanique	-6433
▁inférieure	-6434
▁installent	-6435
▁kickboxing	-6436
▁malheureux	-6437
▁parallèles	-6438
▁participer	-6439
▁poussettes	-6440
▁prélassant	-6441
▁rocailleux	-6442
▁similaires	-6443
▁sprinklers	-6444
▁structures	-6445
▁surdimensi	-6446
▁tyrolienne	-6447
▁université	-6448
▁violoniste	-6449
▁washington	-6450
▁éclabousse	-6451
▁adversaires	-6452
▁artistiques	-6453
▁assortiment	-6454
▁chevauchent	-6455
▁choisissant	-6456
▁contrebasse	-6457
▁discothèque	-6458
▁disponibles	-6459
▁fraîchement	-6460
▁guitaristes	-6461
▁intéressant	-6462
▁jaillissant	-6463
▁kitesurfeur	-6464
▁marionnette	-6465
▁microscopes	-6466
▁silhouettes	-6467
▁skateboards	-6468
▁surveillant	-6469
▁touristique	-6470
▁échantillon	-6471
▁déambulateur	-6472
▁encourageant	-6473
▁impatiemment	-6474
▁photographie	-6475
▁applaudissant	-6476
▁marathonienne	-6477
▁snowboardeurs	-6478
▁photographient	-6479
▁représentation	-6480
dd	-6481
ez	-6482
ii	-6483
no	-6484
ty	-6485
add	-6486
ame	-6487
ank	-6488
ars	-6489
aît	-6490
ber	-6491
bum	-6492
bym	-6493
der	-6494
dis	-6495
enc	-6496
gue	-6497
gum	-6498
mbo	-6499
met	-6500
méd	-6501
per	-6502
pit	-6503
pou	-6504
pro	-6505
rac	-6506
rit	-6507
tam	-6508
tap	-6509
tim	-6510
try	-6511
tée	-6512
uma	-6513
umo	-6514
umé	-6515
ung	-6516
uée	-6517
élé	-6518
▁ds	-6519
▁ha	-6520
▁hy	-6521
▁ny	-6522
▁ov	-6523
▁tw	-6524
achi	-6525
anas	-6526
apot	-6527
aqué	-6528
aute	-6529
bord	-6530
cake	-6531
cara	-6532
cent	-6533
dogs	-6534
enné	-6535
ergé	-6536
four	-6537
glac	-6538
hote	-6539
ican	-6540
icef	-6541
ider	-6542
igan	-6543
illi	-6544
ingt	-6545
jupe	-6546
lane	-6547
lein	-6548
lées	-6549
ness	-6550
olle	-6551
onte	-6552
orce	-6553
ourt	-6554
pong	-6555
rait	-6556
seau	-6557
thét	-6558
tile	-6559
tine	-6560
tone	-6561
uces	-6562
urée	-6563
vous	-6564
âché	-6565
ètre	-6566
émor	-6567
énév	-6568
ésil	-6569
▁ado	-6570
▁bab	-6571
▁bid	-6572
▁bis	-6573
▁bud	-6574
▁coq	-6575
▁cul	-6576
▁dan	-6577
▁dév	-6578
▁fas	-6579
▁fit	-6580
▁fre	-6581
▁fêt	-6582
▁gap	-6583
▁git	-6584
▁gou	-6585
▁hui	-6586
▁irr	-6587
▁jud	-6588
▁lak	-6589
▁las	-6590
▁lay	-6591
▁scr	-6592
▁spa	-6593
▁sph	-6594
▁str	-6595
▁toy	-6596
▁wel	-6597
amaha	-6598
anger	-6599
angle	-6600
brent	-6601
chena	-6602
chite	-6603
choir	-6604
culer	-6605
geron	-6606
hique	-6607
ilité	-6608
illet	-6609
ioles	-6610
ionne	-6611
jambe	-6612
mbrer	-6613
mêmes	-6614
oient	-6615
onnés	-6616
oston	-6617
ouver	-6618
pente	-6619
riole	-6620
rième	-6621
tones	-6622
uiles	-6623
untry	-6624
ustré	-6625
uzzle	-6626
venue	-6627
ycles	-6628
èrent	-6629
▁abat	-6630
▁accl	-6631
▁ados	-6632
▁ambu	-6633
▁ampl	-6634
▁bann	-6635
▁blue	-6636
▁bous	-6637
▁brum	-6638
▁brut	-6639
▁bugg	-6640
▁cafe	-6641
▁cale	-6642
▁ceux	-6643
▁chim	-6644
▁clos	-6645
▁clou	-6646
▁clés	-6647
▁cola	-6648
▁cook	-6649
▁cool	-6650
▁cord	-6651
▁cors	-6652
▁crue	-6653
▁cuve	-6654
▁doll	-6655
▁espè	-6656
▁fice	-6657
▁fine	-6658
▁flag	-6659
▁ford	-6660
▁gelé	-6661
▁glis	-6662
▁gren	-6663
▁guir	-6664
▁hirs	-6665
▁inse	-6666
▁ivre	-6667
▁jazz	-6668
▁lait	-6669
▁lama	-6670
▁lamb	-6671
▁lent	-6672
▁libr	-6673
▁mart	-6674
▁mend	-6675
▁mets	-6676
▁moue	-6677
▁mule	-6678
▁méda	-6679
▁nues	-6680
▁négl	-6681
▁pare	-6682
▁parf	-6683
▁phar	-6684
▁pick	-6685
▁poss	-6686
▁prie	-6687
▁punk	-6688
▁raff	-6689
▁remp	-6690
▁rend	-6691
▁réno	-6692
▁sabl	-6693
▁sexy	-6694
▁shop	-6695
▁show	-6696
▁slal	-6697
▁soin	-6698
▁solo	-6699
▁sumo	-6700
▁surp	-6701
▁tart	-6702
▁trie	-6703
▁télé	-6704
▁veut	-6705
▁vois	-6706
▁élan	-6707
▁élas	-6708
▁émis	-6709
▁étui	-6710
ainage	-6711
chiste	-6712
culent	-6713
ignets	-6714
isiers	-6715
odrome	-6716
onnées	-6717
ortent	-6718
oscope	-6719
ouille	-6720
oureux	-6721
ouriff	-6722
petits	-6723
rammes	-6724
ration	-6725
rement	-6726
stance	-6727
ueille	-6728
urgers	-6729
uterie	-6730
▁ajout	-6731
▁album	-6732
▁amour	-6733
▁anges	-6734
▁angle	-6735
▁appel	-6736
▁balad	-6737
▁bosse	-6738
▁bouts	-6739
▁boxer	-6740
▁bénév	-6741
▁calif	-6742
▁camar	-6743
▁carré	-6744
▁casse	-6745
▁catch	-6746
▁cirer	-6747
▁clous	-6748
▁conce	-6749
▁coude	-6750
▁coupé	-6751
▁crabe	-6752
▁crêpe	-6753
▁culti	-6754
▁cygne	-6755
▁dalle	-6756
▁deere	-6757
▁dunes	-6758
▁débat	-6759
▁exhib	-6760
▁faits	-6761
▁famil	-6762
▁fermé	-6763
▁figur	-6764
▁fixes	-6765
▁fière	-6766
▁fosse	-6767
▁galop	-6768
▁geish	-6769
▁gelée	-6770
▁green	-6771
▁henné	-6772
▁horlo	-6773
▁insol	-6774
▁kilts	-6775
▁minut	-6776
▁mixte	-6777
▁moque	-6778
▁morts	-6779
▁mouss	-6780
▁natte	-6781
▁notre	-6782
▁obèse	-6783
▁offre	-6784
▁olive	-6785
▁ongle	-6786
▁orage	-6787
▁ornée	-6788
▁osier	-6789
▁paper	-6790
▁passé	-6791
▁peine	-6792
▁pense	-6793
▁pilot	-6794
▁poids	-6795
▁poilu	-6796
▁ponce	-6797
▁puces	-6798
▁punch	-6799
▁relié	-6800
▁respe	-6801
▁réfug	-6802
▁saint	-6803
▁santé	-6804
▁sauts	-6805
▁skier	-6806
▁slide	-6807
▁sujet	-6808
▁sémin	-6809
▁tarte	-6810
▁taxis	-6811
▁tecke	-6812
▁tendu	-6813
▁tiare	-6814
▁tiges	-6815
▁tirés	-6816
▁touff	-6817
▁trait	-6818
▁tutus	-6819
▁vapor	-6820
▁vegas	-6821
▁venir	-6822
▁water	-6823
▁zébré	-6824
▁éclat	-6825
▁épice	-6826
▁éping	-6827
▁équip	-6828
aissent	-6829
aporama	-6830
chenaid	-6831
demment	-6832
ensiles	-6833
ettiste	-6834
illante	-6835
inaires	-6836
issante	-6837
isserie	-6838
onnière	-6839
rouille	-6840
taplane	-6841
ènement	-6842
érateur	-6843
▁agitée	-6844
▁amarré	-6845
▁ananas	-6846
▁antiqu	-6847
▁archet	-6848
▁assied	-6849
▁aérien	-6850
▁ballot	-6851
▁bandes	-6852
▁beauté	-6853
▁bijout	-6854
▁bloqué	-6855
▁bongos	-6856
▁boston	-6857
▁brille	-6858
▁bringé	-6859
▁brouss	-6860
▁brésil	-6861
▁carrés	-6862
▁chaton	-6863
▁cireur	-6864
▁collie	-6865
▁colère	-6866
▁compte	-6867
▁contrô	-6868
▁coutur	-6869
▁cuivre	-6870
▁design	-6871
▁diable	-6872
▁disent	-6873
▁déchaî	-6874
▁découv	-6875
▁dépose	-6876
▁enchaî	-6877
▁enclos	-6878
▁endomm	-6879
▁endort	-6880
▁enfonc	-6881
▁enlevé	-6882
▁expert	-6883
▁farine	-6884
▁fascin	-6885
▁faucon	-6886
▁fausse	-6887
▁fesses	-6888
▁former	-6889
▁formes	-6890
▁gamins	-6891
▁gravir	-6892
▁guidon	-6893
▁géants	-6894
▁jolies	-6895
▁joyeux	-6896
▁larges	-6897
▁latine	-6898
▁lesque	-6899
▁levées	-6900
▁légume	-6901
▁légère	-6902
▁majest	-6903
▁marcel	-6904
▁marqué	-6905
▁masqué	-6906
▁melons	-6907
▁mickey	-6908
▁mollet	-6909
▁mortes	-6910
▁multip	-6911
▁muselé	-6912
▁origin	-6913
▁pagaye	-6914
▁palais	-6915
▁parten	-6916
▁pinces	-6917
▁plâtre	-6918
▁poches	-6919
▁pompes	-6920
▁portée	-6921
▁positi	-6922
▁poussé	-6923
▁pouvez	-6924
▁poêles	-6925
▁puzzle	-6926
▁pédalo	-6927
▁questi	-6928
▁rayons	-6929
▁recher	-6930
▁retiré	-6931
▁rideau	-6932
▁rugbym	-6933
▁réfrig	-6934
▁répond	-6935
▁salade	-6936
▁saluer	-6937
▁saupou	-6938
▁sciant	-6939
▁serrés	-6940
▁sirène	-6941
▁suivre	-6942
▁textos	-6943
▁tomate	-6944
▁triant	-6945
▁tribal	-6946
▁tuiles	-6947
▁tétine	-6948
▁unicef	-6949
▁vendus	-6950
▁vision	-6951
▁voient	-6952
▁yamaha	-6953
▁écrase	-6954
▁émerve	-6955
▁étince	-6956
aculaire	-6957
aissance	-6958
antesque	-6959
apotable	-6960
avention	-6961
isseries	-6962
▁aboyant	-6963
▁adresse	-6964
▁afrique	-6965
▁ajuster	-6966
▁allumée	-6967
▁america	-6968
▁angeles	-6969
▁archite	-6970
▁arrange	-6971
▁assurer	-6972
▁atterri	-6973
▁balcons	-6974
▁bordant	-6975
▁boutons	-6976
▁boxeurs	-6977
▁cagoule	-6978
▁central	-6979
▁chacune	-6980
▁charbon	-6981
▁chewing	-6982
▁chèvres	-6983
▁citrons	-6984
▁clairse	-6985
▁cockpit	-6986
▁commerç	-6987
▁congrès	-6988
▁contemp	-6989
▁contrac	-6990
▁cornets	-6991
▁country	-6992
▁crochet	-6993
▁crosses	-6994
▁culture	-6995
▁cuvette	-6996
▁dauphin	-6997
▁dessiné	-6998
▁diplômé	-6999
▁dressée	-7000
▁déballe	-7001
▁découpé	-7002
▁détient	-7003
▁enfonce	-7004
▁enroulé	-7005
▁essence	-7006
▁ficelle	-7007
▁fitness	-7008
▁fouille	-7009
▁golfeur	-7010
▁gueules	-7011
▁hotdogs	-7012
▁humaine	-7013
▁hurlant	-7014
▁immobil	-7015
▁instant	-7016
▁invités	-7017
▁jaillit	-7018
▁jongler	-7019
▁lunette	-7020
▁lutteur	-7021
▁lycéens	-7022
▁léchant	-7023
▁magique	-7024
▁marelle	-7025
▁marrons	-7026
▁mascara	-7027
▁matinée	-7028
▁montrer	-7029
▁mordant	-7030
▁mouette	-7031
▁oeuvres	-7032
▁patriot	-7033
▁peintes	-7034
▁penchés	-7035
▁percute	-7036
▁perçant	-7037
▁peuvent	-7038
▁pieuvre	-7039
▁pinçant	-7040
▁pirates	-7041
▁placées	-7042
▁pleines	-7043
▁portail	-7044
▁porteur	-7045
▁propres	-7046
▁publics	-7047
▁période	-7048
▁rameurs	-7049
▁ratisse	-7050
▁reflets	-7051
▁restent	-7052
▁rondins	-7053
▁récolte	-7054
▁seniors	-7055
▁servent	-7056
▁sombrer	-7057
▁sommets	-7058
▁souterr	-7059
▁spécial	-7060
▁statues	-7061
▁synthét	-7062
▁tondant	-7063
▁tricote	-7064
▁tronçon	-7065
▁trouble	-7066
▁tunique	-7067
▁twister	-7068
▁verglac	-7069
▁énormes	-7070
▁accélère	-7071
▁agréable	-7072
▁amoureux	-7073
▁applique	-7074
▁appuyées	-7075
▁arbitres	-7076
▁arborant	-7077
▁baguette	-7078
▁bassiste	-7079
▁brochure	-7080
▁canadien	-7081
▁carriole	-7082
▁chinoise	-7083
▁commémor	-7084
▁couchant	-7085
▁cravates	-7086
▁croisent	-7087
▁disposés	-7088
▁divertir	-7089
▁divertit	-7090
▁dizaines	-7091
▁domicile	-7092
▁drainage	-7093
▁décoller	-7094
▁embrassé	-7095
▁endormis	-7096
▁entrelac	-7097
▁européen	-7098
▁exerçant	-7099
▁explique	-7100
▁exposant	-7101
▁fillette	-7102
▁forgeron	-7103
▁français	-7104
▁frontale	-7105
▁féminine	-7106
▁glacière	-7107
▁hippique	-7108
▁illuminé	-7109
▁inachevé	-7110
▁installé	-7111
▁interdit	-7112
▁internet	-7113
▁intitulé	-7114
▁joyeuses	-7115
▁laissant	-7116
▁lambeaux	-7117
▁lanterne	-7118
▁moquette	-7119
▁nouveaux	-7120
▁occasion	-7121
▁occupées	-7122
▁ombragée	-7123
▁opposées	-7124
▁patiente	-7125
▁penchent	-7126
▁penchées	-7127
▁percussi	-7128
▁percuter	-7129
▁physique	-7130
▁pilotant	-7131
▁piétonne	-7132
▁plongent	-7133
▁primaire	-7134
▁rapporte	-7135
▁rebondir	-7136
▁recevoir	-7137
▁relaxant	-7138
▁retrouss	-7139
▁réaliser	-7140
▁récoltes	-7141
▁sauvages	-7142
▁smokings	-7143
▁tournant	-7144
▁traînent	-7145
▁treillis	-7146
▁triangle	-7147
▁troupeau	-7148
▁trébuche	-7149
▁voiliers	-7150
▁voyagent	-7151
▁ébouriff	-7152
▁échelles	-7153
▁écolière	-7154
▁élégante	-7155
▁étagères	-7156
▁étranges	-7157
▁accrochée	-7158
▁agenouill	-7159
▁apparence	-7160
▁ascenseur	-7161
▁attachent	-7162
▁bannières	-7163
▁bavardent	-7164
▁bienvenue	-7165
▁boucherie	-7166
▁béquilles	-7167
▁caméraman	-7168
▁caressent	-7169
▁carrefour	-7170
▁cerisiers	-7171
▁charpente	-7172
▁coiffeuse	-7173
▁commander	-7174
▁commandes	-7175
▁compagnon	-7176
▁couronnes	-7177
▁croisière	-7178
▁célèbrent	-7179
▁célébrant	-7180
▁demandant	-7181
▁diaporama	-7182
▁difficile	-7183
▁différent	-7184
▁disputant	-7185
▁décontrac	-7186
▁déjeunent	-7187
▁déployées	-7188
▁emballage	-7189
▁encourage	-7190
▁enfonçant	-7191
▁explosion	-7192
▁extension	-7193
▁gesticule	-7194
▁glissière	-7195
▁identique	-7196
▁librairie	-7197
▁marcheurs	-7198
▁menuisier	-7199
▁musicales	-7200
▁musulmans	-7201
▁paintball	-7202
▁palissade	-7203
▁patineuse	-7204
▁pelletant	-7205
▁perruques	-7206
▁poubelles	-7207
▁quatrième	-7208
▁rambardes	-7209
▁réfléchit	-7210
▁savourant	-7211
▁sculptant	-7212
▁situation	-7213
▁soulèvent	-7214
▁squelette	-7215
▁substance	-7216
▁séminaire	-7217
▁technolog	-7218
▁terminant	-7219
▁tournoyer	-7220
▁transform	-7221
▁verticale	-7222
▁voyageant	-7223
▁voyageurs	-7224
▁accrochent	-7225
▁artificiel	-7226
▁autochtone	-7227
▁bondissant	-7228
▁bousculent	-7229
▁bétonnière	-7230
▁caricature	-7231
▁commerçant	-7232
▁concurrent	-7233
▁conduisent	-7234
▁deltaplane	-7235
▁déambulant	-7236
▁décorative	-7237
▁défenseurs	-7238
▁ensoleillé	-7239
▁enveloppée	-7240
▁hamburgers	-7241
▁handicapée	-7242
▁hippodrome	-7243
▁japonaises	-7244
▁kayakistes	-7245
▁kitchenaid	-7246
▁luxuriante	-7247
▁muselières	-7248
▁parachutes	-7249
▁patrouille	-7250
▁pellettent	-7251
▁piétonnier	-7252
▁postérieur	-7253
▁pourchasse	-7254
▁prestation	-7255
▁projection	-7256
▁saisissant	-7257
▁sauveteurs	-7258
▁stationnée	-7259
▁tourniquet	-7260
▁ustensiles	-7261
▁vieillards	-7262
▁villageois	-7263
▁échauffant	-7264
▁élévatrice	-7265
▁éparpillés	-7266
▁étincelles	-7267
▁accessoires	-7268
▁accompagnée	-7269
▁agriculteur	-7270
▁apparemment	-7271
▁appartenant	-7272
▁autochtones	-7273
▁britannique	-7274
▁charcuterie	-7275
▁choisissent	-7276
▁combattants	-7277
▁concurrents	-7278
▁décapotable	-7279
▁gigantesque	-7280
▁information	-7281
▁montagneuse	-7282
▁occupations	-7283
▁panoramique	-7284
▁particulier	-7285
▁protections	-7286
▁pâtisseries	-7287
▁randonneuse	-7288
▁renaissance	-7289
▁secouristes	-7290
▁transparent	-7291
▁télécommand	-7292
▁électricien	-7293
▁acrobatiques	-7294
▁actuellement	-7295
▁appartements	-7296
▁atterrissage	-7297
▁automatiques	-7298
▁chirurgicale	-7299
▁complètement	-7300
▁inhabituelle	-7301
▁pneumatiques	-7302
▁propriétaire	-7303
▁protestation	-7304
▁synthétiseur	-7305
▁trompettiste	-7306
▁trottinettes	-7307
▁contravention	-7308
▁photographiée	-7309
▁scientifiques	-7310
▁spectaculaire	-7311
▁enregistrement	-7312
▁impressionnant	-7313
▁traditionnelles	-7314
aç	-7315
cc	-7316
cé	-7317
di	-7318
ed	-7319
fo	-7320
hd	-7321
ry	-7322
va	-7323
xe	-7324
yr	-7325
çu	-7326
any	-7327
aok	-7328
apè	-7329
ark	-7330
aut	-7331
bos	-7332
bue	-7333
bur	-7334
béb	-7335
cal	-7336
cod	-7337
com	-7338
das	-7339
dic	-7340
enl	-7341
etn	-7342
gap	-7343
gar	-7344
hau	-7345
hee	-7346
ias	-7347
iki	-7348
jab	-7349
jou	-7350
lem	-7351
lié	-7352
mas	-7353
noc	-7354
nés	-7355
oie	-7356
ows	-7357
ppe	-7358
rét	-7359
uck	-7360
uve	-7361
vit	-7362
vor	-7363
ède	-7364
éné	-7365
▁bé	-7366
▁gy	-7367
▁rè	-7368
▁wc	-7369
agle	-7370
ague	-7371
aoké	-7372
bras	-7373
bébé	-7374
chos	-7375
dent	-7376
elet	-7377
endo	-7378
erre	-7379
erry	-7380
esol	-7381
etch	-7382
ffee	-7383
iger	-7384
ipes	-7385
iron	-7386
isés	-7387
iées	-7388
lème	-7389
mant	-7390
mère	-7391
oiss	-7392
omot	-7393
omét	-7394
orté	-7395
oura	-7396
rade	-7397
rain	-7398
reté	-7399
ki	-7400
ave	-7401
igh	-7402
inj	-7403
nie	-7404
tex	-7405
uss	-7406
vés	-7407
▁né	-7408
abes	-7409
agés	-7410
anon	-7411
bote	-7412
ctes	-7413
ires	-7414
mmer	-7415
pose	-7416
rick	-7417
rovi	-7418
tige	-7419
tire	-7420
téth	-7421
uels	-7422
ueux	-7423
vées	-7424
çonn	-7425
éran	-7426
▁abd	-7427
▁abs	-7428
▁ait	-7429
▁alg	-7430
▁ard	-7431
▁aur	-7432
▁blé	-7433
▁bmw	-7434
▁clé	-7435
▁day	-7436
▁den	-7437
▁dix	-7438
▁fac	-7439
▁gor	-7440
▁hér	-7441
▁ign	-7442
▁jam	-7443
▁joe	-7444
▁jon	-7445
▁ken	-7446
▁lei	-7447
▁lim	-7448
▁léz	-7449
▁mug	-7450
▁mém	-7451
▁mén	-7452
▁nid	-7453
▁noe	-7454
▁nue	-7455
▁néc	-7456
▁pon	-7457
▁rab	-7458
▁rai	-7459
▁rod	-7460
▁rot	-7461
▁sat	-7462
▁sch	-7463
▁sno	-7464
▁séd	-7465
▁tra	-7466
▁tul	-7467
▁tém	-7468
▁usa	-7469
▁vap	-7470
▁ven	-7471
▁vig	-7472
▁wii	-7473
▁épi	-7474
▁épr	-7475
abeau	-7476
almat	-7477
ampoo	-7478
apèze	-7479
atown	-7480
buste	-7481
cakes	-7482
chons	-7483
cross	-7484
ctang	-7485
enlit	-7486
enses	-7487
eries	-7488
etant	-7489
eting	-7490
etnam	-7491
franc	-7492
gères	-7493
icots	-7494
iesse	-7495
inant	-7496
inium	-7497
marin	-7498
ormée	-7499
gi	-7500
aff	-7501
alé	-7502
ith	-7503
lot	-7504
mac	-7505
ome	-7506
utt	-7507
▁ox	-7508
ayer	-7509
cles	-7510
iaux	-7511
itut	-7512
nées	-7513
pper	-7514
tang	-7515
time	-7516
▁bec	-7517
▁boa	-7518
▁exe	-7519
▁gay	-7520
▁mos	-7521
▁rig	-7522
▁vik	-7523
arech	-7524
ators	-7525
erves	-7526
eurre	-7527
fille	-7528
issés	-7529
osses	-7530
ourir	-7531
oyens	-7532
point	-7533
ppant	-7534
rible	-7535
rigué	-7536
roite	-7537
ronte	-7538
siers	-7539
sters	-7540
stème	-7541
ulent	-7542
ultan	-7543
ulélé	-7544
umeau	-7545
unker	-7546
voyer	-7547
ètres	-7548
▁abri	-7549
▁alum	-7550
▁amph	-7551
▁aube	-7552
▁bacs	-7553
▁bowl	-7554
▁brad	-7555
▁burq	-7556
▁cais	-7557
▁capu	-7558
▁chuc	-7559
▁cier	-7560
▁coqu	-7561
▁diab	-7562
▁dieu	-7563
▁dojo	-7564
▁dram	-7565
▁dure	-7566
▁débl	-7567
▁décl	-7568
▁démê	-7569
▁exce	-7570
▁farm	-7571
▁fire	-7572
▁fish	-7573
▁flex	-7574
▁flic	-7575
▁floc	-7576
▁féro	-7577
▁gamb	-7578
▁gauf	-7579
▁gout	-7580
▁grap	-7581
▁hach	-7582
▁half	-7583
▁hero	-7584
▁holl	-7585
▁hydr	-7586
▁juge	-7587
▁jump	-7588
▁lame	-7589
▁lego	-7590
▁lois	-7591
▁love	-7592
▁luxe	-7593
▁mall	-7594
▁mare	-7595
▁mich	-7596
▁mosa	-7597
▁mâle	-7598
▁ninj	-7599
ifs	-7600
ual	-7601
una	-7602
▁ai	-7603
▁em	-7604
book	-7605
gren	-7606
ibré	-7607
rape	-7608
rets	-7609
ster	-7610
uide	-7611
uise	-7612
voix	-7613
▁jim	-7614
▁tim	-7615
▁top	-7616
▁vér	-7617
ament	-7618
champ	-7619
iness	-7620
ombre	-7621
oncho	-7622
èches	-7623
▁alli	-7624
▁bouv	-7625
▁bric	-7626
▁cari	-7627
▁cort	-7628
▁crus	-7629
▁isol	-7630
▁nint	-7631
▁ohio	-7632
▁padd	-7633
▁patr	-7634
▁piss	-7635
▁play	-7636
▁pole	-7637
▁pouv	-7638
▁pron	-7639
▁pros	-7640
▁puis	-7641
▁puma	-7642
▁putt	-7643
▁pèse	-7644
▁quas	-7645
▁race	-7646
▁rejo	-7647
▁sari	-7648
▁secs	-7649
▁sing	-7650
▁souc	-7651
▁spir	-7652
▁stro	-7653
▁stup	-7654
▁suis	-7655
▁séqu	-7656
▁tard	-7657
▁test	-7658
▁trio	-7659
▁velu	-7660
▁voix	-7661
▁vote	-7662
▁walk	-7663
▁écou	-7664
▁éplu	-7665
▁évac	-7666
ampons	-7667
boscop	-7668
chages	-7669
codile	-7670
ctique	-7671
ercles	-7672
iences	-7673
ieuses	-7674
ignote	-7675
inions	-7676
iquier	-7677
itures	-7678
landes	-7679
mboard	-7680
neiger	-7681
oneige	-7682
onnent	-7683
ontant	-7684
oraire	-7685
orangé	-7686
oupier	-7687
ourdes	-7688
ousine	-7689
ouvant	-7690
pectus	-7691
thanne	-7692
uvrant	-7693
volley	-7694
ésente	-7695
▁abond	-7696
▁accep	-7697
▁ampli	-7698
▁arbus	-7699
▁arché	-7700
▁armés	-7701
▁aubes	-7702
▁audio	-7703
▁avert	-7704
▁bases	-7705
▁bidon	-7706
▁bongo	-7707
▁botte	-7708
▁boudd	-7709
▁broad	-7710
▁buggy	-7711
▁cages	-7712
▁caill	-7713
▁camer	-7714
▁camés	-7715
▁capes	-7716
▁cause	-7717
▁colon	-7718
▁coney	-7719
▁conse	-7720
▁conçu	-7721
▁corbe	-7722
▁corre	-7723
▁crier	-7724
▁crocs	-7725
▁divan	-7726
▁dribb	-7727
▁dépri	-7728
▁déser	-7729
▁empre	-7730
▁enrou	-7731
▁espad	-7732
▁favor	-7733
▁flous	-7734
▁flâne	-7735
▁folle	-7736
▁force	-7737
▁formé	-7738
▁forte	-7739
▁franc	-7740
▁frite	-7741
▁fréné	-7742
▁gosse	-7743
▁goudr	-7744
▁grave	-7745
▁griff	-7746
▁humor	-7747
▁husky	-7748
▁index	-7749
▁joker	-7750
▁kitty	-7751
▁latex	-7752
▁lente	-7753
▁loint	-7754
▁lâché	-7755
▁léger	-7756
▁major	-7757
▁manie	-7758
▁marie	-7759
▁menus	-7760
▁meute	-7761
▁mouse	-7762
▁mères	-7763
▁mètre	-7764
▁mégap	-7765
▁ollie	-7766
▁ondul	-7767
▁orgue	-7768
▁pages	-7769
▁pains	-7770
▁panda	-7771
▁parka	-7772
▁patie	-7773
▁pavés	-7774
▁phare	-7775
▁poker	-7776
▁pompe	-7777
▁porcs	-7778
▁pélic	-7779
▁quais	-7780
▁rames	-7781
▁rangs	-7782
▁roulé	-7783
▁règle	-7784
▁sauce	-7785
▁sauna	-7786
▁scint	-7787
▁scout	-7788
▁seins	-7789
▁sembl	-7790
▁seuls	-7791
▁sinis	-7792
▁sinue	-7793
▁situe	-7794
▁sodas	-7795
▁space	-7796
▁store	-7797
▁story	-7798
▁stéth	-7799
▁surch	-7800
▁sécur	-7801
▁tabac	-7802
▁tenus	-7803
▁toast	-7804
▁trucs	-7805
▁vingt	-7806
▁éques	-7807
▁étals	-7808
actères	-7809
adolesc	-7810
anneuse	-7811
hauteur	-7812
intemps	-7813
itative	-7814
namique	-7815
onnante	-7816
onnelle	-7817
onniers	-7818
onstitu	-7819
ournant	-7820
uisante	-7821
visions	-7822
▁affair	-7823
▁algues	-7824
▁allumé	-7825
▁angels	-7826
▁armure	-7827
▁assais	-7828
▁assoit	-7829
▁assure	-7830
▁astron	-7831
▁attabl	-7832
▁attire	-7833
▁auquel	-7834
▁avions	-7835
▁aviron	-7836
▁baille	-7837
▁balaye	-7838
▁barbie	-7839
▁barman	-7840
▁barric	-7841
▁battue	-7842
▁beagle	-7843
▁berlin	-7844
▁beurre	-7845
▁bitume	-7846
▁border	-7847
▁brasse	-7848
▁bunker	-7849
▁bâches	-7850
▁bérets	-7851
▁cacher	-7852
▁cadres	-7853
▁canine	-7854
▁carnet	-7855
▁cierge	-7856
▁cirant	-7857
▁cirque	-7858
▁cockta	-7859
▁colley	-7860
▁consul	-7861
▁croise	-7862
▁cruche	-7863
▁crânes	-7864
▁crêpes	-7865
▁cygnes	-7866
▁dalmat	-7867
▁danger	-7868
▁dindes	-7869
▁dirait	-7870
▁direct	-7871
▁drapée	-7872
▁drible	-7873
▁défile	-7874
▁démène	-7875
▁dérape	-7876
▁dînent	-7877
▁effets	-7878
▁empile	-7879
▁envole	-7880
▁espèce	-7881
▁examen	-7882
▁faites	-7883
▁fermée	-7884
▁flamme	-7885
▁fourre	-7886
▁fraise	-7887
▁frisée	-7888
▁galope	-7889
▁garden	-7890
▁gardes	-7891
▁gouver	-7892
▁grains	-7893
▁géomét	-7894
▁hangar	-7895
▁huttes	-7896
▁impéri	-7897
▁inspir	-7898
▁intégr	-7899
▁island	-7900
▁jonché	-7901
▁kimono	-7902
▁lakers	-7903
▁lancée	-7904
▁lancés	-7905
▁laveur	-7906
▁liesse	-7907
▁locaux	-7908
▁louche	-7909
▁manque	-7910
▁marais	-7911
▁market	-7912
▁matéri	-7913
▁mixeur	-7914
▁moines	-7915
▁monite	-7916
▁mouche	-7917
▁muscul	-7918
▁mènent	-7919
▁mètres	-7920
▁nouvel	-7921
▁nécess	-7922
▁occupé	-7923
▁oeuvre	-7924
▁orangé	-7925
▁oxford	-7926
▁parent	-7927
▁peigne	-7928
▁pelage	-7929
▁percer	-7930
▁perman	-7931
▁permet	-7932
▁plates	-7933
▁pleins	-7934
▁poings	-7935
▁pointu	-7936
▁poncho	-7937
▁poster	-7938
▁profil	-7939
▁précip	-7940
▁pâques	-7941
▁raides	-7942
▁recule	-7943
▁recycl	-7944
▁rendre	-7945
▁rentre	-7946
▁replié	-7947
▁râteau	-7948
▁rédige	-7949
▁réduit	-7950
▁saisir	-7951
▁sangle	-7952
▁saumon	-7953
▁second	-7954
▁serrer	-7955
▁serrée	-7956
▁servis	-7957
▁signal	-7958
▁simple	-7959
▁sirote	-7960
▁skater	-7961
▁sortis	-7962
▁souche	-7963
▁suivie	-7964
▁suçant	-7965
▁séjour	-7966
▁talkie	-7967
▁tartan	-7968
▁tasses	-7969
▁teckel	-7970
▁toyota	-7971
▁traces	-7972
▁trient	-7973
▁témoin	-7974
▁valeur	-7975
▁varech	-7976
▁verser	-7977
▁zombie	-7978
▁émerge	-7979
▁éperon	-7980
▁éprouv	-7981
aitement	-7982
ampooing	-7983
ationaux	-7984
ications	-7985
igemment	-7986
oreilles	-7987
▁abeille	-7988
▁accorde	-7989
▁agressi	-7990
▁agrippe	-7991
▁allumer	-7992
▁amicale	-7993
▁anciens	-7994
▁animées	-7995
▁arrêtés	-7996
▁aspergé	-7997
▁assorti	-7998
▁attrapé	-7999
▁avancer	-8000
▁bagarre	-8001
▁balayer	-8002
▁ballots	-8003
▁bambous	-8004
▁barbote	-8005
▁bergers	-8006
▁blessée	-8007
▁bouchée	-8008
▁cachent	-8009
▁caddies	-8010
▁cahiers	-8011
▁caleçon	-8012
▁califor	-8013
▁chamall	-8014
▁charger	-8015
▁chargée	-8016
▁chasser	-8017
▁chauffe	-8018
▁cierges	-8019
▁coiffer	-8020
▁coiffée	-8021
▁comique	-8022
▁company	-8023
▁cookies	-8024
▁cortège	-8025
▁couette	-8026
▁cousant	-8027
▁cowboys	-8028
▁cueille	-8029
▁cupcake	-8030
▁danseur	-8031
▁dessert	-8032
▁devoirs	-8033
▁diplôme	-8034
▁dirigés	-8035
▁dispers	-8036
▁disques	-8037
▁décider	-8038
▁dépasse	-8039
▁déployé	-8040
▁déroule	-8041
▁empilés	-8042
▁enterré	-8043
▁entoure	-8044
▁espagne	-8045
▁estrade	-8046
▁exploit	-8047
▁exprime	-8048
▁facteur	-8049
▁façonne	-8050
▁ferrovi	-8051
▁fleuris	-8052
▁foncées	-8053
▁fourgon	-8054
▁franges	-8055
▁frappés	-8056
▁frustré	-8057
▁graines	-8058
▁horloge	-8059
▁immergé	-8060
▁inconnu	-8061
▁informe	-8062
▁karaoké	-8063
▁lecteur	-8064
▁lecture	-8065
▁locomot	-8066
▁loterie	-8067
▁luttant	-8068
▁maillet	-8069
▁manuels	-8070
▁massues	-8071
▁meeting	-8072
▁message	-8073
▁miroirs	-8074
▁monster	-8075
▁mosquée	-8076
▁muscles	-8077
▁mustang	-8078
▁navette	-8079
▁neigeux	-8080
▁niveaux	-8081
▁nombres	-8082
▁observé	-8083
▁occupée	-8084
▁ombragé	-8085
▁opposée	-8086
▁parties	-8087
▁passion	-8088
▁pasteur	-8089
▁patrick	-8090
▁pharmac	-8091
▁piliers	-8092
▁piétiné	-8093
▁planeur	-8094
▁plantés	-8095
▁plaques	-8096
▁pompons	-8097
▁ponchos	-8098
▁popcorn	-8099
▁projeté	-8100
▁propane	-8101
▁propose	-8102
▁préféré	-8103
▁préserv	-8104
▁pétrole	-8105
▁raconte	-8106
▁rectang	-8107
▁regardé	-8108
▁remplir	-8109
▁retient	-8110
▁retirer	-8111
▁retrait	-8112
▁robuste	-8113
▁rouillé	-8114
▁réalise	-8115
▁récepti	-8116
▁réchaud	-8117
▁samoura	-8118
▁sandale	-8119
▁sculpté	-8120
▁serpill	-8121
▁slalome	-8122
▁smasher	-8123
▁soudage	-8124
▁soudeur	-8125
▁souffre	-8126
▁surfent	-8127
▁surpris	-8128
▁symbole	-8129
▁système	-8130
▁séchant	-8131
▁taillés	-8132
▁tendues	-8133
▁tension	-8134
▁textile	-8135
▁tissage	-8136
▁touffue	-8137
▁trapèze	-8138
▁troupes	-8139
▁tulipes	-8140
▁turbans	-8141
▁ukulélé	-8142
▁unisson	-8143
▁urbains	-8144
▁vaquent	-8145
▁versent	-8146
▁vietnam	-8147
▁vigoure	-8148
▁vitrées	-8149
▁voilées	-8150
▁volante	-8151
▁véranda	-8152
▁zombies	-8153
▁écolier	-8154
▁élément	-8155
▁émotion	-8156
▁étudier	-8157
roitement	-8158
tiquement	-8159
vaisselle	-8160
▁affronte	-8161
▁alignent	-8162
▁altitude	-8163
▁apparaît	-8164
▁appuient	-8165
▁argentés	-8166
▁assemble	-8167
▁assisent	-8168
▁assoient	-8169
▁assortis	-8170
▁avantage	-8171
▁aviateur	-8172
▁baissant	-8173
▁balaient	-8174
▁barbelés	-8175
▁basculer	-8176
▁bavarder	-8177
▁beignets	-8178
▁bordures	-8179
▁brillent	-8180
▁bronzant	-8181
▁business	-8182
▁caresser	-8183
▁carrelée	-8184
▁chambres	-8185
▁chapelet	-8186
▁chargent	-8187
▁chiffons	-8188
▁chuchote	-8189
▁citoyens	-8190
▁classeur	-8191
▁colorier	-8192
▁commerce	-8193
▁compagne	-8194
▁comprend	-8195
▁conduite	-8196
▁couloirs	-8197
▁couronne	-8198
▁coussins	-8199
▁couteaux	-8200
▁crampons	-8201
▁croupier	-8202
▁cupcakes	-8203
▁cyclable	-8204
▁célébrer	-8205
▁dentiste	-8206
▁desserts	-8207
▁décident	-8208
▁décollet	-8209
▁décorant	-8210
▁découpés	-8211
▁déformée	-8212
▁déguiser	-8213
▁délabrée	-8214
▁déneiger	-8215
▁dépasser	-8216
▁désordre	-8217
▁détendre	-8218
▁détourne	-8219
▁effrayée	-8220
▁employée	-8221
▁enflammé	-8222
▁enlacent	-8223
▁enneigés	-8224
▁escabeau	-8225
▁escarpée	-8226
▁excitant	-8227
▁exhibant	-8228
▁expressi	-8229
▁fabriqué	-8230
▁familles	-8231
▁flotteur	-8232
▁fougères	-8233
▁glissent	-8234
▁grignote	-8235
▁guerrier	-8236
▁habiller	-8237
▁haricots	-8238
▁histoire	-8239
▁horizont	-8240
▁imprimée	-8241
▁inclinée	-8242
▁insolite	-8243
▁institut	-8244
▁intrigué	-8245
▁joggeurs	-8246
▁joliment	-8247
▁jongleur	-8248
▁lentille	-8249
▁lesquels	-8250
▁longueur	-8251
▁machette	-8252
▁magicien	-8253
▁magiques	-8254
▁mallette	-8255
▁mariachi	-8256
▁marteaux	-8257
▁masculin	-8258
▁mendiant	-8259
▁motocycl	-8260
▁mouchoir	-8261
▁moulante	-8262
▁moulants	-8263
▁médicale	-8264
▁méditant	-8265
▁médiéval	-8266
▁mélanger	-8267
▁nintendo	-8268
▁opinions	-8269
▁origines	-8270
▁parcelle	-8271
▁pastèque	-8272
▁patinage	-8273
▁patinant	-8274
▁pavillon	-8275
▁pingouin	-8276
▁plaisant	-8277
▁plaquent	-8278
▁plastron	-8279
▁pleurant	-8280
▁poignées	-8281
▁portière	-8282
▁pourrait	-8283
▁poursuiv	-8284
▁pressent	-8285
▁profiter	-8286
▁protégée	-8287
▁rebondit	-8288
▁rentrant	-8289
▁renvoyer	-8290
▁retrouve	-8291
▁revenant	-8292
▁rituelle	-8293
▁récupéré	-8294
▁showgirl	-8295
▁simultan	-8296
▁sinistre	-8297
▁sirotant	-8298
▁sombrero	-8299
▁sportifs	-8300
▁supports	-8301
▁tambours	-8302
▁toilette	-8303
▁tournent	-8304
▁tranchée	-8305
▁tribunes	-8306
▁tricoter	-8307
▁trottant	-8308
▁vallonné	-8309
▁vieillot	-8310
▁visitant	-8311
▁vivement	-8312
▁voyageur	-8313
▁vérifier	-8314
▁écrivent	-8315
▁élégants	-8316
▁émission	-8317
▁équestre	-8318
▁équipage	-8319
▁étreinte	-8320
▁étudient	-8321
atiquement	-8322
▁abandonné	-8323
▁accidenté	-8324
▁accrocher	-8325
▁accueille	-8326
▁affronter	-8327
▁agrippant	-8328
▁allemands	-8329
▁aluminium	-8330
▁ambulance	-8331
▁apprendre	-8332
▁apprécier	-8333
▁archéolog	-8334
▁assemblée	-8335
▁attachant	-8336
▁attrapent	-8337
▁boutiques	-8338
▁boutonnée	-8339
▁brassière	-8340
▁bénévoles	-8341
▁caissière	-8342
▁camarades	-8343
▁canadiens	-8344
▁capitaine	-8345
▁cavalière	-8346
▁centaines	-8347
▁chalumeau	-8348
▁chanteurs	-8349
▁chevalier	-8350
▁chinatown	-8351
▁clairière	-8352
▁concierge	-8353
▁conserves	-8354
▁contrôler	-8355
▁crevettes	-8356
▁crocodile	-8357
▁cueillant	-8358
▁céramique	-8359
▁dessinent	-8360
▁dessinées	-8361
▁distribue	-8362
▁doucement	-8363
▁déballant	-8364
▁décoratif	-8365
▁déjeunant	-8366
▁déroulent	-8367
▁employées	-8368
▁encadrées	-8369
▁enveloppe	-8370
▁espagnole	-8371
▁explorant	-8372
▁feuillage	-8373
▁figurines	-8374
▁fièrement	-8375
▁flotteurs	-8376
▁fouillant	-8377
▁graphique	-8378
▁grillades	-8379
▁hollister	-8380
▁illuminée	-8381
▁inachevée	-8382
▁installer	-8383
▁lentement	-8384
▁limousine	-8385
▁maquiller	-8386
▁meilleure	-8387
▁motoneige	-8388
▁multiples	-8389
▁mécanique	-8390
▁médailles	-8391
▁médiévaux	-8392
▁mégaphone	-8393
▁mélangent	-8394
▁naviguent	-8395
▁nouvelles	-8396
▁officiels	-8397
▁ordinaire	-8398
▁orientaux	-8399
▁palourdes	-8400
▁paperasse	-8401
▁papillons	-8402
▁passionné	-8403
▁pataugent	-8404
▁peintures	-8405
▁pelucheux	-8406
▁piercings	-8407
▁pissenlit	-8408
▁pluvieuse	-8409
▁policière	-8410
▁politique	-8411
▁pratiquer	-8412
▁printemps	-8413
▁quotidien	-8414
▁recherche	-8415
▁rembourré	-8416
▁renversée	-8417
▁retournée	-8418
▁récoltent	-8419
▁savoureux	-8420
▁skimboard	-8421
▁soufflent	-8422
▁survolant	-8423
▁tambourin	-8424
▁terminent	-8425
▁tournesol	-8426
▁tournevis	-8427
▁tricycles	-8428
▁échauffer	-8429
▁échiquier	-8430
▁éclairées	-8431
▁élégantes	-8432
▁énergique	-8433
▁étiquette	-8434
▁étrangers	-8435
▁évènement	-8436
boscopiques	-8437
▁accompagne	-8438
▁accélérant	-8439
▁antiquités	-8440
▁appliquant	-8441
▁apprennent	-8442
▁arrangeant	-8443
▁artisanale	-8444
▁assistante	-8445
▁astronaute	-8446
▁balancelle	-8447
▁bijouterie	-8448
▁bouleversé	-8449
▁branchages	-8450
▁brochettes	-8451
▁caractères	-8452
▁casseroles	-8453
▁chaudement	-8454
▁classiques	-8455
▁communique	-8456
▁comprenant	-8457
▁concentrés	-8458
▁conditions	-8459
▁convention	-8460
▁cornemuses	-8461
▁couturière	-8462
▁délicieuse	-8463
▁dépanneuse	-8464
▁désordonné	-8465
▁détournant	-8466
▁empreintes	-8467
▁engagement	-8468
▁entrejambe	-8469
▁entrelacés	-8470
▁escrimeurs	-8471
▁extrémités	-8472
▁feuillages	-8473
▁fléchettes	-8474
▁formations	-8475
▁goudronnée	-8476
▁grenouille	-8477
▁guirlandes	-8478
▁importante	-8479
▁impression	-8480
▁inclinable	-8481
▁incroyable	-8482
▁installées	-8483
▁interviewe	-8484
▁mannequins	-8485
▁maquillées	-8486
▁menuiserie	-8487
▁mécanicien	-8488
▁orientales	-8489
▁originaire	-8490
▁partenaire	-8491
▁pataugeant	-8492
▁patiemment	-8493
▁politiques	-8494
▁positionne	-8495
▁possession	-8496
▁powerpoint	-8497
▁promouvant	-8498
▁prospectus	-8499
▁provisions	-8500
▁prélassent	-8501
▁présentant	-8502
▁présentent	-8503
▁pâtisserie	-8504
▁reconstitu	-8505
▁recouverts	-8506
▁regroupées	-8507
▁représente	-8508
▁récipients	-8509
▁récupérant	-8510
▁sanitaires	-8511
▁simplement	-8512
▁sponsorisé	-8513
▁suspendues	-8514
▁séduisante	-8515
▁technicien	-8516
▁temporaire	-8517
▁uniquement	-8518
▁ébouriffés	-8519
▁élasthanne	-8520
▁étiquettes	-8521
▁amérindiens	-8522
▁athlétiques	-8523
▁balançoires	-8524
▁bouleversée	-8525
▁chirurgical	-8526
▁commerciale	-8527
▁commerçante	-8528
▁compétences	-8529
▁contemplant	-8530
▁contractant	-8531
▁directement	-8532
▁distribuant	-8533
▁désarçonner	-8534
▁embarcation	-8535
▁explorateur	-8536
▁expérimenté	-8537
▁fournitures	-8538
▁hispaniques	-8539
▁inspiration	-8540
▁intervenant	-8541
▁musculation	-8542
▁nourrissant	-8543
▁pataugeoire	-8544
▁percussions	-8545
▁pneumatique	-8546
▁protecteurs	-8547
▁préparation	-8548
▁recouvertes	-8549
▁sablonneuse	-8550
▁stéthoscope	-8551
▁technologie	-8552
▁verdoyantes	-8553
▁éclabousser	-8554
▁éclaboussée	-8555
▁éparpillées	-8556
▁agriculteurs	-8557
▁alimentation	-8558
▁autocollants	-8559
▁correctement	-8560
▁divertissant	-8561
▁marathoniens	-8562
▁motocyclette	-8563
▁parachutiste	-8564
▁particulière	-8565
▁pourchassent	-8566
▁profondément	-8567
▁réconfortant	-8568
▁survêtements	-8569
▁télécommandé	-8570
▁avertissement	-8571
▁enregistreuse	-8572
▁interagissant	-8573
▁intéressantes	-8574
▁parallèlement	-8575
▁photographiés	-8576
▁propriétaires	-8577
▁publicitaires	-8578
▁réfrigérateur	-8579
▁simultanément	-8580
▁téléphoniques	-8581
▁dangereusement	-8582
▁frénétiquement	-8583
▁vigoureusement	-8584
▁confortablement	-8585
▁réfléchissantes	-8586
▁stroboscopiques	-8587
awk	-8588
flé	-8589
hém	-8590
llo	-8591
loo	-8592
mca	-8593
oia	-8594
oks	-8595
ski	-8596
ufc	-8597
xyg	-8598
yst	-8599
âts	-8600
éma	-8601
acks	-8602
ahaw	-8603
ails	-8604
argé	-8605
arié	-8606
awas	-8607
bull	-8608
burn	-8609
cuzz	-8610
edle	-8611
esty	-8612
foot	-8613
gway	-8614
ijab	-8615
ithé	-8616
lies	-8617
lots	-8618
niqu	-8619
ommé	-8620
ooby	-8621
otax	-8622
prof	-8623
psic	-8624
visé	-8625
▁baz	-8626
▁dob	-8627
▁err	-8628
▁isl	-8629
▁kom	-8630
▁oak	-8631
▁wes	-8632
▁yoy	-8633
▁zig	-8634
aguer	-8635
alkie	-8636
andem	-8637
apper	-8638
auffe	-8639
brise	-8640
ccine	-8641
cuzzi	-8642
frous	-8643
gerid	-8644
heels	-8645
homas	-8646
héros	-8647
iales	-8648
ibbon	-8649
igloo	-8650
indou	-8651
jourd	-8652
kemon	-8653
lande	-8654
leigh	-8655
liner	-8656
mptue	-8657
notes	-8658
oissé	-8659
olore	-8660
onflé	-8661
orial	-8662
ortés	-8663
otaxi	-8664
oucho	-8665
plein	-8666
proje	-8667
raite	-8668
rifié	-8669
rolet	-8670
teils	-8671
ucure	-8672
yrène	-8673
ègent	-8674
▁affe	-8675
▁aigu	-8676
▁baby	-8677
▁back	-8678
▁bank	-8679
▁bibe	-8680
▁cact	-8681
▁capt	-8682
▁choc	-8683
▁chât	-8684
▁city	-8685
▁cuiv	-8686
▁doub	-8687
▁douz	-8688
▁dégr	-8689
▁dîne	-8690
▁east	-8691
▁euro	-8692
▁faci	-8693
▁game	-8694
▁gonf	-8695
▁goul	-8696
▁grog	-8697
▁harm	-8698
▁heal	-8699
opy	-8700
owa	-8701
raf	-8702
aché	-8703
afes	-8704
anke	-8705
orke	-8706
zels	-8707
ènes	-8708
▁raw	-8709
▁tae	-8710
ennes	-8711
house	-8712
itale	-8713
jupes	-8714
lages	-8715
oping	-8716
▁démo	-8717
▁hulk	-8718
▁iowa	-8719
▁isra	-8720
▁judo	-8721
▁juif	-8722
▁mime	-8723
▁mixe	-8724
▁moul	-8725
▁nota	-8726
▁néer	-8727
▁néon	-8728
▁oies	-8729
▁oxyg	-8730
▁pack	-8731
▁paqu	-8732
▁pauv	-8733
▁penn	-8734
▁préd	-8735
▁prén	-8736
▁prév	-8737
▁pylô	-8738
▁reço	-8739
▁reçu	-8740
▁rôle	-8741
▁sams	-8742
▁sere	-8743
▁serr	-8744
▁sexe	-8745
▁spin	-8746
▁styl	-8747
▁succ	-8748
▁sush	-8749
▁swat	-8750
▁tein	-8751
▁tick	-8752
▁time	-8753
▁vidé	-8754
▁wall	-8755
▁ymca	-8756
▁yoyo	-8757
▁zune	-8758
▁élag	-8759
▁élev	-8760
▁élim	-8761
ahawks	-8762
ankees	-8763
arting	-8764
atives	-8765
disque	-8766
elleux	-8767
erback	-8768
ernant	-8769
ielles	-8770
ientôt	-8771
inistr	-8772
inçant	-8773
irevol	-8774
lution	-8775
melles	-8776
morque	-8777
nesota	-8778
ocolis	-8779
omique	-8780
onnaie	-8781
ources	-8782
ouston	-8783
oyeuse	-8784
quante	-8785
raille	-8786
roquet	-8787
sardes	-8788
tigeur	-8789
timité	-8790
timore	-8791
tiquer	-8792
uction	-8793
unning	-8794
volent	-8795
égeant	-8796
émeute	-8797
érieur	-8798
▁abatt	-8799
cup	-8800
ôme	-8801
▁ps	-8802
agas	-8803
avid	-8804
igno	-8805
tiqu	-8806
▁bip	-8807
▁did	-8808
▁fid	-8809
▁hip	-8810
abble	-8811
agers	-8812
allen	-8813
cupés	-8814
▁beff	-8815
▁brig	-8816
▁dunk	-8817
▁dôme	-8818
▁muni	-8819
▁péné	-8820
▁suce	-8821
▁trip	-8822
▁vies	-8823
enance	-8824
formes	-8825
itimes	-8826
walkie	-8827
▁abdos	-8828
▁affle	-8829
▁agraf	-8830
▁aidée	-8831
▁année	-8832
▁aurai	-8833
▁autel	-8834
▁bague	-8835
▁baies	-8836
▁biche	-8837
▁block	-8838
▁bocal	-8839
▁branc	-8840
▁breuv	-8841
▁bride	-8842
▁buand	-8843
▁budwe	-8844
▁burqa	-8845
▁buste	-8846
▁butte	-8847
▁caden	-8848
▁cadet	-8849
▁cardi	-8850
▁catam	-8851
▁chope	-8852
▁coméd	-8853
▁conif	-8854
▁corgi	-8855
▁coton	-8856
▁creux	-8857
▁dance	-8858
▁david	-8859
▁dense	-8860
▁diner	-8861
▁dissi	-8862
▁draps	-8863
▁décri	-8864
▁délim	-8865
▁démol	-8866
▁déses	-8867
▁dévis	-8868
▁empan	-8869
▁encre	-8870
▁enrol	-8871
▁envah	-8872
▁envoi	-8873
▁error	-8874
▁euros	-8875
▁excav	-8876
▁expri	-8877
▁fauve	-8878
▁ferry	-8879
▁final	-8880
▁finit	-8881
▁fixer	-8882
▁fluor	-8883
▁flyer	-8884
▁fuite	-8885
▁fusée	-8886
▁glacé	-8887
▁grind	-8888
▁grizz	-8889
▁heine	-8890
▁hello	-8891
▁hijab	-8892
▁hoops	-8893
▁house	-8894
▁human	-8895
▁héron	-8896
▁imite	-8897
▁impat	-8898
▁impro	-8899
asy	-8900
bab	-8901
uce	-8902
vêt	-8903
▁râ	-8904
abil	-8905
ainc	-8906
ases	-8907
horn	-8908
iler	-8909
mbré	-8910
orak	-8911
pain	-8912
tern	-8913
vole	-8914
wood	-8915
çons	-8916
▁eye	-8917
▁not	-8918
▁oce	-8919
▁pab	-8920
aître	-8921
inoir	-8922
isque	-8923
ituel	-8924
média	-8925
outon	-8926
▁cand	-8927
▁colp	-8928
▁eiff	-8929
▁fais	-8930
▁grin	-8931
▁halt	-8932
▁marx	-8933
▁mill	-8934
▁noun	-8935
▁sein	-8936
▁wond	-8937
aincre	-8938
chevêt	-8939
mentée	-8940
oncent	-8941
▁ambré	-8942
▁berce	-8943
▁carol	-8944
▁innoc	-8945
▁isolé	-8946
▁jeudi	-8947
▁johns	-8948
▁juché	-8949
▁juifs	-8950
▁juive	-8951
▁karts	-8952
▁kawas	-8953
▁klein	-8954
▁limon	-8955
▁longe	-8956
▁louis	-8957
▁lèvre	-8958
▁malad	-8959
▁mauve	-8960
▁miche	-8961
▁mobil	-8962
▁molle	-8963
▁négoc	-8964
▁pabst	-8965
▁pagne	-8966
▁party	-8967
▁perle	-8968
▁piton	-8969
▁placé	-8970
▁pliée	-8971
▁plomb	-8972
▁pâtur	-8973
▁pédes	-8974
▁ranch	-8975
▁rasée	-8976
▁rattr	-8977
▁recue	-8978
▁remor	-8979
▁rendu	-8980
▁riche	-8981
▁rigol	-8982
▁rocks	-8983
▁ruine	-8984
▁rétic	-8985
▁servi	-8986
▁sirop	-8987
▁smart	-8988
▁snack	-8989
▁soins	-8990
▁sorti	-8991
▁spare	-8992
▁staff	-8993
▁sweet	-8994
▁swiff	-8995
▁swing	-8996
▁tagué	-8997
▁thème	-8998
▁tiens	-8999
got	-9000
iat	-9001
ize	-9002
lap	-9003
mat	-9004
nal	-9005
tle	-9006
ura	-9007
etti	-9008
gles	-9009
hers	-9010
orés	-9011
père	-9012
▁age	-9013
▁aim	-9014
▁got	-9015
▁mys	-9016
▁rev	-9017
▁sab	-9018
ayent	-9019
açage	-9020
erric	-9021
irway	-9022
lapse	-9023
mmage	-9024
temps	-9025
▁bage	-9026
▁cend	-9027
▁esqu	-9028
▁fixé	-9029
▁fumé	-9030
▁gall	-9031
▁ipad	-9032
▁unie	-9033
térale	-9034
▁agité	-9035
▁assur	-9036
▁brume	-9037
▁cargo	-9038
▁défie	-9039
▁flash	-9040
▁remar	-9041
▁réser	-9042
▁shoot	-9043
▁stock	-9044
▁tourb	-9045
▁tours	-9046
▁trébu	-9047
▁vador	-9048
▁vigno	-9049
▁volée	-9050
▁votre	-9051
▁vétér	-9052
▁welco	-9053
▁wells	-9054
▁élevé	-9055
▁épuis	-9056
aissant	-9057
allenge	-9058
auffent	-9059
autaire	-9060
ensible	-9061
entaine	-9062
errican	-9063
grenier	-9064
hérique	-9065
ilement	-9066
illance	-9067
landais	-9068
leterre	-9069
oiselle	-9070
onnants	-9071
orienté	-9072
oufrous	-9073
parents	-9074
parleur	-9075
terrain	-9076
urement	-9077
versale	-9078
▁abaiss	-9079
▁aborde	-9080
▁aimons	-9081
▁anorak	-9082
▁arides	-9083
▁armées	-9084
▁aspire	-9085
▁attaqu	-9086
▁avenir	-9087
▁averse	-9088
▁badges	-9089
▁baquet	-9090
▁beffro	-9091
▁besace	-9092
▁blocks	-9093
▁bobine	-9094
▁bouddh	-9095
▁bourge	-9096
▁bourse	-9097
▁boxent	-9098
▁braque	-9099
ds	-9100
fe	-9101
apt	-9102
gie	-9103
gon	-9104
ife	-9105
ken	-9106
rid	-9107
▁fâ	-9108
▁ke	-9109
▁mp	-9110
amen	-9111
ands	-9112
aper	-9113
icti	-9114
ionn	-9115
mong	-9116
ulée	-9117
▁trè	-9118
▁tue	-9119
▁égy	-9120
illas	-9121
lexes	-9122
oises	-9123
▁bapt	-9124
▁bati	-9125
▁bruy	-9126
▁gyro	-9127
▁life	-9128
▁mcdo	-9129
▁mois	-9130
▁ocre	-9131
▁sait	-9132
▁tank	-9133
▁team	-9134
▁vase	-9135
cheron	-9136
endent	-9137
otique	-9138
▁alent	-9139
▁capti	-9140
▁carab	-9141
▁chees	-9142
▁drapé	-9143
▁paris	-9144
▁pendu	-9145
▁russe	-9146
▁égypt	-9147
éranien	-9148
▁affalé	-9149
▁broché	-9150
▁buffle	-9151
▁burrit	-9152
▁cachée	-9153
▁cactus	-9154
▁cadill	-9155
▁campus	-9156
▁canada	-9157
▁carrée	-9158
▁castro	-9159
▁cerise	-9160
▁certif	-9161
▁chalet	-9162
▁chande	-9163
▁cheese	-9164
▁chevel	-9165
▁chimie	-9166
▁cinéma	-9167
▁cirage	-9168
▁circus	-9169
▁clairs	-9170
▁claque	-9171
▁cloche	-9172
▁cochon	-9173
▁coffee	-9174
▁coincé	-9175
▁colpor	-9176
▁compar	-9177
▁confus	-9178
▁conser	-9179
▁cordon	-9180
▁couler	-9181
▁crabes	-9182
▁crayol	-9183
▁crient	-9184
▁croque	-9185
▁devine	-9186
▁diffic	-9187
▁dirigé	-9188
▁dispar	-9189
▁dissim	-9190
▁distin	-9191
▁dressé	-9192
▁décide	-9193
▁déclar	-9194
▁décore	-9195
▁déluge	-9196
▁désolé	-9197
▁dînant	-9198
▁eiffel	-9199
gs	-9200
mn	-9201
sc	-9202
uz	-9203
cou	-9204
mex	-9205
wan	-9206
éen	-9207
▁aî	-9208
▁cd	-9209
▁ga	-9210
▁gê	-9211
▁mm	-9212
aker	-9213
dant	-9214
hawk	-9215
ibou	-9216
iqué	-9217
mnol	-9218
trer	-9219
ways	-9220
▁mma	-9221
▁nos	-9222
▁pép	-9223
▁uni	-9224
otoir	-9225
ueuse	-9226
▁aval	-9227
▁bisc	-9228
▁cake	-9229
▁calv	-9230
▁pomm	-9231
▁raté	-9232
▁requ	-9233
▁vais	-9234
igator	-9235
▁aille	-9236
▁bazar	-9237
▁brind	-9238
▁dédic	-9239
▁frime	-9240
▁hibou	-9241
▁porce	-9242
▁référ	-9243
cheveux	-9244
mexique	-9245
▁achève	-9246
▁arrivé	-9247
▁calvin	-9248
▁coréen	-9249
▁coucou	-9250
▁désesp	-9251
▁empare	-9252
▁encens	-9253
▁enfour	-9254
▁engage	-9255
▁engine	-9256
▁engren	-9257
▁espadr	-9258
▁espoir	-9259
▁excent	-9260
▁exempl	-9261
▁extrav	-9262
▁fierté	-9263
▁finale	-9264
▁fluide	-9265
▁foulée	-9266
▁france	-9267
▁friser	-9268
▁frites	-9269
▁fronce	-9270
▁frères	-9271
▁fument	-9272
▁fuyant	-9273
▁fâchée	-9274
▁féroce	-9275
▁gardée	-9276
▁gaufre	-9277
▁geisha	-9278
▁gorgée	-9279
▁griffe	-9280
▁grillé	-9281
▁harlem	-9282
▁hindou	-9283
▁hippie	-9284
▁hydrau	-9285
▁iphone	-9286
▁isolée	-9287
▁laitue	-9288
▁larmes	-9289
▁latino	-9290
▁lavage	-9291
▁lettre	-9292
▁libère	-9293
▁livrer	-9294
▁london	-9295
▁légers	-9296
▁lézard	-9297
▁majeur	-9298
▁mauves	-9299
ly	-9300
tu	-9301
yo	-9302
nit	-9303
orl	-9304
unt	-9305
▁dy	-9306
▁éd	-9307
aran	-9308
aska	-9309
ones	-9310
orld	-9311
pant	-9312
tice	-9313
urst	-9314
▁bun	-9315
▁cos	-9316
▁dig	-9317
▁nar	-9318
▁tis	-9319
▁ton	-9320
▁ufc	-9321
chage	-9322
ctory	-9323
esant	-9324
mplin	-9325
mètre	-9326
rable	-9327
verte	-9328
▁bobs	-9329
▁brid	-9330
▁duel	-9331
▁garn	-9332
▁gent	-9333
▁gère	-9334
▁heur	-9335
▁oeil	-9336
▁écle	-9337
ctrice	-9338
ipette	-9339
ortage	-9340
ulière	-9341
zaguer	-9342
▁calot	-9343
▁hotel	-9344
▁meule	-9345
▁mixer	-9346
▁aiment	-9347
▁alaska	-9348
▁allait	-9349
▁alphab	-9350
▁assoup	-9351
▁burger	-9352
▁comble	-9353
▁gosses	-9354
▁maçonn	-9355
▁mesure	-9356
▁mohawk	-9357
▁montré	-9358
▁médias	-9359
▁needle	-9360
▁noeuds	-9361
▁nounou	-9362
▁néglig	-9363
▁oppose	-9364
▁paddle	-9365
▁pardes	-9366
▁parfum	-9367
▁parois	-9368
▁pastel	-9369
▁pavant	-9370
▁percée	-9371
▁pesant	-9372
▁places	-9373
▁points	-9374
▁polyst	-9375
▁popsic	-9376
▁poulie	-9377
▁preuve	-9378
▁prêtes	-9379
▁raison	-9380
▁relevé	-9381
▁repéré	-9382
▁retard	-9383
▁retour	-9384
▁ribbon	-9385
▁risque	-9386
▁rocker	-9387
▁rondin	-9388
▁roulée	-9389
▁répand	-9390
▁réseau	-9391
▁réserv	-9392
▁réunit	-9393
▁sauver	-9394
▁scooby	-9395
▁segway	-9396
▁series	-9397
▁signif	-9398
▁sketch	-9399
bc	-9400
bas	-9401
ern	-9402
inn	-9403
ury	-9404
été	-9405
▁hâ	-9406
▁mê	-9407
▁tv	-9408
face	-9409
indé	-9410
iner	-9411
mark	-9412
▁doc	-9413
▁ino	-9414
▁lis	-9415
▁pru	-9416
▁val	-9417
▁voc	-9418
adère	-9419
alymp	-9420
ouche	-9421
▁amas	-9422
▁avis	-9423
▁fini	-9424
▁intr	-9425
▁king	-9426
▁lits	-9427
▁louv	-9428
▁meul	-9429
▁poir	-9430
▁poud	-9431
▁vins	-9432
ernité	-9433
urette	-9434
▁huile	-9435
▁igloo	-9436
▁numér	-9437
▁rouet	-9438
▁scier	-9439
entelle	-9440
monnaie	-9441
▁blindé	-9442
▁bouclé	-9443
▁bouill	-9444
▁italie	-9445
▁louvre	-9446
▁montée	-9447
▁snoopy	-9448
▁snorke	-9449
▁social	-9450
▁soient	-9451
▁solide	-9452
▁somnol	-9453
▁stabil	-9454
▁stones	-9455
▁string	-9456
▁succès	-9457
▁summer	-9458
▁superv	-9459
▁sushis	-9460
▁sweats	-9461
▁sépare	-9462
▁taggée	-9463
▁tandem	-9464
▁tapote	-9465
▁tartes	-9466
▁terres	-9467
▁terror	-9468
▁thomas	-9469
▁tiroir	-9470
▁tirées	-9471
▁tissée	-9472
▁tondue	-9473
▁touché	-9474
▁trajet	-9475
▁traîne	-9476
▁tressé	-9477
▁triomp	-9478
▁trouvé	-9479
▁urgent	-9480
▁vapeur	-9481
▁ventil	-9482
▁victor	-9483
▁visant	-9484
▁volcan	-9485
▁voyant	-9486
▁wonder	-9487
▁égouts	-9488
▁épuisé	-9489
▁érable	-9490
▁établi	-9491
ccinelle	-9492
identiel	-9493
igration	-9494
ithéâtre	-9495
landaise	-9496
onnaires	-9497
ormément	-9498
remorque	-9499
nia	-9500
vél	-9501
épi	-9502
bron	-9503
cass	-9504
pier	-9505
qués	-9506
ésus	-9507
▁cav	-9508
▁déj	-9509
▁hél	-9510
▁ice	-9511
▁may	-9512
▁ner	-9513
▁ros	-9514
▁tha	-9515
arres	-9516
itées	-9517
vélos	-9518
▁dark	-9519
▁dirt	-9520
▁déjà	-9521
▁frac	-9522
▁képi	-9523
▁métr	-9524
▁priv	-9525
▁rass	-9526
▁sauf	-9527
onneux	-9528
pierre	-9529
▁brise	-9530
▁cesse	-9531
▁fines	-9532
▁gorge	-9533
▁hurle	-9534
▁jésus	-9535
▁south	-9536
▁turqu	-9537
urgiste	-9538
▁bordés	-9539
▁change	-9540
▁domine	-9541
▁fêtent	-9542
▁inondé	-9543
▁lampes	-9544
▁lebron	-9545
▁manive	-9546
▁marier	-9547
▁mathém	-9548
▁neiges	-9549
▁placer	-9550
▁plient	-9551
▁tracer	-9552
tiquaire	-9553
▁aboient	-9554
▁admirer	-9555
▁airways	-9556
▁alcools	-9557
▁aligner	-9558
▁alignée	-9559
▁allonge	-9560
▁allumés	-9561
▁amateur	-9562
▁antique	-9563
▁appelée	-9564
▁ardoise	-9565
▁armures	-9566
▁arrache	-9567
▁arriver	-9568
▁arroser	-9569
▁arrosés	-9570
▁article	-9571
▁asseoir	-9572
▁attaque	-9573
▁attelle	-9574
▁aujourd	-9575
▁aventur	-9576
▁bambins	-9577
▁bandage	-9578
▁barbier	-9579
▁beffroi	-9580
▁bientôt	-9581
▁bloquée	-9582
▁boîtier	-9583
▁brandir	-9584
▁british	-9585
▁bronzée	-9586
▁broussa	-9587
▁brumeux	-9588
▁cabanon	-9589
▁cachant	-9590
▁canapés	-9591
▁carafes	-9592
▁cariole	-9593
▁casiers	-9594
▁casqués	-9595
▁chauves	-9596
▁choisit	-9597
▁citerne	-9598
▁coiffes	-9599
agu	-9600
gro	-9601
iac	-9602
oth	-9603
▁eu	-9604
ados	-9605
clam	-9606
fous	-9607
pons	-9608
▁mad	-9609
▁roi	-9610
▁sun	-9611
icaux	-9612
lanta	-9613
ongol	-9614
shire	-9615
terre	-9616
▁arcs	-9617
▁care	-9618
▁dons	-9619
▁gate	-9620
▁mati	-9621
▁note	-9622
▁open	-9623
▁soie	-9624
▁spag	-9625
▁surg	-9626
▁tôle	-9627
atures	-9628
ouleur	-9629
ouvent	-9630
▁burin	-9631
▁conne	-9632
▁james	-9633
▁masse	-9634
▁spagh	-9635
▁talus	-9636
clamant	-9637
ospital	-9638
▁baigné	-9639
▁châles	-9640
▁cibles	-9641
▁cocher	-9642
▁courro	-9643
▁débout	-9644
▁maille	-9645
▁mongol	-9646
▁quarte	-9647
▁quelle	-9648
▁routes	-9649
▁sommes	-9650
▁vivent	-9651
▁écorce	-9652
▁éparse	-9653
incendie	-9654
onnettes	-9655
parleurs	-9656
ponsable	-9657
▁agilité	-9658
▁atlanta	-9659
▁berline	-9660
▁bouches	-9661
▁brisant	-9662
▁comesti	-9663
▁console	-9664
▁contors	-9665
▁coquill	-9666
▁couches	-9667
▁courbée	-9668
▁couvrir	-9669
▁cowgirl	-9670
▁crayola	-9671
▁creusée	-9672
▁cristal	-9673
▁cuisses	-9674
▁cuivres	-9675
▁cyclone	-9676
▁côtière	-9677
▁debouts	-9678
▁descent	-9679
▁diabolo	-9680
▁dollars	-9681
▁domaine	-9682
▁dortoir	-9683
▁douleur	-9684
▁dressés	-9685
▁déblaie	-9686
▁décorés	-9687
▁déguise	-9688
▁déprimé	-9689
▁déverse	-9690
▁effrayé	-9691
▁empanad	-9692
▁emplace	-9693
▁encadré	-9694
▁engagée	-9695
▁enlacer	-9696
▁enroule	-9697
▁entrain	-9698
▁escarpé	-9699
ity	-9700
acas	-9701
down	-9702
fles	-9703
umée	-9704
èdes	-9705
▁clo	-9706
▁don	-9707
▁fun	-9708
▁héb	-9709
▁rée	-9710
▁tac	-9711
▁tot	-9712
▁éri	-9713
adier	-9714
anche	-9715
cheux	-9716
ctifs	-9717
ffeur	-9718
oules	-9719
▁bale	-9720
▁basc	-9721
▁chut	-9722
▁dern	-9723
▁gond	-9724
▁poiv	-9725
▁symp	-9726
inière	-9727
uilder	-9728
ureuil	-9729
▁bagar	-9730
▁files	-9731
▁liste	-9732
▁mesur	-9733
▁mural	-9734
▁ninja	-9735
▁possi	-9736
▁tache	-9737
▁teste	-9738
▁union	-9739
▁viand	-9740
geridoo	-9741
illeuse	-9742
occupés	-9743
ulaires	-9744
▁abattu	-9745
▁ajoute	-9746
▁battes	-9747
▁bécher	-9748
▁coudes	-9749
▁faible	-9750
▁fumier	-9751
▁grange	-9752
▁hopper	-9753
▁irrité	-9754
▁penske	-9755
▁prière	-9756
▁source	-9757
▁écrits	-9758
▁ensuite	-9759
▁espress	-9760
▁ethnies	-9761
▁excitée	-9762
▁excités	-9763
▁experts	-9764
▁explore	-9765
▁express	-9766
▁factory	-9767
▁fairway	-9768
▁fasciné	-9769
▁fermant	-9770
▁filment	-9771
▁flocons	-9772
▁floraux	-9773
▁flèches	-9774
▁fonçant	-9775
▁formant	-9776
▁fourche	-9777
▁freesty	-9778
▁furieux	-9779
▁fêtards	-9780
▁gambade	-9781
▁gamelle	-9782
▁gardant	-9783
▁gastron	-9784
▁gaucher	-9785
▁gazeuse	-9786
▁geishas	-9787
▁glaçage	-9788
▁gravant	-9789
▁gravats	-9790
▁groucho	-9791
▁guident	-9792
▁habille	-9793
▁harnach	-9794
▁hirsute	-9795
▁houston	-9796
▁humains	-9797
▁huskies	-9798
▁hydraul	-9799
cés	-9800
ili	-9801
uté	-9802
ader	-9803
cter	-9804
fait	-9805
gets	-9806
hoop	-9807
ingo	-9808
isco	-9809
érée	-9810
▁atv	-9811
▁dim	-9812
▁inv	-9813
▁moi	-9814
▁obl	-9815
▁wok	-9816
chets	-9817
onses	-9818
rices	-9819
▁chan	-9820
▁cure	-9821
▁donc	-9822
▁faim	-9823
▁fiss	-9824
▁glam	-9825
▁mike	-9826
▁stri	-9827
ignons	-9828
lexion	-9829
mplent	-9830
plaqué	-9831
▁aboie	-9832
▁assez	-9833
▁braqu	-9834
▁choix	-9835
▁motor	-9836
▁moule	-9837
▁pirog	-9838
▁réjou	-9839
▁stone	-9840
▁toits	-9841
anciers	-9842
érément	-9843
▁bouées	-9844
▁chaume	-9845
▁contin	-9846
▁danois	-9847
▁lances	-9848
▁montés	-9849
▁queues	-9850
▁sellés	-9851
▁sesame	-9852
▁trente	-9853
térielle	-9854
▁basique	-9855
▁binette	-9856
▁botteur	-9857
▁douches	-9858
▁défensi	-9859
▁incline	-9860
▁indique	-9861
▁inondée	-9862
▁insecte	-9863
▁italien	-9864
▁jackson	-9865
▁jacuzzi	-9866
▁joggeur	-9867
▁jointes	-9868
▁joyeuse	-9869
▁jumeaux	-9870
▁jumelle	-9871
▁jumping	-9872
▁justice	-9873
▁laisser	-9874
▁laisses	-9875
▁lavande	-9876
▁laveurs	-9877
▁lissent	-9878
▁livrent	-9879
▁locales	-9880
▁looping	-9881
▁légères	-9882
▁macbook	-9883
▁manipul	-9884
▁maracas	-9885
▁marient	-9886
▁martial	-9887
▁martini	-9888
▁massage	-9889
▁matador	-9890
▁matière	-9891
▁mauvais	-9892
▁maîtres	-9893
▁meulage	-9894
▁mineurs	-9895
▁modeste	-9896
▁modèles	-9897
▁montrée	-9898
▁monture	-9899
▁iz	-9900
alité	-9901
▁briser	-9902
▁mordent	-9903
▁musclée	-9904
▁mâchant	-9905
▁mémoire	-9906
▁niveler	-9907
▁nourrir	-9908
▁nuances	-9909
▁numérot	-9910
▁oakland	-9911
▁occuper	-9912
▁offrant	-9913
▁ondulés	-9914
▁orateur	-9915
▁oriente	-9916
▁orioles	-9917
▁orteils	-9918
▁ouvrent	-9919
▁oxygène	-9920
▁pagayer	-9921
▁panache	-9922
▁paquets	-9923
▁paresse	-9924
▁partent	-9925
▁passées	-9926
▁patrons	-9927
▁pauvres	-9928
▁pelotes	-9929
▁pensive	-9930
▁percuté	-9931
▁perdant	-9932
▁piqueur	-9933
▁pitbull	-9934
▁placent	-9935
▁poignet	-9936
▁pointée	-9937
▁poirier	-9938
▁pokemon	-9939
▁portait	-9940
▁posture	-9941
▁poulies	-9942
▁pouvons	-9943
▁promené	-9944
▁préparé	-9945
▁pédales	-9946
▁pélican	-9947
▁pénètre	-9948
▁racines	-9949
▁raffute	-9950
▁ramassé	-9951
▁rampant	-9952
▁rampent	-9953
▁regards	-9954
▁repasse	-9955
▁ressort	-9956
▁retirée	-9957
▁revient	-9958
▁rinçant	-9959
▁rodgers	-9960
▁rouille	-9961
▁routier	-9962
▁routine	-9963
▁résille	-9964
▁samsung	-9965
▁sangles	-9966
▁saupoud	-9967
▁sauteur	-9968
▁section	-9969
▁sentant	-9970
▁serrure	-9971
▁serrées	-9972
▁session	-9973
▁signant	-9974
▁sinueux	-9975
▁skieuse	-9976
▁soignée	-9977
▁solaire	-9978
▁somptue	-9979
▁soudant	-9980
▁soudent	-9981
▁soufflé	-9982
▁souples	-9983
▁soutenu	-9984
▁sphères	-9985
▁stupide	-9986
▁survole	-9987
▁suspect	-9988
▁swiffer	-9989
▁séquoia	-9990
▁sérieux	-9991
▁tailles	-9992
▁tatouer	-9993
▁tickets	-9994
▁tireuse	-9995
▁tombées	-9996
▁tournés	-9997
▁traînée	-9998
▁tribale	-9999
▁tribaux	-10000
▁tricots	-10001
▁tristes	-10002
▁triture	-10003
▁truelle	-10004
▁uniques	-10005
▁urinoir	-10006
▁version	-10007
▁vestons	-10008
▁veulent	-10009
▁viandes	-10010
▁victime	-10011
▁vikings	-10012
▁virevol	-10013
▁vivante	-10014
▁walkman	-10015
▁welcome	-10016
▁western	-10017
▁yankees	-10018
▁éjectée	-10019
▁élaboré	-10020
▁élevage	-10021
▁équipée	-10022
▁étalant	-10023
▁étiquet	-10024
▁étirent	-10025
▁évacuer	-10026
chevêtrés	-10027
ctivement	-10028
illonnant	-10029
issements	-10030
ouchement	-10031
ueusement	-10032
▁acrobate	-10033
▁afficher	-10034
▁agissant	-10035
▁aigrette	-10036
▁ajoutant	-10037
▁ajustent	-10038
▁alliance	-10039
▁allumées	-10040
▁american	-10041
▁apparait	-10042
▁applaudi	-10043
▁arbustes	-10044
▁arrosoir	-10045
▁arrêtées	-10046
▁asperger	-10047
▁aspergés	-10048
▁assister	-10049
▁assortie	-10050
▁attablés	-10051
▁attaquer	-10052
▁attirail	-10053
▁audition	-10054
▁baladant	-10055
▁baladent	-10056
▁balayent	-10057
▁bandanas	-10058
▁barbelée	-10059
▁batiment	-10060
▁bermudas	-10061
▁bibelots	-10062
▁biscuits	-10063
▁bizarres	-10064
▁boisseau	-10065
▁bouchant	-10066
▁bouchons	-10067
▁braderie	-10068
▁brancard	-10069
▁braquant	-10070
▁brassard	-10071
▁bretzels	-10072
▁breuvage	-10073
▁broadway	-10074
▁brocolis	-10075
▁broyeuse	-10076
▁brumeuse	-10077
▁burritos	-10078
▁cadillac	-10079
▁capuchon	-10080
▁carabine	-10081
▁cardigan	-10082
▁cellules	-10083
▁charriot	-10084
▁chassant	-10085
▁chassent	-10086
▁chasseur	-10087
▁cheminot	-10088
▁chimique	-10089
▁châtains	-10090
▁circuits	-10091
▁cocktail	-10092
▁collecte	-10093
▁colorant	-10094
▁composés	-10095
▁concessi	-10096
▁conseils	-10097
▁conserve	-10098
▁contient	-10099
▁continue	-10100
▁costumée	-10101
▁couchage	-10102
▁couettes	-10103
▁courrier	-10104
▁courroie	-10105
▁cristall	-10106
▁créateur	-10107
▁créatifs	-10108
▁créature	-10109
▁câlinant	-10110
▁dentelle	-10111
▁descendu	-10112
▁difficul	-10113
▁diplômes	-10114
▁diplômée	-10115
▁dirigent	-10116
▁disposée	-10117
▁distrait	-10118
▁dossards	-10119
▁dossiers	-10120
▁douzaine	-10121
▁dragster	-10122
▁dressent	-10123
▁dressées	-10124
▁dribbler	-10125
▁décharge	-10126
▁dégonflé	-10127
▁démarque	-10128
▁démêlent	-10129
▁déployés	-10130
▁dépotoir	-10131
▁détachés	-10132
▁détermin	-10133
▁embarque	-10134
▁emmenant	-10135
▁emmènent	-10136
▁empilant	-10137
▁emporter	-10138
▁engagées	-10139
▁enlevant	-10140
▁enlèvent	-10141
▁enterrés	-10142
▁entraîné	-10143
▁escargot	-10144
▁espresso	-10145
▁extraire	-10146
▁extravag	-10147
▁falaises	-10148
▁familial	-10149
▁fatiguée	-10150
▁favorite	-10151
▁fixement	-10152
▁flambeau	-10153
▁flexible	-10154
▁fluoresc	-10155
▁fouiller	-10156
▁franchir	-10157
▁frappeur	-10158
▁fraîches	-10159
▁fresques	-10160
▁froncent	-10161
▁gardiens	-10162
▁gazonnée	-10163
▁golfeurs	-10164
▁graviers	-10165
▁grillent	-10166
▁grimpeur	-10167
▁hachette	-10168
▁harmonie	-10169
▁heineken	-10170
▁hipsters	-10171
▁hirsutes	-10172
▁horrible	-10173
▁horrifié	-10174
▁immenses	-10175
▁indigène	-10176
▁insectes	-10177
▁intimité	-10178
▁intégral	-10179
▁jerrican	-10180
▁joggeuse	-10181
▁joignant	-10182
▁kawasaki	-10183
▁laissent	-10184
▁latérale	-10185
▁limonade	-10186
▁manucure	-10187
▁marquant	-10188
▁masquant	-10189
▁mauvaise	-10190
▁mesurant	-10191
▁michigan	-10192
▁milliers	-10193
▁minijupe	-10194
▁moelleux	-10195
▁mordille	-10196
▁mousquet	-10197
▁moussant	-10198
▁musicale	-10199
▁négligée	-10200
▁occident	-10201
▁occupant	-10202
▁organisé	-10203
▁ouvertes	-10204
▁paissent	-10205
▁palettes	-10206
▁panorama	-10207
▁paralymp	-10208
▁parcourt	-10209
▁parterre	-10210
▁passoire	-10211
▁pauvreté	-10212
▁paysager	-10213
▁peintres	-10214
▁pelleter	-10215
▁pendante	-10216
▁pianiste	-10217
▁pilotage	-10218
▁plantent	-10219
▁plaqueur	-10220
▁pochette	-10221
▁poignard	-10222
▁poignets	-10223
▁pointent	-10224
▁postales	-10225
▁primitif	-10226
▁problème	-10227
▁projette	-10228
▁prononce	-10229
▁prélasse	-10230
▁préparée	-10231
▁présence	-10232
▁punching	-10233
▁pupitres	-10234
▁pédalent	-10235
▁pédestre	-10236
▁pénombre	-10237
▁pénétrer	-10238
▁regardez	-10239
▁regardée	-10240
▁regardés	-10241
▁relevant	-10242
▁rembarde	-10243
▁remplies	-10244
▁repasser	-10245
▁respirer	-10246
▁retirant	-10247
▁retirées	-10248
▁retraite	-10249
▁rugbyman	-10250
▁rugbymen	-10251
▁réaction	-10252
▁récoltés	-10253
▁réfugiés	-10254
▁saucisse	-10255
▁scrabble	-10256
▁sculpter	-10257
▁seahawks	-10258
▁soucoupe	-10259
▁sourires	-10260
▁spinning	-10261
▁spéciale	-10262
▁starting	-10263
▁symboles	-10264
▁séparées	-10265
▁tablette	-10266
▁tailleur	-10267
▁taureaux	-10268
▁terminus	-10269
▁tourisme	-10270
▁tournoie	-10271
▁traction	-10272
▁travesti	-10273
▁tremplin	-10274
▁tribales	-10275
▁tuniques	-10276
▁vendeuse	-10277
▁verglacé	-10278
▁violence	-10279
▁volaille	-10280
▁vélotaxi	-10281
▁vétérans	-10282
▁ébrouant	-10283
▁ébrouent	-10284
▁écartées	-10285
▁échauffe	-10286
▁éclairés	-10287
▁écouteur	-10288
▁écriteau	-10289
▁écureuil	-10290
▁élaborée	-10291
▁élancent	-10292
▁épinglés	-10293
▁étendant	-10294
projecteur	-10295
▁acceptant	-10296
▁acclament	-10297
▁accomplir	-10298
▁acrobates	-10299
▁administr	-10300
▁affection	-10301
▁affichent	-10302
▁aiguilles	-10303
▁alentours	-10304
▁alligator	-10305
▁allongent	-10306
▁alpinisme	-10307
▁apportent	-10308
▁approchés	-10309
▁arroseurs	-10310
▁artisanal	-10311
▁assistent	-10312
▁attachées	-10313
▁attaquant	-10314
▁attentifs	-10315
▁baltimore	-10316
▁blessures	-10317
▁bobsleigh	-10318
▁bodyboard	-10319
▁boucliers	-10320
▁boulanger	-10321
▁bouvillon	-10322
▁bracelets	-10323
▁brochures	-10324
▁buanderie	-10325
▁budweiser	-10326
▁cameramen	-10327
▁caméscope	-10328
▁cardiaque	-10329
▁cascadeur	-10330
▁catamaran	-10331
▁challenge	-10332
▁chauffeur	-10333
▁cheminent	-10334
▁cheminots	-10335
▁chevilles	-10336
▁chevrolet	-10337
▁choristes	-10338
▁collision	-10339
▁colorient	-10340
▁commerces	-10341
▁communiqu	-10342
▁complexes	-10343
▁composant	-10344
▁comptoirs	-10345
▁concevoir	-10346
▁concourir	-10347
▁conférenc	-10348
▁contrarié	-10349
▁cueillent	-10350
▁cuillères	-10351
▁dalmatien	-10352
▁directeur	-10353
▁dispersés	-10354
▁dynamique	-10355
▁décollant	-10356
▁décollent	-10357
▁décolleté	-10358
▁découpent	-10359
▁défendant	-10360
▁défendent	-10361
▁délabrées	-10362
▁démarrent	-10363
▁déménager	-10364
▁dépassant	-10365
▁déroulant	-10366
▁détergent	-10367
▁déterrant	-10368
▁effrayant	-10369
▁emballant	-10370
▁empanadas	-10371
▁endommagé	-10372
▁endormant	-10373
▁enregistr	-10374
▁enrolling	-10375
▁enseigner	-10376
▁entendent	-10377
▁enterrant	-10378
▁entraîner	-10379
▁entraînée	-10380
▁entrepren	-10381
▁espagnols	-10382
▁exception	-10383
▁explorent	-10384
▁fabriquer	-10385
▁familiale	-10386
▁fermement	-10387
▁ferraille	-10388
▁finissant	-10389
▁finissent	-10390
▁fleuriste	-10391
▁flottante	-10392
▁flottants	-10393
▁fléchette	-10394
▁francisco	-10395
▁française	-10396
▁froufrous	-10397
▁féminines	-10398
▁garniture	-10399
▁grillagée	-10400
▁grimaçant	-10401
▁grincheux	-10402
▁heureuses	-10403
▁identifié	-10404
▁immobiles	-10405
▁impliquée	-10406
▁imposants	-10407
▁impériale	-10408
▁inclinent	-10409
▁indigènes	-10410
▁interroge	-10411
▁intitulée	-10412
▁jambières	-10413
▁labourant	-10414
▁lointaine	-10415
▁longboard	-10416
▁longtemps	-10417
▁longueurs	-10418
▁manifeste	-10419
▁manivelle	-10420
▁maquillés	-10421
▁marchande	-10422
▁marchands	-10423
▁maritimes	-10424
▁masculins	-10425
▁matelassé	-10426
▁matériaux	-10427
▁mexicains	-10428
▁minijupes	-10429
▁minnesota	-10430
▁moniteurs	-10431
▁multitude	-10432
▁musulmane	-10433
▁notamment	-10434
▁parapente	-10435
▁parcmètre	-10436
▁pardessus	-10437
▁passagère	-10438
▁pelletées	-10439
▁perchiste	-10440
▁perroquet	-10441
▁pharmacie	-10442
▁pingouins	-10443
▁plaisance	-10444
▁poitrines	-10445
▁pollution	-10446
▁poudreuse	-10447
▁poursuivi	-10448
▁princesse	-10449
▁principal	-10450
▁promeneur	-10451
▁propriété	-10452
▁protester	-10453
▁protègent	-10454
▁présentes	-10455
▁quasiment	-10456
▁questions	-10457
▁rassemblé	-10458
▁rattraper	-10459
▁recyclage	-10460
▁regardées	-10461
▁rejoindre	-10462
▁remontant	-10463
▁remporter	-10464
▁renverser	-10465
▁reportage	-10466
▁reprenant	-10467
▁retourner	-10468
▁reçoivent	-10469
▁ridicules	-10470
▁récoltant	-10471
▁récréatif	-10472
▁rédigeant	-10473
▁réflexion	-10474
▁réfléchir	-10475
▁réfugient	-10476
▁référence	-10477
▁saupoudre	-10478
▁sauveteur	-10479
▁scolaires	-10480
▁soulevées	-10481
▁sprinkler	-10482
▁supérieur	-10483
▁surchargé	-10484
▁survolent	-10485
▁tentative	-10486
▁tortillas	-10487
▁transpire	-10488
▁traîneaux	-10489
▁trentaine	-10490
▁tricolore	-10491
▁trottoirs	-10492
▁vaporisée	-10493
▁verglacée	-10494
▁vieillard	-10495
▁vingtaine	-10496
▁visiteurs	-10497
▁voltigeur	-10498
▁zigzaguer	-10499
▁épluchant	-10500
▁équilibré	-10501
▁éteignent	-10502
▁étrangère	-10503
▁éventails	-10504
▁abandonnée	-10505
▁accessoire	-10506
▁accidentée	-10507
▁activement	-10508
▁admiration	-10509
▁angleterre	-10510
▁argenterie	-10511
▁artisanaux	-10512
▁artérielle	-10513
▁aspergeant	-10514
▁assaisonne	-10515
▁assemblent	-10516
▁assistants	-10517
▁athlétique	-10518
▁atteignant	-10519
▁attirantes	-10520
▁aventureux	-10521
▁bondissent	-10522
▁bouilloire	-10523
▁california	-10524
▁chamallows	-10525
▁champignon	-10526
▁chandelles	-10527
▁chaussette	-10528
▁chercheurs	-10529
▁chevaucher	-10530
▁clairement	-10531
▁clairsemés	-10532
▁coccinelle	-10533
▁commandant	-10534
▁commandent	-10535
▁commençant	-10536
▁comportant	-10537
▁concentrée	-10538
▁concernant	-10539
▁concourent	-10540
▁consultent	-10541
▁corpulents	-10542
▁couvercles	-10543
▁croisement	-10544
▁cuissardes	-10545
▁demoiselle	-10546
▁didgeridoo	-10547
▁distribuer	-10548
▁dramatique	-10549
▁déambulent	-10550
▁déchargent	-10551
▁décoration	-10552
▁découpages	-10553
▁déneigeant	-10554
▁désarçonne	-10555
▁désertique	-10556
▁désorienté	-10557
▁dévisagent	-10558
▁embarquant	-10559
▁empruntent	-10560
▁endommagée	-10561
▁enflammées	-10562
▁entretient	-10563
▁escalators	-10564
▁européenne	-10565
▁excitation	-10566
▁festivités	-10567
▁habilement	-10568
▁illuminent	-10569
▁immobilisé	-10570
▁impliquées	-10571
▁informelle	-10572
▁inhabituel	-10573
▁luminaires	-10574
▁maintenant	-10575
▁marécageux	-10576
▁matelassée	-10577
▁maçonnerie	-10578
▁miniatures	-10579
▁minutieuse	-10580
▁mobylettes	-10581
▁monticules	-10582
▁mordillant	-10583
▁moustaches	-10584
▁multimédia	-10585
▁municipaux	-10586
▁musicienne	-10587
▁nécessaire	-10588
▁ordinaires	-10589
▁organisent	-10590
▁ornemental	-10591
▁parcourent	-10592
▁partitions	-10593
▁passionnés	-10594
▁patineuses	-10595
▁pelucheuse	-10596
▁planchiste	-10597
▁poméranien	-10598
▁positionné	-10599
▁production	-10600
▁programmes	-10601
▁protestent	-10602
▁protégeant	-10603
▁prudemment	-10604
▁quaterback	-10605
▁rapportant	-10606
▁rapprocher	-10607
▁rassembler	-10608
▁recouvrent	-10609
▁remorqueur	-10610
▁respectifs	-10611
▁ressembler	-10612
▁ressources	-10613
▁retournent	-10614
▁retrouvent	-10615
▁réagissent	-10616
▁réconforte	-10617
▁récréation	-10618
▁récupèrent	-10619
▁réparateur	-10620
▁sandwiches	-10621
▁savonneuse	-10622
▁saxophones	-10623
▁secouriste	-10624
▁semblables	-10625
▁serpentins	-10626
▁shampooing	-10627
▁snorkeling	-10628
▁snowboards	-10629
▁souterrain	-10630
▁surveiller	-10631
▁suspension	-10632
▁tambourins	-10633
▁totalement	-10634
▁tournoyant	-10635
▁transports	-10636
▁téléviseur	-10637
▁vieillotte	-10638
▁vietnamien	-10639
▁virevolter	-10640
▁voiturette	-10641
▁échangeant	-10642
▁échauffent	-10643
▁éclaboussé	-10644
▁éclectique	-10645
▁écossaises	-10646
▁épaisseurs	-10647
▁éprouvette	-10648
▁équitation	-10649
▁étirements	-10650
▁étrangères	-10651
▁étudiantes	-10652
professionne	-10653
▁acrobatique	-10654
▁alcoolisées	-10655
▁architectur	-10656
▁autocollant	-10657
▁balustrades	-10658
▁bizarrement	-10659
▁blottissant	-10660
▁bouquetière	-10661
▁brillamment	-10662
▁broussaille	-10663
▁circulaires	-10664
▁contemplent	-10665
▁coquillages	-10666
▁coulissante	-10667
▁célébration	-10668
▁distribuent	-10669
▁dégustation	-10670
▁déneigement	-10671
▁désordonnée	-10672
▁embarcadère	-10673
▁emmitouflés	-10674
▁encadrement	-10675
▁enchevêtrés	-10676
▁entraîneurs	-10677
▁entretenant	-10678
▁espadrilles	-10679
▁expériences	-10680
▁extrêmement	-10681
▁ferroviaire	-10682
▁feuilletant	-10683
▁géométrique	-10684
▁historiques	-10685
▁inspecteurs	-10686
▁jaillissent	-10687
▁journaliste	-10688
▁lampadaires	-10689
▁locomotives	-10690
▁maintenance	-10691
▁maisonnette	-10692
▁malheureuse	-10693
▁maquilleuse	-10694
▁marécageuse	-10695
▁nourrissent	-10696
▁observation	-10697
▁patriotique	-10698
▁pelucheuses	-10699
▁plaisantant	-10700
▁polystyrène	-10701
▁poursuivent	-10702
▁pratiquants	-10703
▁précipitent	-10704
▁pulvérisent	-10705
▁péniblement	-10706
▁rapprochant	-10707
▁responsable	-10708
▁restaurants	-10709
▁rocailleuse	-10710
▁réchauffent	-10711
▁résidentiel	-10712
▁serpillière	-10713
▁souterraine	-10714
▁sponsorisée	-10715
▁stationnées	-10716
▁surplombent	-10717
▁transporter	-10718
▁urgentistes	-10719
▁violonistes	-10720
▁visiblement	-10721
▁émerveillée	-10722
▁affleurement	-10723
▁agenouillées	-10724
▁amphithéâtre	-10725
▁amérindienne	-10726
▁apparaissant	-10727
▁apparaissent	-10728
▁architecture	-10729
▁archéologues	-10730
▁atterrissant	-10731
▁commémoratif	-10732
▁compartiment	-10733
▁contreplaqué	-10734
▁divertissent	-10735
▁déménagement	-10736
▁exploitation	-10737
▁fantaisistes	-10738
▁furieusement	-10739
▁gouvernement	-10740
▁humoristique	-10741
▁imperméables	-10742
▁industrielle	-10743
▁intervention	-10744
▁intéressante	-10745
▁journalistes	-10746
▁marionnettes	-10747
▁motocycliste	-10748
▁moustiquaire	-10749
▁négligemment	-10750
▁observateurs	-10751
▁organisation	-10752
▁parachutisme	-10753
▁patrouillent	-10754
▁plaisanciers	-10755
▁pratiquement	-10756
▁présentateur	-10757
▁préservatifs	-10758
▁quotidiennes	-10759
▁rebondissent	-10760
▁respiratoire	-10761
▁saxophoniste	-10762
▁scintillante	-10763
▁skateboarder	-10764
▁stationnaire	-10765
▁surveillance	-10766
▁transparents	-10767
▁transportent	-10768
▁transversale	-10769
▁téléphérique	-10770
▁échantillons	-10771
▁accomplissant	-10772
▁accomplissent	-10773
▁agressivement	-10774
▁communautaire	-10775
▁communication	-10776
▁distributeurs	-10777
▁décontractées	-10778
▁désespérément	-10779
▁extatiquement	-10780
▁gastronomique	-10781
▁interviennent	-10782
▁intégralement	-10783
▁mathématiques	-10784
▁métallurgiste	-10785
▁paralympiques	-10786
▁passionnément	-10787
▁rectangulaire	-10788
▁réfléchissent	-10789
▁saxophonistes	-10790
▁synchronisées	-10791
▁travailleuses	-10792
▁énergiquement	-10793
▁internationaux	-10794
▁maladroitement	-10795
▁minutieusement	-10796
▁photographiant	-10797
▁photographique	-10798
▁reconstitution	-10799
▁respectivement	-10800
▁surdimensionné	-10801
▁tranquillement	-10802
▁universitaires	-10803
▁éventuellement	-10804
▁impressionnante	-10805
▁rafraîchissante	-10806
feu	-10807
iko	-10808
lka	-10809
sbc	-10810
uzu	-10811
yrt	-10812
alty	-10813
bcam	-10814
bern	-10815
cell	-10816
drum	-10817
ezer	-10818
gasm	-10819
ight	-10820
imbo	-10821
infe	-10822
iolé	-10823
lova	-10824
perw	-10825
rods	-10826
ucky	-10827
voie	-10828
wiki	-10829
▁ere	-10830
▁gên	-10831
▁sva	-10832
aculé	-10833
addin	-10834
adood	-10835
aguar	-10836
alcom	-10837
almie	-10838
aléid	-10839
aniac	-10840
aptée	-10841
açons	-10842
backs	-10843
berry	-10844
brace	-10845
cagés	-10846
ddies	-10847
egasm	-10848
eiger	-10849
green	-10850
groun	-10851
guide	-10852
hdash	-10853
helka	-10854
horns	-10855
ieber	-10856
inoxe	-10857
ioned	-10858
irthd	-10859
mgren	-10860
negie	-10861
orows	-10862
oudis	-10863
oufle	-10864
paing	-10865
pecés	-10866
porté	-10867
réter	-10868
seize	-10869
ummer	-10870
ussit	-10871
xmark	-10872
ysent	-10873
édiat	-10874
▁bugs	-10875
▁dave	-10876
▁dayg	-10877
▁easy	-10878
▁gwan	-10879
▁gêné	-10880
▁hold	-10881
▁hsbc	-10882
▁hunt	-10883
▁hâlé	-10884
▁inox	-10885
▁izod	-10886
▁kung	-10887
▁myrt	-10888
▁rawr	-10889
▁ridé	-10890
▁ryan	-10891
▁râpe	-10892
▁réel	-10893
▁scel	-10894
▁self	-10895
▁tiki	-10896
▁urne	-10897
▁wave	-10898
▁whee	-10899
fact	-10900
gamm	-10901
▁ugg	-10902
alact	-10903
▁dock	-10904
▁hame	-10905
▁link	-10906
▁zélé	-10907
affaud	-10908
agérée	-10909
akespe	-10910
anford	-10911
aniacs	-10912
atican	-10913
aveine	-10914
aveuse	-10915
açoire	-10916
bilité	-10917
center	-10918
ckeurs	-10919
enmark	-10920
ercury	-10921
etchup	-10922
foques	-10923
gammon	-10924
ground	-10925
hoteux	-10926
iatrie	-10927
iction	-10928
illiam	-10929
ingham	-10930
ionnat	-10931
ipster	-10932
isions	-10933
izados	-10934
iègles	-10935
lottes	-10936
meutes	-10937
monger	-10938
morial	-10939
mpanon	-10940
niquer	-10941
nocide	-10942
onorés	-10943
ourdou	-10944
perwar	-10945
rendre	-10946
scouts	-10947
tefact	-10948
tituée	-10949
térile	-10950
unchak	-10951
viseur	-10952
vitées	-10953
wheels	-10954
çonnet	-10955
élands	-10956
étueux	-10957
▁abdom	-10958
▁absol	-10959
▁adobe	-10960
▁auber	-10961
▁aînés	-10962
▁bagel	-10963
▁baker	-10964
▁battu	-10965
▁bears	-10966
▁bingo	-10967
▁bistr	-10968
▁bodys	-10969
▁bolly	-10970
▁bourg	-10971
▁bragu	-10972
▁camel	-10973
▁candy	-10974
▁chili	-10975
▁chung	-10976
▁chuté	-10977
▁congé	-10978
▁crust	-10979
▁crève	-10980
▁cyber	-10981
▁devez	-10982
▁dicti	-10983
▁enjou	-10984
▁esqui	-10985
▁ficti	-10986
▁fired	-10987
▁frank	-10988
▁funic	-10989
▁furet	-10990
▁fêter	-10991
▁gamec	-10992
▁gauch	-10993
▁gitan	-10994
▁guise	-10995
▁gyros	-10996
▁géran	-10997
▁hmong	-10998
▁hyatt	-10999
uga	-11000
ény	-11001
acah	-11002
orah	-11003
osph	-11004
ouka	-11005
uglé	-11006
▁dah	-11007
▁gnu	-11008
▁osé	-11009
acahu	-11010
bouka	-11011
cepté	-11012
girls	-11013
mosph	-11014
nuage	-11015
ugais	-11016
▁cime	-11017
▁crib	-11018
▁dahl	-11019
▁kény	-11020
▁noué	-11021
acahuè	-11022
ffecté	-11023
tisses	-11024
▁ignor	-11025
▁inoxy	-11026
▁irrég	-11027
▁islam	-11028
▁isuzu	-11029
▁judok	-11030
▁judée	-11031
▁laser	-11032
▁laura	-11033
▁liège	-11034
▁liées	-11035
▁logos	-11036
▁louer	-11037
▁lucky	-11038
▁lungi	-11039
▁maîtr	-11040
▁mêlée	-11041
▁ocean	-11042
▁ornés	-11043
▁ovale	-11044
▁panel	-11045
▁payer	-11046
▁pliés	-11047
▁précé	-11048
▁rider	-11049
▁robin	-11050
▁rythm	-11051
▁rénov	-11052
▁rôles	-11053
▁sabre	-11054
▁santa	-11055
▁santo	-11056
▁satin	-11057
▁satis	-11058
▁schiz	-11059
▁seiko	-11060
▁seuss	-11061
▁shamp	-11062
▁shine	-11063
▁sphin	-11064
▁stars	-11065
▁tagée	-11066
▁tartu	-11067
▁torah	-11068
▁torii	-11069
▁tract	-11070
▁valve	-11071
▁vocab	-11072
▁écuss	-11073
adoodle	-11074
affecté	-11075
agascar	-11076
arbouka	-11077
bascule	-11078
builder	-11079
cassins	-11080
cession	-11081
content	-11082
diction	-11083
grammes	-11084
hdashas	-11085
ibilité	-11086
icanant	-11087
illiams	-11088
irthday	-11089
issiers	-11090
mbrissé	-11091
nington	-11092
orowski	-11093
ourchon	-11094
piqueur	-11095
raîchis	-11096
ualités	-11097
uerites	-11098
unchaku	-11099
dye	-11100
abel	-11101
diée	-11102
izon	-11103
rida	-11104
édér	-11105
▁cyf	-11106
▁cyr	-11107
▁céd	-11108
année	-11109
arret	-11110
chéma	-11111
halie	-11112
shake	-11113
▁cruz	-11114
▁cyfd	-11115
▁farf	-11116
▁jarr	-11117
▁liée	-11118
▁thef	-11119
▁woks	-11120
abella	-11121
ensile	-11122
halant	-11123
itueux	-11124
jarret	-11125
kshake	-11126
orolog	-11127
édérés	-11128
▁apnée	-11129
▁aveda	-11130
▁blake	-11131
▁cylin	-11132
▁cyran	-11133
▁fargo	-11134
▁gagné	-11135
▁ridée	-11136
▁subar	-11137
▁theat	-11138
▁vinci	-11139
anchées	-11140
urberry	-11141
éponses	-11142
▁absent	-11143
▁acclam	-11144
▁accède	-11145
▁adorer	-11146
▁agrafe	-11147
▁alourd	-11148
▁amorce	-11149
▁amples	-11150
▁amster	-11151
▁annual	-11152
▁arabes	-11153
▁arrivo	-11154
▁auburn	-11155
▁bagels	-11156
▁baggie	-11157
▁barney	-11158
▁bidons	-11159
▁bieber	-11160
▁bistro	-11161
▁bitumé	-11162
▁blague	-11163
▁bourgu	-11164
▁braqué	-11165
▁bricol	-11166
▁broyer	-11167
▁bruite	-11168
▁cancer	-11169
▁cardia	-11170
▁caribo	-11171
▁cendre	-11172
▁clarté	-11173
▁cocker	-11174
▁conclu	-11175
▁connie	-11176
▁cookie	-11177
▁craint	-11178
▁criard	-11179
▁criblé	-11180
▁cristy	-11181
▁cylind	-11182
▁cédant	-11183
▁célébr	-11184
▁dahlak	-11185
▁daniel	-11186
▁dayglo	-11187
▁dennis	-11188
▁diabol	-11189
▁doberm	-11190
▁dollar	-11191
▁doroth	-11192
▁droney	-11193
▁dédiée	-11194
▁dégagé	-11195
▁dégrad	-11196
▁dégâts	-11197
▁démoli	-11198
▁enjamb	-11199
crit	-11200
lief	-11201
▁eik	-11202
▁mcc	-11203
almod	-11204
icksh	-11205
ommée	-11206
▁venu	-11207
amania	-11208
atifol	-11209
atisée	-11210
ingste	-11211
marins	-11212
ommand	-11213
relief	-11214
visuel	-11215
▁châta	-11216
▁nonch	-11217
▁samar	-11218
▁sensi	-11219
▁slamm	-11220
▁vivre	-11221
▁épicé	-11222
ickshaw	-11223
tingage	-11224
▁brisée	-11225
▁bullet	-11226
▁center	-11227
▁centim	-11228
▁centur	-11229
▁chauds	-11230
▁câline	-11231
▁diplôm	-11232
▁enroul	-11233
▁envahi	-11234
▁esprit	-11235
▁estime	-11236
▁except	-11237
▁fidèle	-11238
▁firefo	-11239
▁flight	-11240
▁floral	-11241
▁florid	-11242
▁fouett	-11243
▁freshd	-11244
▁fuient	-11245
▁gallon	-11246
▁gamecu	-11247
▁garnie	-11248
▁gentle	-11249
▁gitans	-11250
▁graham	-11251
▁gèrent	-11252
▁hachée	-11253
▁hambur	-11254
▁health	-11255
▁idiots	-11256
▁ignore	-11257
▁impact	-11258
▁inoxyd	-11259
▁intime	-11260
▁invité	-11261
▁jackie	-11262
▁jaguar	-11263
▁jamais	-11264
▁laissé	-11265
▁league	-11266
▁lights	-11267
▁lionne	-11268
▁lissés	-11269
▁louisi	-11270
▁lourds	-11271
▁madrid	-11272
▁malgré	-11273
▁massue	-11274
▁mccain	-11275
▁menthe	-11276
▁mesuré	-11277
▁misère	-11278
▁modéré	-11279
▁mourir	-11280
▁moussu	-11281
▁mutual	-11282
▁mêlent	-11283
▁napper	-11284
▁neutre	-11285
▁ninjas	-11286
▁nommée	-11287
▁nommés	-11288
▁notent	-11289
▁oblige	-11290
▁oceans	-11291
▁oignon	-11292
▁ornées	-11293
▁pareil	-11294
▁payent	-11295
▁penser	-11296
▁pensée	-11297
▁phases	-11298
▁placés	-11299
azoo	-11300
cars	-11301
lisé	-11302
▁gué	-11303
▁règ	-11304
caron	-11305
estée	-11306
rupti	-11307
▁iran	-11308
▁rica	-11309
▁robb	-11310
▁scru	-11311
▁stev	-11312
abriqu	-11313
acesho	-11314
aiteur	-11315
oovent	-11316
rature	-11317
▁brodé	-11318
▁caddy	-11319
▁forts	-11320
▁félic	-11321
▁kazoo	-11322
▁ronds	-11323
▁règne	-11324
▁sangu	-11325
▁signs	-11326
▁tondu	-11327
aceshop	-11328
▁bonbon	-11329
▁breaks	-11330
▁choisi	-11331
▁conviv	-11332
▁enlisé	-11333
▁exécut	-11334
▁fiches	-11335
▁léchée	-11336
▁morgan	-11337
▁perdue	-11338
▁pizzas	-11339
▁pleuve	-11340
▁prayer	-11341
▁prince	-11342
▁progra	-11343
▁prénom	-11344
▁puisqu	-11345
▁pâtiss	-11346
▁rabote	-11347
▁radars	-11348
▁rafrai	-11349
▁ravins	-11350
▁realty	-11351
▁refait	-11352
▁relaxe	-11353
▁rendez	-11354
▁revend	-11355
▁rigolo	-11356
▁robots	-11357
▁râpant	-11358
▁réagir	-11359
▁réagit	-11360
▁réelle	-11361
▁scanne	-11362
▁schipp	-11363
▁schéma	-11364
▁secrét	-11365
▁selfie	-11366
▁senior	-11367
▁sensib	-11368
▁serein	-11369
▁siffle	-11370
▁singes	-11371
▁slalom	-11372
▁sooner	-11373
▁sphinx	-11374
▁spirit	-11375
▁sprint	-11376
▁spécim	-11377
▁stevie	-11378
▁strass	-11379
▁stripe	-11380
▁striée	-11381
▁stylos	-11382
▁sucrer	-11383
▁sucrée	-11384
▁swatch	-11385
▁sèches	-11386
▁tacots	-11387
▁taggés	-11388
▁teints	-11389
▁timbre	-11390
▁timide	-11391
▁toilet	-11392
▁tracts	-11393
▁treize	-11394
▁triage	-11395
▁tripor	-11396
▁trèfle	-11397
▁turbul	-11398
▁tâchet	-11399
head	-11400
heet	-11401
pool	-11402
▁mia	-11403
hhoop	-11404
joint	-11405
▁birm	-11406
▁kenj	-11407
▁lots	-11408
▁pèle	-11409
▁tags	-11410
▁trek	-11411
▁ébat	-11412
erpool	-11413
érisme	-11414
▁ahead	-11415
▁assey	-11416
▁farce	-11417
▁fouet	-11418
▁kenji	-11419
▁kilom	-11420
▁piqué	-11421
▁sheet	-11422
▁toilé	-11423
▁éméch	-11424
colaire	-11425
niquant	-11426
uthhoop	-11427
▁crâner	-11428
▁duquel	-11429
▁fixent	-11430
▁formal	-11431
▁formid	-11432
▁formée	-11433
▁lassos	-11434
▁munies	-11435
▁obtenu	-11436
▁pioche	-11437
▁shoots	-11438
▁taillé	-11439
▁ukrain	-11440
▁venait	-11441
▁ventée	-11442
▁vidéos	-11443
▁viking	-11444
▁vocale	-11445
▁voilée	-11446
▁vraies	-11447
▁walkie	-11448
▁walter	-11449
▁webcam	-11450
▁weezer	-11451
▁élague	-11452
▁émissi	-11453
▁érigée	-11454
▁érupti	-11455
▁éteint	-11456
alamment	-11457
anizados	-11458
ashioned	-11459
celliste	-11460
ensionne	-11461
guerites	-11462
ignotant	-11463
ingsteen	-11464
inueuses	-11465
ionnelle	-11466
ionniste	-11467
istiques	-11468
italiser	-11469
nuageuse	-11470
ologique	-11471
omatisée	-11472
onnances	-11473
ordshire	-11474
otonneux	-11475
piqueurs	-11476
poignets	-11477
réponses	-11478
térature	-11479
umérisme	-11480
upperwar	-11481
veilleux	-11482
équences	-11483
▁abaissé	-11484
▁abdomen	-11485
▁accepte	-11486
▁adaptée	-11487
▁adjoint	-11488
▁affecte	-11489
▁agitées	-11490
▁airline	-11491
▁ajouter	-11492
▁allaite	-11493
▁alpagas	-11494
▁apaiser	-11495
▁applebe	-11496
▁arraché	-11497
▁arrivés	-11498
▁asperge	-11499
saw	-11500
awlé	-11501
yser	-11502
longs	-11503
uvrés	-11504
vises	-11505
visée	-11506
▁aîné	-11507
▁bree	-11508
▁diag	-11509
▁emmê	-11510
▁lime	-11511
▁sara	-11512
▁tumb	-11513
ionnée	-11514
ongsan	-11515
pressi	-11516
urpose	-11517
▁biber	-11518
▁books	-11519
▁effac	-11520
▁extra	-11521
▁fonte	-11522
▁mixée	-11523
▁socle	-11524
▁tassé	-11525
▁étalé	-11526
xpressi	-11527
▁breeze	-11528
▁charcu	-11529
▁crawlé	-11530
▁emmêle	-11531
▁gantée	-11532
▁geyser	-11533
▁grills	-11534
▁gérant	-11535
▁hummer	-11536
▁miroit	-11537
▁poilus	-11538
▁saison	-11539
▁tissus	-11540
▁écoles	-11541
▁appeler	-11542
▁assoupi	-11543
▁aveuglé	-11544
▁baleine	-11545
▁baptisé	-11546
▁barbich	-11547
▁batifol	-11548
▁bavarde	-11549
▁biberon	-11550
▁bistrot	-11551
▁blottit	-11552
▁bonjour	-11553
▁brewing	-11554
▁bridges	-11555
▁brutale	-11556
▁budgets	-11557
▁buggies	-11558
▁bétonné	-11559
▁cacahuè	-11560
▁cachées	-11561
▁caillou	-11562
▁campeur	-11563
▁candide	-11564
▁capture	-11565
▁carrées	-11566
▁cendrée	-11567
▁centrée	-11568
▁channel	-11569
▁chaparr	-11570
▁chargés	-11571
▁chiffre	-11572
▁chignon	-11573
▁choisir	-11574
▁classés	-11575
▁consomm	-11576
▁copines	-11577
▁corbeau	-11578
▁corrida	-11579
▁corsage	-11580
▁corvées	-11581
▁couplée	-11582
▁crisser	-11583
▁crustac	-11584
▁créatif	-11585
▁culotte	-11586
▁cultive	-11587
▁cunning	-11588
▁cyranka	-11589
▁delwood	-11590
▁devenir	-11591
▁devient	-11592
▁deviner	-11593
▁devises	-11594
▁devrait	-11595
▁digital	-11596
▁diminue	-11597
▁dirigée	-11598
▁divisée	-11599
ugle	-11600
▁elo	-11601
acker	-11602
azmat	-11603
cinos	-11604
drome	-11605
rifie	-11606
▁audi	-11607
▁malé	-11608
▁stew	-11609
ctoire	-11610
▁antan	-11611
▁antil	-11612
▁black	-11613
▁céler	-11614
▁délir	-11615
▁eloin	-11616
▁gérer	-11617
▁lamas	-11618
▁maléf	-11619
▁miner	-11620
▁minne	-11621
▁préau	-11622
▁régle	-11623
▁sobre	-11624
ections	-11625
endrier	-11626
ubrifie	-11627
uccinos	-11628
▁arrosé	-11629
▁auditi	-11630
▁creusé	-11631
▁céleri	-11632
▁embour	-11633
▁hawkey	-11634
▁hazmat	-11635
▁housse	-11636
▁hélice	-11637
▁ménage	-11638
▁propul	-11639
▁stoneh	-11640
hospital	-11641
jectoire	-11642
puccinos	-11643
▁absence	-11644
▁armoire	-11645
▁atterir	-11646
▁aveugle	-11647
▁collect	-11648
▁cracker	-11649
▁câliner	-11650
▁dizaine	-11651
▁docteur	-11652
▁domingo	-11653
▁dominés	-11654
▁draguer	-11655
▁droites	-11656
▁déclaré	-11657
▁décrire	-11658
▁défaite	-11659
▁dégager	-11660
▁démolit	-11661
▁déploie	-11662
▁déroulé	-11663
▁dévelop	-11664
▁effacer	-11665
▁efforce	-11666
▁embourb	-11667
▁encrier	-11668
▁enfermé	-11669
▁enfoncé	-11670
▁enserre	-11671
▁envoler	-11672
▁espèces	-11673
▁esquive	-11674
▁exemple	-11675
▁explose	-11676
▁extrait	-11677
▁falcons	-11678
▁farmosa	-11679
▁fictive	-11680
▁finesse	-11681
▁firefox	-11682
▁flaques	-11683
▁florale	-11684
▁florida	-11685
▁fléchit	-11686
▁fournir	-11687
▁fraient	-11688
▁frayant	-11689
▁froissé	-11690
▁féroces	-11691
▁gagnant	-11692
▁gallons	-11693
▁gateaux	-11694
▁gateway	-11695
▁gaufres	-11696
▁glaçant	-11697
▁glouton	-11698
▁gondole	-11699
mén	-11700
nail	-11701
oker	-11702
utés	-11703
▁gel	-11704
umper	-11705
▁hook	-11706
▁teva	-11707
▁théâ	-11708
acieux	-11709
minant	-11710
minine	-11711
ménien	-11712
usards	-11713
▁filmé	-11714
▁lavés	-11715
▁quads	-11716
▁rabob	-11717
▁relit	-11718
▁sofas	-11719
▁séché	-11720
▁triés	-11721
▁vénit	-11722
▁yards	-11723
acieuse	-11724
▁amplis	-11725
▁aérody	-11726
▁boards	-11727
▁bosses	-11728
▁bumper	-11729
▁chèque	-11730
▁corral	-11731
▁faveur	-11732
▁invest	-11733
▁lavées	-11734
▁masser	-11735
▁mordic	-11736
▁picchu	-11737
▁pichet	-11738
▁rénove	-11739
▁sachet	-11740
▁séchée	-11741
▁théâtr	-11742
nérateur	-11743
▁amputés	-11744
▁aériens	-11745
▁caserne	-11746
▁daniels	-11747
▁déjeune	-11748
▁espérer	-11749
▁gelados	-11750
▁gorille	-11751
▁gouttes	-11752
▁gratuit	-11753
▁grizzly	-11754
▁hachant	-11755
▁haltère	-11756
▁harrods	-11757
▁hommage	-11758
▁humides	-11759
▁hurlent	-11760
▁hélices	-11761
▁illustr	-11762
▁importe	-11763
▁inscrit	-11764
▁intergé	-11765
▁inverse	-11766
▁isolant	-11767
▁kényane	-11768
▁laineux	-11769
▁lampard	-11770
▁latinos	-11771
▁lavigne	-11772
▁layette	-11773
▁libérer	-11774
▁lisière	-11775
▁loisirs	-11776
▁luxueux	-11777
▁martèle	-11778
▁materne	-11779
▁mayores	-11780
▁meneurs	-11781
▁menorah	-11782
▁mesures	-11783
▁mexique	-11784
▁minneap	-11785
▁mission	-11786
▁mobiles	-11787
▁modeler	-11788
▁moisiss	-11789
▁moqueur	-11790
▁moulage	-11791
▁moulins	-11792
▁moussus	-11793
▁museaux	-11794
▁méditer	-11795
▁mélanie	-11796
▁nerveux	-11797
▁nettoyé	-11798
▁notting	-11799
odél	-11800
odés	-11801
▁old	-11802
▁ozz	-11803
▁usé	-11804
adème	-11805
mands	-11806
modél	-11807
▁dash	-11808
▁good	-11809
▁mené	-11810
▁oliv	-11811
▁ozzy	-11812
▁rich	-11813
▁secr	-11814
▁work	-11815
inquer	-11816
jambes	-11817
préter	-11818
▁admet	-11819
▁crash	-11820
▁immat	-11821
▁incur	-11822
▁laqué	-11823
▁lutin	-11824
▁mouff	-11825
▁plaid	-11826
▁révol	-11827
▁sirot	-11828
▁tracé	-11829
ercules	-11830
itionné	-11831
▁adress	-11832
▁agiles	-11833
▁annote	-11834
▁avenue	-11835
▁bidonv	-11836
▁choeur	-11837
▁chopes	-11838
▁croisé	-11839
▁grimpé	-11840
▁meules	-11841
▁métrop	-11842
▁navigu	-11843
▁relève	-11844
▁révolu	-11845
▁secret	-11846
▁stylet	-11847
▁texans	-11848
▁vident	-11849
▁écrite	-11850
antelées	-11851
astiques	-11852
ourmands	-11853
▁agneaux	-11854
▁aspirer	-11855
▁chaleur	-11856
▁crasher	-11857
▁dashiki	-11858
▁diadème	-11859
▁dorothy	-11860
▁démodés	-11861
▁langues	-11862
▁moufles	-11863
▁mouille	-11864
▁offerts	-11865
▁oignons	-11866
▁olivier	-11867
▁opèrent	-11868
▁packers	-11869
▁parfait	-11870
▁parfums	-11871
▁paroiss	-11872
▁partagé	-11873
▁patates	-11874
▁pendent	-11875
▁pensant	-11876
▁peuples	-11877
▁pilotis	-11878
▁pilotée	-11879
▁pipette	-11880
▁piquent	-11881
▁placard	-11882
▁playboy	-11883
▁pointés	-11884
▁pontiac	-11885
▁portées	-11886
▁possède	-11887
▁postaux	-11888
▁poudres	-11889
▁poudrée	-11890
▁progrès	-11891
▁prononc	-11892
▁proposé	-11893
▁prouver	-11894
▁prédire	-11895
▁psalmod	-11896
▁pylônes	-11897
▁quadrup	-11898
▁raffiné	-11899
ksm	-11900
law	-11901
veli	-11902
velt	-11903
visi	-11904
▁sms	-11905
▁smu	-11906
▁suj	-11907
arded	-11908
igrou	-11909
islaw	-11910
lotte	-11911
▁bund	-11912
▁calz	-11913
▁drum	-11914
▁empo	-11915
▁ruby	-11916
▁séch	-11917
ksmith	-11918
laient	-11919
rimand	-11920
vables	-11921
échées	-11922
▁bills	-11923
▁billy	-11924
▁bundt	-11925
▁chane	-11926
▁clipp	-11927
▁effig	-11928
▁intér	-11929
▁jolis	-11930
▁perla	-11931
▁video	-11932
▁étoil	-11933
icaines	-11934
inables	-11935
osevelt	-11936
portant	-11937
rimandé	-11938
uitième	-11939
▁chanel	-11940
▁douché	-11941
▁démont	-11942
▁dépour	-11943
▁finley	-11944
▁little	-11945
▁spring	-11946
▁sujets	-11947
▁tigrou	-11948
▁voyons	-11949
huitième	-11950
telettes	-11951
▁bearded	-11952
▁belling	-11953
▁calzone	-11954
▁contrée	-11955
▁cérémon	-11956
▁dépourv	-11957
▁effigie	-11958
▁fantasy	-11959
▁intérêt	-11960
▁karlova	-11961
▁musclés	-11962
▁naturel	-11963
▁pédaler	-11964
▁rawling	-11965
▁rebondi	-11966
▁rebours	-11967
▁reflète	-11968
▁regrets	-11969
▁rejoint	-11970
▁relevée	-11971
▁reniflé	-11972
▁renommé	-11973
▁renvoie	-11974
▁repérer	-11975
▁ressent	-11976
▁retenue	-11977
▁robbins	-11978
▁rosâtre	-11979
▁rousses	-11980
▁running	-11981
▁râteaux	-11982
▁réduits	-11983
▁rénovée	-11984
▁réservé	-11985
▁réussit	-11986
▁salades	-11987
▁sarongs	-11988
▁schizop	-11989
▁secouru	-11990
▁sereine	-11991
▁shampou	-11992
▁siroter	-11993
▁snooker	-11994
▁sorties	-11995
▁sourcil	-11996
▁stérile	-11997
▁séchage	-11998
▁séchoir	-11999
ypp	-12000
pipe	-12001
ômes	-12002
jeure	-12003
poser	-12004
reens	-12005
times	-12006
▁dens	-12007
▁géné	-12008
▁lypp	-12009
▁talk	-12010
▁vira	-12011
actile	-12012
etland	-12013
greens	-12014
ostitu	-12015
riller	-12016
▁ambul	-12017
▁auror	-12018
▁cabré	-12019
▁humve	-12020
▁hébre	-12021
▁lavée	-12022
▁rasta	-12023
▁rasés	-12024
actions	-12025
▁abrite	-12026
▁attiré	-12027
▁aurora	-12028
▁connah	-12029
▁détéri	-12030
▁fermer	-12031
▁génére	-12032
▁humain	-12033
▁humvee	-12034
▁hébreu	-12035
▁miller	-12036
▁parask	-12037
▁sapins	-12038
▁suisse	-12039
▁élevée	-12040
bracelet	-12041
ostituée	-12042
ératoire	-12043
▁accordé	-12044
▁appréci	-12045
▁appuyer	-12046
▁chatons	-12047
▁cuiller	-12048
▁examens	-12049
▁intimes	-12050
▁laboure	-12051
▁lyppens	-12052
▁majeure	-12053
▁sanglée	-12054
▁savonne	-12055
▁séparer	-12056
▁séparée	-12057
▁séparés	-12058
▁tactile	-12059
▁teckels	-12060
▁tehelka	-12061
▁teintés	-12062
▁théière	-12063
▁tisonne	-12064
▁tourist	-12065
▁traiter	-12066
▁trayant	-12067
▁traçant	-12068
▁traîner	-12069
▁trempée	-12070
▁trempés	-12071
▁tresser	-12072
▁tressée	-12073
▁triomph	-12074
▁trombes	-12075
▁ultimes	-12076
▁unijamb	-12077
▁urinant	-12078
▁usagers	-12079
▁vaincre	-12080
▁vatican	-12081
▁veillée	-12082
▁velours	-12083
▁vivants	-12084
▁voisins	-12085
▁volutes	-12086
▁voyance	-12087
▁voyante	-12088
▁voyants	-12089
▁végétal	-12090
▁yongsan	-12091
▁écarter	-12092
▁écartée	-12093
▁écraser	-12094
▁écusson	-12095
▁éjecter	-12096
▁éliminé	-12097
▁énergie	-12098
▁épingle	-12099
lué	-12100
pomp	-12101
▁abî	-12102
▁caj	-12103
▁opp	-12104
arrée	-12105
▁abim	-12106
▁cave	-12107
▁frog	-12108
▁imag	-12109
▁mohe	-12110
▁navy	-12111
▁pâté	-12112
▁thre	-12113
cessus	-12114
▁abimé	-12115
▁abîme	-12116
▁allem	-12117
▁caché	-12118
▁cajol	-12119
▁claqu	-12120
▁dirai	-12121
▁déten	-12122
▁fonds	-12123
▁narqu	-12124
▁pâtes	-12125
▁renne	-12126
▁soirs	-12127
▁three	-12128
boxeuse	-12129
ximiser	-12130
▁acheté	-12131
▁fondue	-12132
▁hydrat	-12133
▁patiné	-12134
▁pollué	-12135
▁rennes	-12136
▁rockab	-12137
▁rosées	-12138
▁sonore	-12139
▁verger	-12140
estiaire	-12141
pompiers	-12142
▁achetée	-12143
▁dépecés	-12144
▁détails	-12145
▁habitat	-12146
▁mohegan	-12147
▁nations	-12148
▁négocie	-12149
▁prêtons	-12150
▁épinglé	-12151
▁équipés	-12152
▁étanche	-12153
abriquées	-12154
aissables	-12155
alactites	-12156
ationnent	-12157
aveineuse	-12158
ensionnel	-12159
ilisation	-12160
imanchées	-12161
lablement	-12162
orientale	-12163
raillette	-12164
rouillent	-12165
usivement	-12166
▁abaissée	-12167
▁abondant	-12168
▁abondent	-12169
▁abstrait	-12170
▁accorder	-12171
▁actrices	-12172
▁admirées	-12173
▁affairés	-12174
▁affichés	-12175
▁ailleurs	-12176
▁allumant	-12177
▁alphabét	-12178
▁annuelle	-12179
▁antilope	-12180
▁antiques	-12181
▁apparent	-12182
▁applebee	-12183
▁arctique	-12184
▁ardoises	-12185
▁artefact	-12186
▁artisans	-12187
▁asseyant	-12188
▁asseyent	-12189
▁astiquer	-12190
▁attacher	-12191
▁attentif	-12192
▁auditifs	-12193
▁automnal	-12194
▁aviation	-12195
▁babyfoot	-12196
▁baignade	-12197
▁baillant	-12198
▁balances	-12199
aduc	-12200
posé	-12201
▁suv	-12202
▁sév	-12203
▁édu	-12204
anneh	-12205
bères	-12206
dison	-12207
dogue	-12208
mères	-12209
ownto	-12210
ucide	-12211
vible	-12212
▁aidé	-12213
▁russ	-12214
▁silk	-12215
lucide	-12216
orçant	-12217
osquet	-12218
ovible	-12219
ownies	-12220
owntow	-12221
uvrent	-12222
▁agens	-12223
▁banal	-12224
▁china	-12225
▁cream	-12226
▁gomme	-12227
▁ménag	-12228
▁naval	-12229
▁peuge	-12230
▁pères	-12231
▁ruent	-12232
▁tissé	-12233
▁troub	-12234
owntown	-12235
▁bagues	-12236
▁diapos	-12237
▁emploi	-12238
▁essore	-12239
▁ranger	-12240
▁russie	-12241
▁tanneh	-12242
▁viaduc	-12243
▁éloign	-12244
oiseries	-12245
verbères	-12246
▁banquet	-12247
▁bosquet	-12248
▁creuses	-12249
▁dorures	-12250
▁endosse	-12251
▁exposée	-12252
▁façades	-12253
▁gravité	-12254
▁hérissé	-12255
▁lézards	-12256
▁madison	-12257
▁motocul	-12258
▁palette	-12259
▁peugeot	-12260
▁péniche	-12261
▁tissues	-12262
▁tissées	-12263
▁trident	-12264
▁troubad	-12265
▁utilisé	-12266
noiseries	-12267
▁ajoutent	-12268
▁amovible	-12269
▁arménien	-12270
▁baignant	-12271
▁baleines	-12272
▁barricad	-12273
▁batelier	-12274
▁battante	-12275
▁batteurs	-12276
▁biberons	-12277
▁bigarrée	-12278
▁birthday	-12279
▁blockbus	-12280
▁bloquent	-12281
▁blousons	-12282
▁bodyless	-12283
▁boniment	-12284
▁boutonne	-12285
▁bradford	-12286
▁branchés	-12287
▁brenmark	-12288
▁bronzage	-12289
▁bronzent	-12290
▁brownies	-12291
▁bruiteur	-12292
▁burinant	-12293
▁bâtisses	-12294
▁béquille	-12295
▁cahoteux	-12296
▁caillous	-12297
▁cailloux	-12298
▁cajolant	-12299
moi	-12300
bleu	-12301
iefs	-12302
quoi	-12303
réer	-12304
acomb	-12305
omber	-12306
rever	-12307
werke	-12308
▁cats	-12309
▁gagn	-12310
▁mult	-12311
▁oreo	-12312
ritant	-12313
vertes	-12314
▁aidez	-12315
▁boive	-12316
▁docks	-12317
▁envis	-12318
▁etats	-12319
▁ferre	-12320
▁fiche	-12321
▁joies	-12322
▁joint	-12323
▁press	-12324
▁races	-12325
acombes	-12326
arkasse	-12327
essionn	-12328
▁amusée	-12329
▁amusés	-12330
▁boulev	-12331
▁canive	-12332
▁chiefs	-12333
▁colomb	-12334
▁congél	-12335
▁cornet	-12336
▁donnez	-12337
▁gagnée	-12338
▁jambon	-12339
▁justin	-12340
▁multit	-12341
▁myster	-12342
▁ruades	-12343
▁tracto	-12344
▁twerke	-12345
▁veille	-12346
▁vienne	-12347
▁virant	-12348
ticulant	-12349
▁abattre	-12350
▁cassant	-12351
▁forever	-12352
▁griffin	-12353
▁marlins	-12354
▁multitâ	-12355
▁mystery	-12356
▁ombreux	-12357
▁projets	-12358
▁recréer	-12359
▁robinet	-12360
▁saturée	-12361
▁tournée	-12362
essionnal	-12363
▁abritant	-12364
▁bulletin	-12365
▁calculer	-12366
▁camelote	-12367
▁caniveau	-12368
▁capitale	-12369
▁captivée	-12370
▁capuches	-12371
▁cariboos	-12372
▁carnegie	-12373
▁cendrier	-12374
▁certific	-12375
▁chaloupe	-12376
▁chansons	-12377
▁chaperon	-12378
▁charades	-12379
▁charmant	-12380
▁chaudron	-12381
▁châteaux	-12382
▁claquant	-12383
▁clippers	-12384
▁cliquant	-12385
▁coiffant	-12386
▁colombie	-12387
▁colonial	-12388
▁coloriés	-12389
▁comporte	-12390
▁confetti	-12391
▁consoles	-12392
▁corsaire	-12393
▁costauds	-12394
▁courtepo	-12395
▁couvrent	-12396
▁cowgirls	-12397
▁croquant	-12398
▁crushers	-12399
zda	-12400
aits	-12401
arth	-12402
artt	-12403
lait	-12404
▁pae	-12405
▁ute	-12406
aiter	-12407
appes	-12408
hartt	-12409
optée	-12410
scout	-12411
êtait	-12412
▁bolo	-12413
▁boys	-12414
▁hart	-12415
▁prep	-12416
▁remu	-12417
▁roll	-12418
▁scié	-12419
▁synd	-12420
▁utep	-12421
aluant	-12422
artans	-12423
erence	-12424
haiter	-12425
issait	-12426
ombres	-12427
▁astro	-12428
▁booth	-12429
▁dorad	-12430
▁dévie	-12431
▁earth	-12432
▁mazda	-12433
▁naufr	-12434
▁suppl	-12435
▁supér	-12436
aignant	-12437
inantes	-12438
quantes	-12439
▁bridés	-12440
▁copies	-12441
▁dorado	-12442
▁dégage	-12443
▁gondol	-12444
▁jantes	-12445
▁nappes	-12446
▁racont	-12447
▁remous	-12448
▁sabots	-12449
atouille	-12450
onnantes	-12451
▁adoptée	-12452
▁arbuste	-12453
▁bricole	-12454
▁briquet	-12455
▁bustier	-12456
▁caricat	-12457
▁confuse	-12458
▁défaits	-12459
▁jardins	-12460
▁morning	-12461
▁mortier	-12462
▁pailles	-12463
▁parlait	-12464
▁prepare	-12465
▁supplie	-12466
▁transat	-12467
haiterait	-12468
ominantes	-12469
▁agissait	-12470
▁carhartt	-12471
▁concerts	-12472
▁crustacé	-12473
▁câlinent	-12474
▁deneiger	-12475
▁devenant	-12476
▁dimanche	-12477
▁diplômés	-12478
▁disperse	-12479
▁divertis	-12480
▁doberman	-12481
▁doublant	-12482
▁doublent	-12483
▁déblayer	-12484
▁décalcom	-12485
▁déchaîne	-12486
▁décision	-12487
▁décorent	-12488
▁découvre	-12489
▁défendre	-12490
▁défensif	-12491
▁déguster	-12492
▁délabrés	-12493
▁déplacée	-12494
▁déplacés	-12495
▁dépliant	-12496
▁dépliées	-12497
▁déployée	-12498
▁détacher	-12499
pts	-12500
▁wh	-12501
fils	-12502
heye	-12503
▁jod	-12504
▁nyp	-12505
▁who	-12506
▁wif	-12507
audis	-12508
ensés	-12509
èvent	-12510
▁cils	-12511
▁coss	-12512
▁jodh	-12513
▁nypd	-12514
▁wend	-12515
▁wifi	-12516
▁wisc	-12517
idales	-12518
isheye	-12519
venter	-12520
érante	-12521
éritée	-12522
▁cospl	-12523
▁cossu	-12524
▁doute	-12525
▁espér	-12526
▁event	-12527
▁jodhp	-12528
▁oeufs	-12529
▁ronge	-12530
▁réuni	-12531
▁voice	-12532
▁wendy	-12533
▁whack	-12534
▁whole	-12535
ituteur	-12536
▁damier	-12537
▁escarp	-12538
▁fatigu	-12539
▁glacés	-12540
▁grogne	-12541
▁gymnas	-12542
▁hivern	-12543
▁hochet	-12544
▁masses	-12545
▁nasses	-12546
▁palier	-12547
▁pentes	-12548
▁taudis	-12549
▁étales	-12550
ubérante	-12551
vergreen	-12552
▁convent	-12553
▁cosplay	-12554
▁douteux	-12555
▁exposer	-12556
▁fisheye	-12557
▁hippies	-12558
▁murales	-12559
▁méritée	-12560
▁rivales	-12561
▁récente	-12562
▁wiscons	-12563
▁écloses	-12564
▁élèvent	-12565
▁allument	-12566
▁concepts	-12567
▁couvreur	-12568
▁cultures	-12569
▁dansante	-12570
▁dédicace	-12571
▁détaillé	-12572
▁détenues	-12573
▁détérior	-12574
▁emballés	-12575
▁embrumée	-12576
▁emprunte	-12577
▁enchaîne	-12578
▁enchères	-12579
▁enfoncer	-12580
▁enfoncée	-12581
▁enfuient	-12582
▁enfuyant	-12583
▁engagent	-12584
▁enseveli	-12585
▁enterrée	-12586
▁entrepos	-12587
▁entreten	-12588
▁espérons	-12589
▁essuient	-12590
▁exagérée	-12591
▁exceptée	-12592
▁exercent	-12593
▁exotique	-12594
▁extraord	-12595
▁exécutée	-12596
▁eyeliner	-12597
▁facebook	-12598
▁facettes	-12599
nuy	-12600
tuy	-12601
bute	-12602
gnée	-12603
lefs	-12604
tels	-12605
▁tué	-12606
apaud	-12607
clefs	-12608
gines	-12609
honie	-12610
ilote	-12611
itive	-12612
nuyer	-12613
othon	-12614
plast	-12615
rerie	-12616
riote	-12617
robes	-12618
tuyau	-12619
▁mast	-12620
▁phal	-12621
▁réco	-12622
licule	-12623
rognée	-12624
▁avrov	-12625
▁bison	-12626
▁cuite	-12627
▁lakes	-12628
▁morne	-12629
▁morti	-12630
▁parks	-12631
▁pouls	-12632
▁sucre	-12633
asserie	-12634
biennes	-12635
frognée	-12636
ription	-12637
toplast	-12638
▁costco	-12639
▁déséqu	-12640
▁détail	-12641
▁impuis	-12642
▁marley	-12643
▁mouill	-12644
▁récomp	-12645
ouillant	-12646
▁avrovul	-12647
▁cigares	-12648
▁complét	-12649
▁costaud	-12650
▁crapaud	-12651
▁culbute	-12652
▁ennuyer	-12653
▁fraises	-12654
▁grouill	-12655
▁masters	-12656
▁pastels	-12657
▁pissent	-12658
▁réjouit	-12659
▁soulier	-12660
▁tissent	-12661
▁tripode	-12662
▁élancer	-12663
astoplast	-12664
rosseries	-12665
▁abeilles	-12666
▁copilote	-12667
▁division	-12668
▁déséquil	-12669
▁faciales	-12670
▁fatigués	-12671
▁femelles	-12672
▁feuillue	-12673
▁fissurée	-12674
▁florales	-12675
▁fondante	-12676
▁fonderie	-12677
▁fouettée	-12678
▁fouillée	-12679
▁fracasse	-12680
▁frisbeen	-12681
▁frisbees	-12682
▁fromages	-12683
▁fronçant	-12684
▁furetant	-12685
▁galopent	-12686
▁garderie	-12687
▁gauchère	-12688
▁gazeuses	-12689
▁glissade	-12690
▁gonflant	-12691
▁gothique	-12692
▁grandmas	-12693
▁groovent	-12694
▁grouille	-12695
▁guichets	-12696
▁génocide	-12697
▁haillons	-12698
▁halfback	-12699
ercs	-12700
hies	-12701
rodé	-12702
▁bua	-12703
ercue	-12704
▁buée	-12705
▁ennu	-12706
▁loge	-12707
▁loun	-12708
▁rott	-12709
achide	-12710
anchée	-12711
graphy	-12712
égiens	-12713
▁biens	-12714
▁capit	-12715
▁dites	-12716
▁déver	-12717
▁endur	-12718
▁fixée	-12719
▁fumig	-12720
▁messi	-12721
▁poiss	-12722
▁retou	-12723
▁talon	-12724
▁érodé	-12725
atoires	-12726
bernard	-12727
ercueil	-12728
hanchée	-12729
iffrant	-12730
ography	-12731
oothies	-12732
raphies	-12733
▁arrach	-12734
▁barbar	-12735
▁butoir	-12736
▁capill	-12737
▁castle	-12738
▁clercs	-12739
▁ensang	-12740
▁façons	-12741
▁fumeur	-12742
▁fumées	-12743
▁lounge	-12744
▁lécher	-12745
▁paires	-12746
▁placée	-12747
▁planté	-12748
▁rottwe	-12749
▁tombés	-12750
▁tonnes	-12751
chissent	-12752
▁butoirs	-12753
▁capable	-12754
▁coincés	-12755
▁congère	-12756
▁cordons	-12757
▁cuisson	-12758
▁dernier	-12759
▁hameçon	-12760
▁hébergé	-12761
▁pépites	-12762
▁rideaux	-12763
▁silence	-12764
▁tombale	-12765
▁tombeau	-12766
▁arachide	-12767
▁barbarie	-12768
▁capeline	-12769
▁capitole	-12770
▁cercueil	-12771
▁ennuient	-12772
▁fumigène	-12773
▁handball	-12774
▁heurtent	-12775
▁hivernal	-12776
▁horloges	-12777
▁hospital	-12778
▁identifi	-12779
▁identité	-12780
▁immaculé	-12781
▁immatric	-12782
▁immobile	-12783
▁impérial	-12784
▁incurvée	-12785
▁inhalant	-12786
▁intergén	-12787
▁interrog	-12788
▁interrup	-12789
▁inventer	-12790
▁invitées	-12791
▁izabella	-12792
▁jonglage	-12793
▁jouaient	-12794
▁kiosques	-12795
▁liquides	-12796
▁location	-12797
▁logement	-12798
▁louisian	-12799
voy	-12800
héré	-12801
odus	-12802
oyal	-12803
▁bio	-12804
▁dod	-12805
▁doo	-12806
▁nfl	-12807
ermés	-12808
erver	-12809
sants	-12810
▁best	-12811
▁bich	-12812
▁domp	-12813
▁faut	-12814
▁gays	-12815
▁huck	-12816
▁idée	-12817
▁rinc	-12818
▁répl	-12819
▁turc	-12820
irevoy	-12821
niques	-12822
ocante	-12823
ousser	-12824
▁ariel	-12825
▁choux	-12826
▁conso	-12827
▁loyal	-12828
▁machu	-12829
▁périp	-12830
▁shish	-12831
▁snowt	-12832
illants	-12833
otchant	-12834
otiques	-12835
tecteur	-12836
▁amants	-12837
▁amputé	-12838
▁essayé	-12839
▁exodus	-12840
▁harley	-12841
▁lignée	-12842
▁marvel	-12843
▁plants	-12844
▁record	-12845
▁remerc	-12846
▁rincés	-12847
▁tapage	-12848
▁éthéré	-12849
▁anticip	-12850
▁dodgers	-12851
▁dompter	-12852
▁frappée	-12853
▁gentlem	-12854
▁girevoy	-12855
▁huckabe	-12856
▁mangera	-12857
▁masquée	-12858
▁périple	-12859
▁recette	-12860
▁snowtub	-12861
▁volants	-12862
akespeare	-12863
▁brocante	-12864
▁consiste	-12865
▁enfermés	-12866
▁huckabee	-12867
▁jonglent	-12868
▁majorité	-12869
▁manières	-12870
▁manuelle	-12871
▁marmites	-12872
▁marquent	-12873
▁maîtrise	-12874
▁meilleur	-12875
▁memorial	-12876
▁messages	-12877
▁meuleuse	-12878
▁mobilier	-12879
▁mordicus	-12880
▁mortiers	-12881
▁mustangs	-12882
▁musulman	-12883
▁médaillé	-12884
▁narquois	-12885
▁nathalie	-12886
▁naviguer	-12887
▁nettoyés	-12888
▁nunchaku	-12889
▁observés	-12890
▁obstable	-12891
▁oculaire	-12892
▁ondulant	-12893
▁oratrice	-12894
▁organise	-12895
▁pancakes	-12896
▁paravent	-12897
▁patauger	-12898
▁patience	-12899
lém	-12900
oma	-12901
▁zo	-12902
akis	-12903
ency	-12904
omie	-12905
ymne	-12906
▁mud	-12907
▁pio	-12908
▁yak	-12909
plong	-12910
équat	-12911
▁fins	-12912
▁knit	-12913
▁leak	-12914
▁mama	-12915
▁monk	-12916
▁mono	-12917
▁paie	-12918
▁piol	-12919
▁vaut	-12920
▁zoom	-12921
aniche	-12922
onomie	-12923
èchent	-12924
▁acura	-12925
▁conqu	-12926
▁demos	-12927
▁effil	-12928
▁fraie	-12929
▁hymne	-12930
▁kakis	-12931
▁knits	-12932
▁liser	-12933
▁lobes	-12934
▁outre	-12935
▁pensi	-12936
▁pêché	-12937
▁répét	-12938
▁sacré	-12939
▁toise	-12940
▁échap	-12941
▁échou	-12942
▁éclip	-12943
▁érigé	-12944
ataires	-12945
plongée	-12946
▁carlin	-12947
▁contex	-12948
▁copine	-12949
▁emblém	-12950
▁labour	-12951
▁minnie	-12952
▁obstru	-12953
▁pensif	-12954
▁piolet	-12955
▁rasent	-12956
▁sonoma	-12957
▁échang	-12958
▁échapp	-12959
▁adéquat	-12960
▁bleutée	-12961
▁curling	-12962
▁effilée	-12963
▁fidèles	-12964
▁footbag	-12965
▁imprime	-12966
▁monteur	-12967
▁piments	-12968
▁pioches	-12969
▁regency	-12970
▁sèchent	-12971
▁vautour	-12972
▁échouer	-12973
▁éclipse	-12974
aillement	-12975
ocataires	-12976
outrement	-12977
▁conquête	-12978
▁contexte	-12979
▁illumine	-12980
▁labourer	-12981
▁liserets	-12982
▁paiement	-12983
▁patients	-12984
▁patinait	-12985
▁patriote	-12986
▁patronne	-12987
▁paysages	-12988
▁pelletée	-12989
▁photocop	-12990
▁pinceaux	-12991
▁pirogues	-12992
▁platines	-12993
▁plombier	-12994
▁pointues	-12995
▁poivrées	-12996
▁pommiers	-12997
▁ponceuse	-12998
▁popsicle	-12999
blo	-13000
gio	-13001
oile	-13002
escaf	-13003
orgio	-13004
troop	-13005
ueblo	-13006
▁aver	-13007
▁nerf	-13008
▁pape	-13009
▁perm	-13010
▁tebo	-13011
▁écru	-13012
avoile	-13013
escafé	-13014
iorgio	-13015
oupler	-13016
▁affal	-13017
▁avale	-13018
▁avanc	-13019
▁busch	-13020
▁détro	-13021
▁essai	-13022
▁piège	-13023
▁quinn	-13024
▁tebow	-13025
▁vétét	-13026
trooper	-13027
▁appâts	-13028
▁averti	-13029
▁bagage	-13030
▁bryant	-13031
▁buster	-13032
▁confis	-13033
▁enfumé	-13034
▁fisher	-13035
▁killer	-13036
▁piètre	-13037
▁plisse	-13038
▁privée	-13039
▁pueblo	-13040
▁selena	-13041
▁seyant	-13042
▁usagés	-13043
▁affalée	-13044
▁attirer	-13045
▁cuisiné	-13046
▁détroit	-13047
▁giorgio	-13048
▁kilburn	-13049
▁lissant	-13050
▁nescafé	-13051
▁pendues	-13052
▁tirages	-13053
▁émerger	-13054
▁arrivent	-13055
▁avancent	-13056
▁aérosols	-13057
▁brancher	-13058
▁carrosse	-13059
▁distinct	-13060
▁figurant	-13061
▁humanité	-13062
▁ignorant	-13063
▁mystérie	-13064
▁nettoyée	-13065
▁permette	-13066
▁plissant	-13067
▁portefeu	-13068
▁portland	-13069
▁poteries	-13070
▁pourquoi	-13071
▁pression	-13072
▁princess	-13073
▁profanes	-13074
▁profitez	-13075
▁prononcé	-13076
▁propulse	-13077
▁présents	-13078
▁présenté	-13079
▁pâturage	-13080
▁pélicans	-13081
▁question	-13082
▁raclette	-13083
▁raconter	-13084
▁rapports	-13085
▁recueill	-13086
▁recyclée	-13087
▁relayent	-13088
▁religion	-13089
▁remarque	-13090
▁remarqué	-13091
▁remporté	-13092
▁remuants	-13093
▁renommée	-13094
▁rentrera	-13095
▁renversa	-13096
▁renverse	-13097
▁reporter	-13098
▁retirent	-13099
kea	-13100
case	-13101
dale	-13102
enix	-13103
iché	-13104
éché	-13105
agile	-13106
ixant	-13107
tième	-13108
viser	-13109
▁deli	-13110
▁horn	-13111
▁ikea	-13112
▁livr	-13113
▁tira	-13114
▁tirs	-13115
acteur	-13116
conque	-13117
erneur	-13118
iateur	-13119
iforme	-13120
tables	-13121
uelles	-13122
érates	-13123
▁agrès	-13124
▁bâché	-13125
▁disco	-13126
▁gamme	-13127
▁horns	-13128
agistes	-13129
chistes	-13130
ctrices	-13131
desdale	-13132
ubateur	-13133
versent	-13134
▁auteur	-13135
▁bateur	-13136
▁cliché	-13137
▁dinner	-13138
▁glissé	-13139
▁invers	-13140
▁phares	-13141
▁pylône	-13142
▁saltos	-13143
▁serres	-13144
▁teinte	-13145
adiateur	-13146
ettelles	-13147
ingtième	-13148
isateurs	-13149
peignant	-13150
tracteur	-13151
ydesdale	-13152
élérates	-13153
▁apprent	-13154
▁apprise	-13155
▁asséché	-13156
▁bouddha	-13157
▁embrumé	-13158
▁entrées	-13159
▁fragile	-13160
▁hortons	-13161
▁phoenix	-13162
▁réviser	-13163
▁secrets	-13164
▁soixant	-13165
▁stateur	-13166
▁vielles	-13167
boardeurs	-13168
ouverneur	-13169
▁amateurs	-13170
▁apprenti	-13171
▁discount	-13172
▁détendue	-13173
▁entraine	-13174
▁exécuter	-13175
▁fantômes	-13176
▁inverser	-13177
▁mémorial	-13178
▁postures	-13179
▁recouvre	-13180
▁remplace	-13181
▁ricanant	-13182
▁rickshaw	-13183
▁rigolote	-13184
▁rockeurs	-13185
▁rondelle	-13186
▁rotation	-13187
▁roulante	-13188
▁rubrique	-13189
▁rugueuse	-13190
▁récitent	-13191
▁réplique	-13192
▁répondre	-13193
▁réponses	-13194
▁réservée	-13195
▁réticent	-13196
▁révoluti	-13197
▁saladier	-13198
▁salement	-13199
aft	-13200
kee	-13201
aftz	-13202
bias	-13203
erop	-13204
idel	-13205
okee	-13206
opes	-13207
ople	-13208
ussi	-13209
vice	-13210
▁tai	-13211
▁ved	-13212
isole	-13213
oleur	-13214
oport	-13215
ssole	-13216
épide	-13217
▁agir	-13218
▁anal	-13219
▁anne	-13220
▁défi	-13221
▁heat	-13222
▁leaf	-13223
▁news	-13224
▁spri	-13225
▁taqu	-13226
▁yole	-13227
acture	-13228
néaire	-13229
tibias	-13230
ultats	-13231
▁aerop	-13232
▁fidel	-13233
▁flott	-13234
▁jours	-13235
▁morse	-13236
▁nulle	-13237
▁pilon	-13238
▁pride	-13239
▁quasi	-13240
▁salyo	-13241
▁volte	-13242
▁épong	-13243
aftzine	-13244
estique	-13245
oportée	-13246
ostiles	-13247
▁arrond	-13248
▁brisés	-13249
▁connex	-13250
▁corrid	-13251
▁coteau	-13252
▁entonn	-13253
▁misent	-13254
▁novice	-13255
▁patate	-13256
▁pauses	-13257
▁people	-13258
▁réussi	-13259
▁saigne	-13260
▁sprite	-13261
▁tracté	-13262
▁volont	-13263
▁vélomo	-13264
▁épices	-13265
▁bulldog	-13266
▁collège	-13267
▁pouvoir	-13268
▁rouleur	-13269
▁taquine	-13270
▁vedette	-13271
▁éponges	-13272
▁aeropost	-13273
▁amarrent	-13274
▁arrondis	-13275
▁bascules	-13276
▁boussole	-13277
▁camisole	-13278
▁cherokee	-13279
▁corridor	-13280
▁fracture	-13281
▁hostiles	-13282
▁innocent	-13283
▁matériau	-13284
▁partager	-13285
▁sautille	-13286
▁schipper	-13287
▁schizoph	-13288
▁sciences	-13289
▁scrutent	-13290
▁sections	-13291
▁shetland	-13292
▁sinueuse	-13293
▁sirotent	-13294
▁soignent	-13295
▁sorvette	-13296
▁soucieux	-13297
▁soulevée	-13298
▁soulevés	-13299
ipi	-13300
ibér	-13301
idas	-13302
idit	-13303
ieds	-13304
tick	-13305
▁flo	-13306
▁gid	-13307
▁hid	-13308
▁tea	-13309
idire	-13310
laise	-13311
pieds	-13312
▁aile	-13313
▁gidd	-13314
▁pubs	-13315
▁tipi	-13316
aisemb	-13317
geance	-13318
iblant	-13319
itoire	-13320
▁acide	-13321
▁compé	-13322
▁créée	-13323
▁donut	-13324
▁giraf	-13325
▁lacet	-13326
▁noble	-13327
▁panne	-13328
▁répon	-13329
▁sibér	-13330
▁stick	-13331
encieux	-13332
endance	-13333
raisemb	-13334
taurant	-13335
égeance	-13336
▁adidas	-13337
▁collés	-13338
▁compac	-13339
▁eddies	-13340
▁fanées	-13341
▁fioles	-13342
▁flaire	-13343
▁gidday	-13344
▁girafe	-13345
▁gonflé	-13346
▁hidjab	-13347
▁perdre	-13348
▁raidit	-13349
▁ramène	-13350
▁russel	-13351
▁régale	-13352
▁singer	-13353
▁tireur	-13354
idirecti	-13355
▁ciblant	-13356
▁compose	-13357
▁compéti	-13358
▁enfance	-13359
▁floquée	-13360
▁obscène	-13361
▁quitter	-13362
▁requins	-13363
▁réponse	-13364
▁steacks	-13365
▁sweater	-13366
▁touchée	-13367
modélisme	-13368
▁anglaise	-13369
▁asperges	-13370
▁charette	-13371
▁crevasse	-13372
▁cuisinée	-13373
▁fourrant	-13374
▁sibérien	-13375
▁soutiens	-13376
▁sponsors	-13377
▁spécimen	-13378
▁standing	-13379
▁stockage	-13380
▁stupides	-13381
▁styliste	-13382
▁sucettes	-13383
▁sudation	-13384
▁supposer	-13385
▁surgisse	-13386
▁syndiqué	-13387
▁sécurise	-13388
▁sécurisé	-13389
▁séquence	-13390
▁tachetés	-13391
▁tamiseur	-13392
▁tamisées	-13393
▁tapageur	-13394
▁tatouant	-13395
▁teintées	-13396
▁terrible	-13397
▁terriers	-13398
▁thriller	-13399
ioc	-13400
âce	-13401
arme	-13402
oman	-13403
tale	-13404
troc	-13405
▁méc	-13406
▁nup	-13407
ignal	-13408
▁bean	-13409
▁beer	-13410
▁beet	-13411
▁enta	-13412
▁tels	-13413
aignée	-13414
iggles	-13415
intant	-13416
iocass	-13417
urerie	-13418
▁beanb	-13419
▁exact	-13420
▁grâce	-13421
▁insal	-13422
▁lettr	-13423
▁leçon	-13424
▁mante	-13425
▁manus	-13426
▁nupti	-13427
▁pelos	-13428
▁seuil	-13429
▁tamia	-13430
▁woman	-13431
igeants	-13432
tention	-13433
▁alarme	-13434
▁beetle	-13435
▁bisons	-13436
▁devout	-13437
▁dérout	-13438
▁exerce	-13439
▁hippoc	-13440
▁intent	-13441
▁interd	-13442
▁mendié	-13443
▁méconn	-13444
▁ordres	-13445
▁pelosi	-13446
▁rasage	-13447
▁rétroc	-13448
▁zébrée	-13449
▁arrêtez	-13450
▁beanbag	-13451
▁contrec	-13452
▁gardens	-13453
▁insalub	-13454
▁manette	-13455
▁nuptial	-13456
▁orignal	-13457
▁plaçant	-13458
▁poussés	-13459
▁vapeurs	-13460
▁wheelie	-13461
▁wiggles	-13462
▁écroule	-13463
▁étalent	-13464
▁araignée	-13465
▁blessure	-13466
▁culturel	-13467
▁emportés	-13468
▁entament	-13469
▁environs	-13470
▁hippocam	-13471
▁horizons	-13472
▁investit	-13473
▁jodhpurs	-13474
▁lettrage	-13475
▁manuscri	-13476
▁moniteur	-13477
▁puissant	-13478
▁retomber	-13479
▁toiletté	-13480
▁tonnelle	-13481
▁tournées	-13482
▁tractope	-13483
▁traitent	-13484
▁traiteur	-13485
▁trancher	-13486
▁transmet	-13487
▁transpir	-13488
▁trempent	-13489
▁trempées	-13490
▁trinquer	-13491
▁triomphe	-13492
▁trompant	-13493
▁tronçonn	-13494
▁trottent	-13495
▁troubles	-13496
▁trépieds	-13497
▁tympanon	-13498
▁télévisé	-13499
çue	-13500
cend	-13501
enat	-13502
iego	-13503
vins	-13504
▁gab	-13505
▁rév	-13506
▁saf	-13507
cende	-13508
iteux	-13509
mball	-13510
orain	-13511
▁beat	-13512
▁call	-13513
▁dogs	-13514
▁fend	-13515
▁juke	-13516
▁prée	-13517
▁toys	-13518
▁vuit	-13519
asseux	-13520
enatar	-13521
iseurs	-13522
outils	-13523
▁bouge	-13524
▁charb	-13525
▁diego	-13526
▁déçue	-13527
▁gabar	-13528
▁ipods	-13529
▁kerry	-13530
▁lisse	-13531
▁métho	-13532
▁petri	-13533
▁plumé	-13534
▁poire	-13535
▁safar	-13536
mballés	-13537
oricain	-13538
▁assist	-13539
▁bovins	-13540
▁callig	-13541
▁handis	-13542
▁harang	-13543
▁palmes	-13544
▁percés	-13545
▁piteux	-13546
▁rituel	-13547
▁révise	-13548
▁safari	-13549
▁sarong	-13550
▁surgit	-13551
▁écoule	-13552
descende	-13553
mosphère	-13554
▁beatles	-13555
▁benatar	-13556
▁builder	-13557
▁classic	-13558
▁conchor	-13559
▁exhibit	-13560
▁fouette	-13561
▁gabarit	-13562
▁glaçons	-13563
▁méthode	-13564
▁onduler	-13565
▁ovation	-13566
▁theatre	-13567
▁trèfles	-13568
▁vuitton	-13569
▁bloquant	-13570
▁charbons	-13571
▁connecte	-13572
▁crasseux	-13573
▁cuiseurs	-13574
▁dévotion	-13575
▁harangue	-13576
▁solaires	-13577
▁soutenue	-13578
▁terminal	-13579
▁utilisée	-13580
▁vendredi	-13581
▁verdâtre	-13582
▁vidéaste	-13583
▁visiteur	-13584
▁volantes	-13585
▁williams	-13586
▁écartant	-13587
▁échanger	-13588
▁échapper	-13589
▁éclatant	-13590
▁économie	-13591
▁écrasent	-13592
▁écrasées	-13593
▁égyptien	-13594
▁éliminer	-13595
▁éloigner	-13596
▁éloignée	-13597
▁éplucher	-13598
▁équinoxe	-13599
nc	-13600
vs	-13601
eps	-13602
pap	-13603
sée	-13604
airé	-13605
ardi	-13606
illy	-13607
inée	-13608
nage	-13609
êton	-13610
▁jub	-13611
▁née	-13612
▁pnc	-13613
▁pél	-13614
▁rvs	-13615
▁tem	-13616
casse	-13617
erine	-13618
inage	-13619
issée	-13620
isèle	-13621
▁chel	-13622
▁coke	-13623
▁wood	-13624
▁zéro	-13625
antent	-13626
apeurs	-13627
clairé	-13628
ournal	-13629
papier	-13630
wanais	-13631
éritif	-13632
▁bêton	-13633
▁enfou	-13634
▁fixés	-13635
▁houss	-13636
▁jeeps	-13637
▁mardi	-13638
▁marée	-13639
▁mâché	-13640
▁prévu	-13641
▁tempe	-13642
▁touss	-13643
▁voilé	-13644
journal	-13645
nageurs	-13646
tissant	-13647
éclairé	-13648
▁autant	-13649
▁causée	-13650
▁chelse	-13651
▁cisèle	-13652
▁entrem	-13653
▁hissée	-13654
▁living	-13655
▁maruga	-13656
▁ourdou	-13657
▁rabats	-13658
▁remuer	-13659
▁wheels	-13660
guration	-13661
âtissant	-13662
▁blessés	-13663
▁bordées	-13664
▁cadence	-13665
▁chateau	-13666
▁chelsea	-13667
▁classes	-13668
▁entremê	-13669
▁ferment	-13670
▁housses	-13671
▁quattro	-13672
▁sapeurs	-13673
▁tousser	-13674
▁tubiste	-13675
▁vantent	-13676
ôtisserie	-13677
▁apéritif	-13678
▁armature	-13679
▁bouclées	-13680
▁carcasse	-13681
▁chantons	-13682
▁enfouies	-13683
▁immédiat	-13684
▁jubilant	-13685
▁préférée	-13686
▁pélerine	-13687
▁raffinée	-13688
▁verrière	-13689
▁évacuent	-13690
▁éventuel	-13691
alisations	-13692
amponneuse	-13693
ationalité	-13694
ationnelle	-13695
auguration	-13696
ccablement	-13697
dreadlocks	-13698
déogrammes	-13699
iol	-13700
rix	-13701
fois	-13702
oisé	-13703
olis	-13704
rase	-13705
viol	-13706
▁réa	-13707
▁sed	-13708
alien	-13709
anque	-13710
ontag	-13711
uries	-13712
voisé	-13713
▁cité	-13714
▁devr	-13715
▁goud	-13716
▁mell	-13717
▁parv	-13718
▁réaj	-13719
endrix	-13720
ontaga	-13721
▁incap	-13722
▁léché	-13723
▁menée	-13724
▁noués	-13725
▁sedan	-13726
▁virou	-13727
endides	-13728
ilisant	-13729
rivoisé	-13730
tralien	-13731
violets	-13732
▁droits	-13733
▁humano	-13734
▁israél	-13735
▁mellon	-13736
▁phrase	-13737
▁piloté	-13738
▁pourra	-13739
▁roulés	-13740
▁réajus	-13741
assettes	-13742
lendides	-13743
stralien	-13744
▁autours	-13745
▁campant	-13746
▁comédie	-13747
▁devrais	-13748
▁dégradé	-13749
▁faciaux	-13750
▁gitanes	-13751
▁gontaga	-13752
▁goudron	-13753
▁hendrix	-13754
▁pagaies	-13755
▁perches	-13756
▁régimes	-13757
▁écuries	-13758
▁éméchés	-13759
▁blotties	-13760
▁intercep	-13761
▁pétanque	-13762
▁réajuste	-13763
▁slammant	-13764
▁verrerie	-13765
▁écossant	-13766
ertilisant	-13767
iligemment	-13768
iocassette	-13769
itairement	-13770
mmigration	-13771
opératoire	-13772
ormtrooper	-13773
restaurant	-13774
upperwares	-13775
▁abondante	-13776
▁accordant	-13777
▁adorables	-13778
▁adressent	-13779
▁affairent	-13780
▁affichant	-13781
▁agricoles	-13782
▁allaitant	-13783
▁allemagne	-13784
▁alliances	-13785
▁analysent	-13786
▁anciennes	-13787
▁animalier	-13788
▁animateur	-13789
▁apparente	-13790
▁applaudie	-13791
▁approvisi	-13792
▁appréciés	-13793
▁apprêtait	-13794
▁ardemment	-13795
▁argentées	-13796
▁armurerie	-13797
▁arrosages	-13798
▁assembler	-13799
yd	-13800
aso	-13801
icô	-13802
igu	-13803
ita	-13804
ols	-13805
▁eb	-13806
aple	-13807
mbot	-13808
▁fez	-13809
▁icô	-13810
▁nas	-13811
▁pri	-13812
aider	-13813
allie	-13814
anner	-13815
asard	-13816
asers	-13817
asoil	-13818
bille	-13819
yduck	-13820
▁army	-13821
▁dior	-13822
▁ebay	-13823
▁hope	-13824
▁mark	-13825
▁shot	-13826
▁skat	-13827
▁solu	-13828
garita	-13829
outent	-13830
▁aigle	-13831
▁appui	-13832
▁bland	-13833
▁enfin	-13834
▁exigu	-13835
▁garni	-13836
▁hisse	-13837
▁icône	-13838
▁jugés	-13839
▁maple	-13840
▁moose	-13841
▁prius	-13842
▁ravit	-13843
▁tools	-13844
erbille	-13845
garland	-13846
joutent	-13847
manteau	-13848
mbotron	-13849
▁entreb	-13850
▁gasoil	-13851
▁hasard	-13852
▁improv	-13853
▁nascar	-13854
▁quitté	-13855
▁sallie	-13856
▁tenait	-13857
▁arrangé	-13858
▁attaqué	-13859
▁chasers	-13860
▁choisie	-13861
▁conique	-13862
▁entrebâ	-13863
▁friment	-13864
▁mesurer	-13865
▁psyduck	-13866
▁résiste	-13867
▁scanner	-13868
▁skaters	-13869
▁élagage	-13870
▁étendus	-13871
▁évasion	-13872
▁bénévole	-13873
▁encadrés	-13874
▁enrouler	-13875
▁gerbille	-13876
▁goélands	-13877
▁observée	-13878
▁rawlings	-13879
▁solution	-13880
▁étiqueté	-13881
▁attablées	-13882
▁attendait	-13883
▁audacieux	-13884
▁auditives	-13885
▁autrefois	-13886
▁aéroporté	-13887
▁balayeuse	-13888
▁balaçoire	-13889
▁balnéaire	-13890
▁barbecues	-13891
▁basketeur	-13892
▁bateliers	-13893
▁bollywood	-13894
▁bonhommes	-13895
▁braguette	-13896
▁branchant	-13897
▁bricolage	-13898
▁bricoleur	-13899
ew	-13900
ael	-13901
mer	-13902
oug	-13903
pie	-13904
arab	-13905
doug	-13906
inér	-13907
tout	-13908
uvré	-13909
▁lin	-13910
dough	-13911
eword	-13912
▁impe	-13913
▁pair	-13914
▁pinc	-13915
▁vans	-13916
aniste	-13917
arabée	-13918
itinér	-13919
mergée	-13920
▁connu	-13921
▁hautb	-13922
▁kebab	-13923
▁nique	-13924
▁opère	-13925
▁pairs	-13926
▁papas	-13927
▁quand	-13928
▁verti	-13929
alisant	-13930
minable	-13931
raction	-13932
▁chanté	-13933
▁convoi	-13934
▁fasten	-13935
▁fermet	-13936
▁itinér	-13937
▁lincol	-13938
▁magpie	-13939
▁smashé	-13940
▁vertig	-13941
▁achetés	-13942
▁attendu	-13943
▁basking	-13944
▁blottis	-13945
▁combien	-13946
▁courges	-13947
▁engager	-13948
▁gênante	-13949
▁lincoln	-13950
▁meulant	-13951
▁michael	-13952
▁papasan	-13953
▁parkour	-13954
▁pincées	-13955
▁revenir	-13956
▁ventres	-13957
▁accalmie	-13958
▁bouclier	-13959
▁boueuses	-13960
▁carrière	-13961
▁concourt	-13962
▁confiser	-13963
▁freeword	-13964
▁géranium	-13965
▁hautbois	-13966
▁matchent	-13967
▁motorisé	-13968
▁méticule	-13969
▁passante	-13970
▁scarabée	-13971
▁tartuffe	-13972
▁étoilées	-13973
▁brigadier	-13974
▁brindille	-13975
▁brochette	-13976
▁bronislaw	-13977
▁brouettes	-13978
▁brumeuses	-13979
▁brutalité	-13980
▁brésilien	-13981
▁cafetière	-13982
▁cameraman	-13983
▁cendreuse	-13984
▁certifiée	-13985
▁chamallow	-13986
▁changeant	-13987
▁chaparral	-13988
▁charcuter	-13989
▁charlotte	-13990
▁chasseurs	-13991
▁chercheur	-13992
▁chevelure	-13993
▁choquante	-13994
▁chèrement	-13995
▁clairsemé	-13996
▁classeurs	-13997
▁clochette	-13998
▁cocktails	-13999
df	-14000
hés	-14001
dend	-14002
▁auc	-14003
▁sdf	-14004
▁tie	-14005
▁ébl	-14006
hésif	-14007
oison	-14008
▁clip	-14009
▁okay	-14010
▁papy	-14011
▁racc	-14012
▁sino	-14013
▁sono	-14014
▁tonn	-14015
dodend	-14016
ganise	-14017
▁aucun	-14018
▁bruce	-14019
▁créme	-14020
▁denim	-14021
▁désas	-14022
▁dévas	-14023
▁filer	-14024
▁grant	-14025
▁magie	-14026
▁noces	-14027
▁plots	-14028
▁raids	-14029
▁éblou	-14030
▁émeri	-14031
atement	-14032
▁chaire	-14033
▁donald	-14034
▁déchir	-14035
▁kaléid	-14036
▁phoque	-14037
▁servie	-14038
▁toison	-14039
bitative	-14040
hododend	-14041
organise	-14042
▁adhésif	-14043
▁captivé	-14044
▁dévasté	-14045
▁excepté	-14046
▁jardine	-14047
▁marques	-14048
▁massent	-14049
▁raccord	-14050
▁sceller	-14051
▁situées	-14052
▁teintes	-14053
▁tiroirs	-14054
▁tonneau	-14055
▁éblouie	-14056
▁balancée	-14057
▁baptiser	-14058
▁contourn	-14059
▁crémeuse	-14060
▁cyclisme	-14061
▁downtown	-14062
▁déchirés	-14063
▁défenses	-14064
▁désastre	-14065
▁détenant	-14066
▁emballer	-14067
▁haltères	-14068
▁vignoble	-14069
opolitaine	-14070
▁agressifs	-14071
▁attentive	-14072
▁cartables	-14073
▁coloniaux	-14074
▁colorants	-14075
▁coloriant	-14076
▁combative	-14077
▁commandos	-14078
▁communaux	-14079
▁compactes	-14080
▁compensés	-14081
▁compliqué	-14082
▁concevant	-14083
▁conchords	-14084
▁concombre	-14085
▁condiment	-14086
▁conduites	-14087
▁conifères	-14088
▁connexion	-14089
▁contemple	-14090
▁converser	-14091
▁convivial	-14092
▁corbeille	-14093
▁corsaires	-14094
▁couturier	-14095
▁craftzine	-14096
▁craignant	-14097
▁crevasses	-14098
▁croissant	-14099
zn	-14100
ala	-14101
aub	-14102
erg	-14103
gne	-14104
rié	-14105
▁er	-14106
anse	-14107
eple	-14108
food	-14109
ises	-14110
ondo	-14111
prié	-14112
tics	-14113
znos	-14114
▁exx	-14115
▁jal	-14116
▁nes	-14117
▁quy	-14118
auban	-14119
chase	-14120
ergiz	-14121
erson	-14122
ourou	-14123
sseur	-14124
wondo	-14125
▁aber	-14126
▁coqs	-14127
▁exxx	-14128
▁funk	-14129
▁lour	-14130
▁légè	-14131
▁nour	-14132
▁sage	-14133
adgets	-14134
andent	-14135
belles	-14136
cience	-14137
helins	-14138
kwondo	-14139
olique	-14140
oupala	-14141
édiant	-14142
▁aises	-14143
▁chers	-14144
▁cogne	-14145
▁colib	-14146
▁funky	-14147
▁mulet	-14148
▁nesqu	-14149
▁panse	-14150
ergizer	-14151
ignonne	-14152
phelins	-14153
▁aberde	-14154
▁errent	-14155
▁exxxot	-14156
▁lourde	-14157
▁nourri	-14158
▁scrute	-14159
▁serena	-14160
▁tamise	-14161
▁toques	-14162
▁vauban	-14163
angourou	-14164
igatoire	-14165
oscience	-14166
▁briller	-14167
▁celtics	-14168
▁chamois	-14169
▁colibri	-14170
▁courage	-14171
▁folique	-14172
▁gadgets	-14173
▁mâchent	-14174
▁narines	-14175
▁nesquik	-14176
▁quiznos	-14177
▁relevés	-14178
▁rédiger	-14179
▁steeple	-14180
▁youpala	-14181
▁aberdeen	-14182
▁festives	-14183
▁figurine	-14184
▁formelle	-14185
▁glandent	-14186
▁légèreté	-14187
▁mesureur	-14188
▁mignonne	-14189
▁peterson	-14190
▁porcelet	-14191
▁rabobank	-14192
▁rebelles	-14193
▁rousseur	-14194
▁soutient	-14195
uroscience	-14196
▁approprié	-14197
▁champêtre	-14198
▁comédiens	-14199
mc	-14200
chy	-14201
kin	-14202
och	-14203
uch	-14204
wat	-14205
andh	-14206
terc	-14207
▁dmc	-14208
▁nik	-14209
▁pès	-14210
▁tau	-14211
▁zip	-14212
andhi	-14213
anier	-14214
ender	-14215
uchsi	-14216
▁bush	-14217
▁kipp	-14218
▁peur	-14219
achoir	-14220
hender	-14221
octant	-14222
uchsia	-14223
▁amusé	-14224
▁colis	-14225
▁exhor	-14226
▁hissé	-14227
▁jouff	-14228
▁kippa	-14229
▁mooch	-14230
▁nikon	-14231
▁nouée	-14232
▁paume	-14233
▁pieux	-14234
▁pékin	-14235
▁taupe	-14236
▁vichy	-14237
▁vigne	-14238
watcher	-14239
éhender	-14240
▁alterc	-14241
▁bondir	-14242
▁débute	-14243
▁gandhi	-14244
▁pèsent	-14245
▁seules	-14246
▁surche	-14247
▁zippée	-14248
intanier	-14249
▁antenne	-14250
▁carcass	-14251
▁exhorte	-14252
▁fuchsia	-14253
▁hachoir	-14254
▁joufflu	-14255
▁macaron	-14256
▁science	-14257
[...]
